<unk>	0
<s>	0
</s>	0
▁	-3.06572
.	-3.48748
이	-4.38003
..	-4.40402
▁영화	-4.58592
...	-4.63168
가	-4.68286
의	-4.69126
도	-4.73752
는	-4.76958
,	-4.91804
을	-4.97019
에	-5.03261
고	-5.0637
다	-5.15554
은	-5.17854
지	-5.29831
?	-5.33328
한	-5.44236
를	-5.51243
▁너무	-5.53183
만	-5.55061
!	-5.61305
게	-5.63483
로	-5.65583
▁정말	-5.68741
▁이	-5.73582
나	-5.73583
▁진짜	-5.83075
영화	-5.91435
~	-5.92187
과	-5.94242
어	-5.98365
리	-6.08386
아	-6.08837
기	-6.09314
인	-6.14458
으로	-6.16386
서	-6.17472
하고	-6.17841
점	-6.1999
라	-6.20667
네	-6.21542
▁그	-6.22454
▁안	-6.24653
요	-6.2606
▁잘	-6.27417
들	-6.27821
와	-6.31514
에서	-6.35072
▁더	-6.40075
▁1	-6.41229
거	-6.41344
하는	-6.4145
▁왜	-6.42528
!!	-6.42784
▁수	-6.43322
네요	-6.43456
▁다	-6.43808
▁아	-6.4598
▁이런	-6.49208
....	-6.49772
해	-6.50908
스	-6.5144
자	-6.51552
▁그냥	-6.56383
▁본	-6.61776
수	-6.63685
면	-6.6545
하	-6.65696
▁드라마	-6.66805
음	-6.67696
지만	-6.67924
야	-6.70069
시	-6.71407
사	-6.72174
대	-6.72219
▁보고	-6.72357
▁평점	-6.72494
▁연기	-6.72684
▁영화를	-6.72803
▁한	-6.73346
니	-6.78252
▁10	-6.78412
함	-6.81303
진	-6.81414
▁내	-6.82002
이다	-6.82925
하게	-6.82967
일	-6.83085
▁좀	-6.84605
여	-6.86797
▁봤는데	-6.86974
데	-6.87261
하다	-6.87326
구	-6.89373
정	-6.91742
상	-6.92347
미	-6.93503
임	-6.93507
▁참	-6.94088
까지	-6.94949
할	-6.95214
▁영화는	-6.95279
드	-6.95302
▁최고	-6.95504
보다	-6.97134
▁내가	-6.97344
▁나	-6.97492
냐	-6.97841
는데	-6.97974
▁이거	-6.98063
▁없는	-6.98284
▁이건	-6.99638
▁최고의	-6.9984
들이	-7.00314
우	-7.00361
▁못	-7.00949
주	-7.01048
듯	-7.01639
▁영화가	-7.01894
신	-7.02873
보	-7.03783
▁스토리	-7.03795
안	-7.04118
▁없다	-7.04666
해서	-7.04917
▁ᄏᄏ	-7.04923
▁개	-7.05465
▁쓰레기	-7.06404
▁있는	-7.06597
▁2	-7.06902
성	-7.07538
장	-7.07579
▁완전	-7.07622
던	-7.07881
▁보	-7.08398
ᄏᄏ	-7.09728
▁다시	-7.10404
트	-7.10698
적	-7.10932
마	-7.11681
오	-7.12555
전	-7.12664
▁이렇게	-7.12718
히	-7.14413
건	-7.14867
화	-7.15134
치	-7.15543
▁보는	-7.16183
랑	-7.16319
▁이게	-7.16806
▁좋은	-7.16903
▁것	-7.17548
부	-7.17628
^^	-7.19358
려	-7.20574
러	-7.20836
질	-7.20842
보고	-7.2093
▁볼	-7.21298
비	-7.22375
▁말	-7.22534
▁난	-7.22684
때	-7.228
분	-7.24305
개	-7.24626
!!!	-7.24903
내	-7.25502
▁평점이	-7.26179
중	-7.26756
1	-7.2838
▁3	-7.28618
세	-7.29934
▁저	-7.30396
▁오	-7.30865
▁많이	-7.31038
2	-7.31053
;;	-7.31489
라고	-7.31745
그	-7.33626
ᄏ	-7.33927
인데	-7.34049
▁하	-7.34313
▁작품	-7.34401
▁넘	-7.34906
▁생각	-7.35666
▁뭐	-7.37074
용	-7.37119
적인	-7.38202
▁역시	-7.38441
물	-7.38555
것	-7.38645
말	-7.39101
▁지	-7.39944
소	-7.39953
▁재미	-7.40387
▁재밌게	-7.40466
원	-7.40619
▁전	-7.40978
▁하는	-7.4098
~~	-7.41076
▁또	-7.41246
??	-7.4163
년	-7.41702
▁마지막	-7.4185
▁감동	-7.42943
▁별로	-7.43095
▁그리고	-7.4324
▁감독	-7.43415
디	-7.45244
▁비	-7.46078
▁무	-7.46099
▁이야기	-7.46507
▁하나	-7.46951
▁주	-7.47211
감	-7.47944
▁없고	-7.48532
진짜	-7.48877
선	-7.49092
ᅲᅲ	-7.49623
하지	-7.49801
▁중	-7.50012
같은	-7.50092
했다	-7.50622
걸	-7.50837
부터	-7.51303
▁지금	-7.51575
습니다	-7.52266
▁꼭	-7.52299
▁별	-7.52425
;	-7.53022
조	-7.53829
▁아니	-7.53959
제	-7.54148
▁만든	-7.54812
'	-7.55426
▁기대	-7.55748
라는	-7.55761
▁무슨	-7.56126
군	-7.56212
입니다	-7.56544
모	-7.56652
식	-7.56744
▁일	-7.57548
▁느낌	-7.5781
▁연출	-7.57952
▁정	-7.58449
무	-7.58496
급	-7.58965
된	-7.59021
영	-7.59439
유	-7.5955
▁할	-7.59932
▁김	-7.60435
긴	-7.60454
작	-7.60554
▁사랑	-7.60631
)	-7.60637
▁사	-7.61701
▁보면	-7.62109
▁시간	-7.62484
▁한국	-7.62502
▁아깝다	-7.62508
▁다른	-7.62605
란	-7.63002
좀	-7.63027
이나	-7.63046
▁ᄏᄏᄏ	-7.63341
발	-7.63906
ᄏᄏᄏ	-7.64023
당	-7.64055
▁내용	-7.64086
본	-7.64442
없는	-7.64735
레	-7.64735
더	-7.64914
어요	-7.64955
3	-7.6594
명	-7.66332
줄	-7.66921
▁ᅲᅲ	-7.67193
에게	-7.67744
▁배우	-7.68627
심	-7.69081
▁조	-7.69164
두	-7.69241
▁유	-7.69267
남	-7.69354
▁대	-7.69359
연	-7.69691
너무	-7.70009
▁가장	-7.70427
난	-7.70587
▁일본	-7.70798
드라마	-7.71111
▁자	-7.71183
동	-7.71545
▁신	-7.71986
▁때	-7.72148
씨	-7.7218
단	-7.72505
▁처음	-7.72583
편	-7.72641
르	-7.7281
바	-7.72902
▁액션	-7.73136
까	-7.73608
정말	-7.7365
있는	-7.73767
으	-7.7391
호	-7.74015
▁명작	-7.74139
▁끝까지	-7.74314
프	-7.74475
린	-7.7457
며	-7.75367
워	-7.75488
▁마	-7.75748
▁ᅳᅳ	-7.76066
울	-7.76247
▁말이	-7.76819
운	-7.76916
▁영화다	-7.76952
처럼	-7.7701
연기	-7.77907
▁사람	-7.79047
▁많은	-7.79284
으면	-7.79645
▁짱	-7.79679
▁있다	-7.79736
ᅲ	-7.80033
▁ᄏ	-7.81501
민	-7.81547
▁남	-7.81639
터	-7.81714
날	-7.81993
▁알	-7.82244
한다	-7.82334
▁소	-7.82438
인지	-7.82463
▁같은	-7.82494
살	-7.82534
크	-7.82707
▁여자	-7.83284
(	-7.83289
▁'	-7.83323
▁미	-7.83477
인가	-7.83661
피	-7.83906
래	-7.8399
▁좋다	-7.84053
때문에	-7.84345
면서	-7.84543
▁돈	-7.84558
▁모두	-7.84964
하면	-7.85021
경	-7.85633
희	-7.86068
▁두	-7.86103
▁하지만	-7.86202
저	-7.86511
었다	-7.86711
위	-7.86884
▁솔직히	-7.87483
들의	-7.87605
실	-7.87686
,,	-7.87811
준	-7.8788
▁모	-7.88141
죠	-7.8816
▁봤다	-7.88411
▁와	-7.88416
▁계속	-7.8885
▁거	-7.88861
하나	-7.88907
▁아니라	-7.88929
타	-7.89001
▁대한	-7.89251
▁코미디	-7.89462
▁제	-7.89476
되는	-7.89671
▁우리	-7.89947
구나	-7.90478
간	-7.90751
▁최악	-7.90955
▁뭔가	-7.91653
▁내용이	-7.91887
ᅳᅳ	-7.92106
방	-7.92175
▁후	-7.92177
파	-7.92831
▁4	-7.9288
잘	-7.94062
▁애	-7.94216
▁아닌	-7.94248
하지만	-7.9467
재	-7.94865
이랑	-7.94917
이라	-7.95385
▁반	-7.9553
했던	-7.95754
▁같다	-7.95756
없이	-7.96106
류	-7.96107
▁구	-7.96135
▁실망	-7.96279
▁어	-7.96299
판	-7.96355
▁봐도	-7.96714
시간	-7.96789
님	-7.96991
▁이제	-7.97188
노	-7.9723
생	-7.97353
4	-7.97363
▁이해	-7.97726
▁이걸	-7.97729
▁전혀	-7.97921
▁기	-7.97949
엔	-7.98347
-	-7.98535
▁아주	-7.98536
림	-7.9893
차	-7.99009
▁그래도	-7.99251
▁재미없다	-7.99308
▁나오는	-7.99453
▁해	-7.99521
이라는	-7.99538
겨	-7.99813
▁재밌다	-7.99881
▁보기	-7.99896
▁시	-8.00104
▁만드는	-8.00395
국	-8.00464
루	-8.00756
▁추천	-8.008
▁부	-8.00927
즈	-8.01715
▁내내	-8.02067
▁그런	-8.02227
들은	-8.02293
▁우	-8.02431
길	-8.02485
▁어떻게	-8.02535
▁장면	-8.02823
▁남자	-8.02898
▁줄	-8.03182
▁딱	-8.03198
번	-8.03352
▁ᄒᄒ	-8.03379
▁배우들	-8.03559
▁되	-8.04015
▁장	-8.04201
애	-8.04258
▁전개	-8.04464
다니	-8.04464
다가	-8.04808
▁재미있게	-8.04825
▁최악의	-8.0512
지도	-8.05308
▁모든	-8.05354
▁않고	-8.0583
현	-8.05931
▁8	-8.05985
행	-8.0606
적으로	-8.06288
▁강	-8.06409
▁욕	-8.06433
▁아니다	-8.06549
티	-8.06642
점도	-8.07542
합니다	-8.07696
▁연기가	-8.07801
코	-8.08204
관	-8.0827
달	-8.08319
▁연기도	-8.08402
쳐	-8.08454
5	-8.08712
생각	-8.08775
형	-8.08925
▁만들어	-8.08965
▁원작	-8.09162
▁이영화	-8.09373
지는	-8.09548
봤는데	-8.10318
▁대박	-8.10505
▁수준	-8.10583
▁감독이	-8.10595
볼	-8.10764
e	-8.10835
이고	-8.10905
▁건	-8.10924
▁요즘	-8.10963
▁바	-8.10994
▁캐릭터	-8.11334
~~~	-8.11344
▁좋아	-8.11804
것도	-8.11939
하기	-8.12072
겠다	-8.12119
▁주인공	-8.12246
▁0	-8.12779
▁5	-8.12789
▁보다	-8.12994
후	-8.13197
▁박	-8.13348
들을	-8.13425
▁한번	-8.14362
▁공포	-8.14386
▁듯	-8.14579
키	-8.14769
▁결말	-8.14873
▁아니고	-8.15059
▁아름다운	-8.15446
▁조금	-8.15573
▁이상	-8.15596
박	-8.15782
▁끝	-8.15935
죽	-8.1626
▁노	-8.16381
▁원	-8.16495
10	-8.16547
이란	-8.16611
▁좋고	-8.16677
어서	-8.16729
▁엄청	-8.16757
보면	-8.17132
▁근데	-8.17534
▁정도	-8.17581
▁나름	-8.17664
카	-8.17713
▁7	-8.17907
매	-8.18027
한테	-8.18077
니까	-8.18102
▁되는	-8.18148
망	-8.18196
▁심	-8.18197
▁인간	-8.18222
▁소재	-8.18307
년대	-8.18348
없	-8.18656
▁제일	-8.19157
되	-8.19191
왜	-8.19331
▁인생	-8.19503
▁않는	-8.19711
▁보다가	-8.19765
▁기억	-8.1992
▁스	-8.20022
▁현실	-8.20066
▁눈	-8.2038
""	-8.20409
이라고	-8.20471
글	-8.20523
▁눈물	-8.2095
▁불	-8.2115
반	-8.21212
니다	-8.21252
하네	-8.21364
꺼	-8.21415
▁시간이	-8.21752
▁대사	-8.2186
▁스릴러	-8.22308
▁개봉	-8.22311
▁차라리	-8.22312
▁굿	-8.22484
▁만들	-8.22898
▁내용도	-8.23086
d	-8.2311
▁나는	-8.23204
▁여	-8.23347
점이	-8.23452
▁진심	-8.2364
사람	-8.2371
ᄒᄒ	-8.23735
▁않은	-8.24026
▁뻔한	-8.24289
격	-8.24326
▁영화라고	-8.24362
▁시리즈	-8.24607
▁영화의	-8.24802
체	-8.24892
름	-8.25288
▁공	-8.25335
▁미국	-8.25419
속	-8.25495
♥	-8.25516
▁있	-8.25785
▁공포영화	-8.25926
▁울	-8.25982
배	-8.26121
해요	-8.26302
정도	-8.26672
▁음악	-8.26794
▁때문에	-8.2699
못	-8.26998
토	-8.27251
없다	-8.27267
뿐	-8.27369
든	-8.27406
▁가슴	-8.27447
▁표현	-8.27534
▁특히	-8.27786
/	-8.27788
역	-8.28079
보는	-8.28155
했는데	-8.2825
공	-8.28355
▁피	-8.28385
▁20	-8.28831
▁영	-8.29127
▁몇	-8.29231
더라	-8.29307
태	-8.2935
▁반전	-8.29804
▁인	-8.29815
짱	-8.29898
▁속	-8.30027
인듯	-8.30203
회	-8.3067
▁스토리도	-8.30734
!!!!	-8.30772
▁아직도	-8.31205
▁영상	-8.31214
▁감독의	-8.31279
계	-8.31368
▁싶다	-8.31591
져	-8.31626
▁보면서	-8.32031
▁애니	-8.32123
▁남는	-8.32487
▁진	-8.32525
버	-8.32563
참	-8.32574
▁없	-8.32781
▁좋아하는	-8.3298
▁재밌	-8.33112
▁매력	-8.3315
사랑	-8.33173
려고	-8.33325
▁재	-8.33414
잼	-8.33415
▁봤던	-8.33722
▁9	-8.33877
잡	-8.34198
o	-8.34244
7	-8.34288
릴	-8.34641
▁배우들의	-8.34811
▁제대로	-8.34865
설	-8.34871
승	-8.34918
▁걸	-8.35055
였다	-8.35058
▁재미도	-8.35735
▁우리나라	-8.35737
산	-8.35753
된다	-8.35802
▁아까운	-8.35915
▁허	-8.36015
▁영화입니다	-8.36058
금	-8.36133
▁여운이	-8.36354
▁재밌어요	-8.3669
▁쓰	-8.36816
▁도대체	-8.36902
▁공감	-8.36925
▁나오	-8.36943
▁그렇게	-8.37048
등	-8.37076
▁연기력	-8.37117
▁성	-8.37323
넘	-8.37363
석	-8.37398
▁좋았다	-8.37667
않	-8.37835
평점	-8.37947
봤	-8.37975
ᅮᅮ	-8.37978
▁주는	-8.38259
ᅳ	-8.38441
▁세	-8.38564
▁6	-8.3869
▁하고	-8.38745
▁영화에	-8.3878
불	-8.39025
▁OO	-8.39253
▁봤습니다	-8.39386
▁나온	-8.39501
창	-8.3957
8	-8.39766
;;;	-8.39931
▁스토리가	-8.40019
▁맞	-8.4012
▁배	-8.40153
▁지루한	-8.40173
배우	-8.40258
색	-8.40258
라도	-8.40282
▁않	-8.40611
▁싶은	-8.40804
▁날	-8.41028
▁뭘	-8.41141
강	-8.41219
▁사람들	-8.41347
절	-8.41414
▁초	-8.42135
했	-8.42263
교	-8.42306
t	-8.42326
녀	-8.42369
ᄒ	-8.42418
i	-8.4243
a	-8.42673
▁없음	-8.42839
만큼	-8.42877
▁최	-8.42964
점은	-8.4299
▁발	-8.43026
▁가족	-8.43037
▁실	-8.43077
▁최고다	-8.43104
예	-8.4311
감동	-8.43169
봄	-8.43307
▁죽	-8.43596
는게	-8.43722
락	-8.43725
았	-8.43743
해도	-8.43904
▁된	-8.43937
,,,	-8.43988
뭐	-8.44305
▁어떤	-8.44349
집	-8.44481
▁머	-8.44718
▁기분	-8.44743
중에	-8.44763
▁오늘	-8.44915
입	-8.44977
통	-8.4505
밖에	-8.45057
기도	-8.45166
구만	-8.4525
있	-8.45273
하면서	-8.45331
맞	-8.45622
▁이해가	-8.45786
▁큰	-8.45823
능	-8.4583
▁나도	-8.46046
~!	-8.46193
좋	-8.46271
하네요	-8.46372
▁보는내내	-8.46419
▁결국	-8.46469
▁절대	-8.46498
▁함께	-8.46508
▁그저	-8.46549
주는	-8.46555
▁마지막에	-8.46564
▁동	-8.4658
재미	-8.46653
언	-8.46683
싶	-8.46845
담	-8.46901
업	-8.46926
▁멋진	-8.47062
될	-8.47305
▁지루하고	-8.47533
양	-8.47626
있다	-8.47941
▁오랜만에	-8.47942
▁선	-8.47974
이런	-8.4807
▁노래	-8.48119
???	-8.48148
▁아이	-8.48209
▁졸작	-8.48223
▁뭔	-8.48231
▁시나리오	-8.48503
▁ᄏᄏᄏᄏ	-8.48525
▁"	-8.48552
▁될	-8.48651
▁시작	-8.48759
▁사실	-8.48793
▁생각이	-8.48953
재밌	-8.49122
▁필요	-8.49154
▁개인적으로	-8.49212
력	-8.49563
▁한국영화	-8.49629
포	-8.49714
악	-8.49758
▁재미가	-8.49913
▁아무리	-8.50101
쓰	-8.50155
▁막	-8.50205
끼	-8.50228
▁B	-8.50301
ᄏᄏᄏᄏ	-8.50366
문	-8.50448
▁입	-8.50654
는지	-8.50673
리는	-8.50816
▁극장에서	-8.50819
▁화	-8.50847
▁영화로	-8.50975
▁긴장감	-8.51116
움	-8.51166
던데	-8.51398
▁걍	-8.51401
▁차	-8.51649
김	-8.51759
그냥	-8.51851
▁수작	-8.52031
따	-8.52243
평	-8.52355
▁^^	-8.52385
▁모습	-8.52393
▁들	-8.5275
범	-8.52895
최고	-8.52923
▁망	-8.52929
▁잠	-8.53038
권	-8.5305
▁연	-8.5306
▁재밌는	-8.53139
▁연기는	-8.5342
▁""	-8.53543
▁모르겠다	-8.53546
6	-8.53576
에도	-8.5361
병	-8.53663
내용	-8.53898
스트	-8.53996
점대	-8.54055
봤다	-8.54533
▁제목	-8.5472
케	-8.55136
▁베	-8.55172
▁지루하다	-8.55223
▁코믹	-8.55427
감독	-8.55553
▁것이	-8.55918
▁호	-8.55999
▁못한	-8.56178
초	-8.56192
극	-8.56377
갈	-8.56554
▁웃	-8.56611
종	-8.56783
▁제발	-8.56857
▁보지	-8.57034
보단	-8.57103
▁예	-8.57106
▁사람이	-8.57109
별	-8.57143
는거	-8.57233
▁괜찮은	-8.57344
▁OOO	-8.57353
른	-8.57433
▁출연	-8.57485
▁ᅲ	-8.57554
건지	-8.57853
▁살	-8.57921
▁눈물이	-8.58252
▁타	-8.5826
▁알고	-8.5827
▁손	-8.58325
▁봤	-8.58403
짐	-8.58427
▁극	-8.5848
기는	-8.58492
▁파	-8.58511
스토리	-8.58546
학	-8.58661
근	-8.58707
▁재밌음	-8.58897
렸	-8.58897
▁졸	-8.59198
▁보게	-8.59356
었	-8.5944
s	-8.59509
백	-8.59532
▁토	-8.59599
기에	-8.59654
▁애니메이션	-8.59805
하며	-8.599
▁막장	-8.60057
▁느낌이	-8.60239
▁매	-8.60449
라면	-8.60513
웃	-8.60557
▁알바	-8.60562
▁명	-8.6061
▁강추	-8.60618
▁들어	-8.6064
▁지루함	-8.60815
▁않다	-8.60835
다고	-8.60895
▁얼마나	-8.60941
대로	-8.61116
▁준	-8.61164
점을	-8.61186
수가	-8.61223
난다	-8.6135
+	-8.61537
▁적	-8.6157
돈	-8.61683
▁없이	-8.61878
▁후회	-8.62079
왕	-8.62202
▁보세요	-8.6236
▁분위기	-8.62606
각	-8.62706
▁감동이	-8.62979
▁좋아요	-8.63049
았다	-8.6312
▁총	-8.63327
▁엔딩	-8.63438
론	-8.63475
해야	-8.63514
▁없었다	-8.63518
같	-8.63663
작품	-8.64035
길래	-8.642
블	-8.64241
슬	-8.64247
영화는	-8.64442
증	-8.64872
리고	-8.65031
▁걸작	-8.65035
었는데	-8.65063
▁같	-8.6508
장면	-8.65222
▁지루	-8.65228
친	-8.65381
잔	-8.6541
▁좋	-8.65444
▁하나도	-8.65505
이었다	-8.65726
씬	-8.65852
분들	-8.66246
하는데	-8.66274
거야	-8.66298
했음	-8.66365
너	-8.66409
▁캐스팅	-8.66448
"	-8.66782
▁같이	-8.66819
p	-8.67002
투	-8.67007
순	-8.67049
천	-8.67128
이야	-8.67314
봐도	-8.67349
▁주연	-8.67359
더니	-8.67447
▁평	-8.67488
아니	-8.67493
탄	-8.67543
▁기억에	-8.67763
▁ᄒ	-8.67805
▁대해	-8.6793
▁영상미	-8.6794
여자	-8.68077
▁애들	-8.68167
▁장난	-8.68338
법	-8.684
인줄	-8.6862
▁대체	-8.693
▁의미	-8.69318
▁재밋	-8.6946
▁더빙	-8.69472
▁작가	-8.69582
짜	-8.69612
치는	-8.69623
▁단	-8.6966
빠	-8.69733
▁훨씬	-8.69789
기를	-8.69848
▁경	-8.69927
▁추	-8.701
혀	-8.70355
OO	-8.70503
▁자기	-8.70552
이지	-8.70622
▁예술	-8.70625
▁갈수록	-8.70627
▁있고	-8.70823
침	-8.71043
▁않는다	-8.71074
나요	-8.71202
만한	-8.71273
▁살아	-8.71354
▁중국	-8.71461
▁마음이	-8.71531
▁상황	-8.71534
g	-8.71605
▁억지	-8.71804
이네	-8.71878
▁ᅮᅮ	-8.72047
▁잡	-8.72048
▁정신	-8.72171
외	-8.7225
편이	-8.72316
▁한다	-8.72376
▁없어	-8.72376
머	-8.72431
▁바로	-8.72625
▁봤어요	-8.72653
▁친구	-8.73289
혜	-8.73386
▁관객	-8.73822
짓	-8.7383
▁약	-8.73856
▁안되는	-8.73891
▁다큐	-8.73912
▁많	-8.73944
▁영화중	-8.73945
▁약간	-8.73983
▁보여주는	-8.74078
▁전쟁	-8.74147
l	-8.74219
라서	-8.74382
▁것을	-8.74587
▁볼만한	-8.74706
▁그나마	-8.7472
슨	-8.74724
플	-8.74842
▁안되	-8.7498
▁상	-8.75056
▁만화	-8.75062
▁꽤	-8.75247
▁별점	-8.7527
▁첨	-8.75513
에는	-8.75646
ᅮ	-8.75673
버린	-8.75697
직	-8.75723
▁행복	-8.75732
▁봐야	-8.75749
▁기억이	-8.75861
온	-8.75898
▁문제	-8.76041
▁아이들	-8.76145
▁포스터	-8.76225
칠	-8.76374
할수	-8.76392
보니	-8.76451
▁미친	-8.76467
추	-8.76854
이지만	-8.76868
수준	-8.76971
^	-8.77086
▁매우	-8.77234
봐	-8.77322
놈	-8.77369
했지만	-8.77391
군요	-8.77441
거지	-8.77453
나는	-8.77475
▁잼	-8.77627
환	-8.77711
▁그러	-8.77759
▁그래서	-8.77922
▁똥	-8.78136
▁존	-8.78238
▁위한	-8.78365
▁재미있	-8.78417
었음	-8.78495
▁영화였다	-8.78504
▁이름	-8.78594
이상	-8.78999
땐	-8.79426
▁점수	-8.79436
▁글	-8.79522
영화가	-8.79585
▁연기를	-8.79598
들에게	-8.79799
이네요	-8.79861
향	-8.79895
▁따라	-8.79922
스러운	-8.8002
맨	-8.80175
액션	-8.80287
었던	-8.80324
▁밖에	-8.80604
▁열	-8.80633
▁구성	-8.80763
▁엄마	-8.80991
열	-8.81068
▁이딴	-8.811
▁외	-8.81255
건가	-8.81283
▁설정	-8.81433
▁된다	-8.81475
▁너무나	-8.81537
▁그만	-8.81542
▁저런	-8.81633
▁생각보다	-8.81655
술	-8.81687
y	-8.81856
▁같아요	-8.81868
찬	-8.81911
▁여기	-8.81913
▁당시	-8.81978
완전	-8.81985
▁간	-8.82114
▁혼자	-8.82225
그리고	-8.82252
셨	-8.82426
을까	-8.82444
▁위해	-8.82542
:	-8.82751
베	-8.82779
알	-8.8297
▁그리	-8.83011
▁당	-8.83011
주의	-8.83103
메	-8.83265
▁쓰레기영화	-8.83329
듯한	-8.83377
▁옛날	-8.83395
▁어설픈	-8.83395
▁상당히	-8.83395
▁굉장히	-8.83409
▁생	-8.83458
▁찾아	-8.83592
▁물	-8.83619
덕	-8.83681
▁몰입	-8.83702
다는	-8.83723
▁재미있다	-8.83817
테	-8.83885
▁여주인공	-8.84008
▁웃음	-8.84416
먼	-8.84418
D	-8.84443
▁마음	-8.8445
▁위	-8.84531
▁있을	-8.84751
▁가슴이	-8.84812
▁영화네요	-8.85079
합	-8.85238
▁-	-8.85313
▁웃기	-8.85386
▁감동도	-8.85432
졌	-8.85522
▁비교	-8.85592
올	-8.85607
▁자체	-8.8562
께	-8.85728
뻔	-8.85763
▁만들었	-8.85955
▁결말이	-8.85991
허	-8.86158
아서	-8.86335
쓰레기	-8.86588
적이	-8.86606
▁올	-8.86627
받	-8.86718
▁내용은	-8.86984
척	-8.86989
▁뭐야	-8.87249
▁잔잔한	-8.87528
▁평가	-8.87634
▁짜증	-8.87714
소리	-8.87753
▁볼만	-8.87766
▁스릴	-8.87845
청	-8.87888
새	-8.87919
▁어느	-8.88382
▁카	-8.88412
m	-8.88448
▁로맨스	-8.88499
▁끝나	-8.88584
▁존나	-8.88864
어야	-8.88902
▁등	-8.8896
▁CG	-8.88983
▁얘기	-8.891
k	-8.89382
n	-8.8948
▁패	-8.89484
잇	-8.8949
▁다음	-8.8966
▁중간에	-8.8977
배우들	-8.90023
▁얼굴	-8.90092
▁시즌	-8.90112
▁발연기	-8.90241
▁알게	-8.90297
출	-8.90353
▁스토리는	-8.90446
▁사람들이	-8.90466
▁재미없음	-8.90523
▁뿐	-8.90851
9	-8.90872
을때	-8.90912
▁암	-8.9103
표	-8.91081
▁감	-8.91242
▁허접	-8.91531
▁감동적인	-8.91555
▁힘들	-8.91575
▁사회	-8.91607
▁마음에	-8.9167
▁길	-8.91773
겠지	-8.91781
▁영화관에서	-8.91932
▁제가	-8.92037
▁재밌고	-8.92147
▁있어	-8.92291
▁네이버	-8.9236
▁생각하게	-8.92372
복	-8.92417
▁각본	-8.92495
▁전부	-8.92741
▁언제	-8.92746
▁시대	-8.92848
▁몸	-8.92868
▁야	-8.92909
년전	-8.92927
존	-8.92948
끝	-8.93014
됨	-8.93021
▁목소리	-8.93038
결	-8.9307
▁부족	-8.93137
▁이영화를	-8.93144
▁누가	-8.93207
들도	-8.93246
독	-8.93246
련	-8.93435
지금	-8.93454
이건	-8.93578
▁TV	-8.93617
▁성룡	-8.93629
▁멜로	-8.93747
▁맘에	-8.93892
▁30	-8.93892
▁분	-8.94126
▁있었	-8.94185
▁재미없	-8.94196
보기	-8.94244
▁너	-8.94271
▁딸	-8.94273
>	-8.94337
또	-8.94403
처	-8.94502
놓	-8.94712
년이	-8.94938
▁종	-8.94944
다면	-8.9504
▁감성	-8.95146
▁나이	-8.95209
욕	-8.95311
f	-8.9532
채	-8.95323
낸	-8.95332
▁보니	-8.95352
다시	-8.95382
간다	-8.95434
라니	-8.95439
▁어른	-8.95495
세요	-8.95536
▁평점을	-8.95598
▁음	-8.95655
치고	-8.95724
▁나올	-8.95733
한거	-8.95844
▁변	-8.9587
▁소리	-8.9604
▁말도	-8.96105
땜에	-8.96344
▁몰입도	-8.96403
▁노잼	-8.96463
했어요	-8.96671
보다는	-8.96758
편은	-8.96871
부분	-8.96892
▁있지만	-8.96912
약	-8.97023
▁감정	-8.97041
막	-8.97096
▁감독님	-8.97114
동안	-8.97476
났	-8.97572
▁꿈	-8.97574
▁갈	-8.97685
▁거의	-8.97781
▁돌아	-8.97836
없음	-8.97856
▁첫	-8.98034
▁봐	-8.981
나오	-8.98149
퍼	-8.98198
내가	-8.98321
▁포	-8.98366
▁영화도	-8.98411
▁없을	-8.98486
▁그대로	-8.98504
▁재미없는	-8.98547
▁장르	-8.98844
▁번	-8.9885
▁악	-8.98952
나오는	-8.98967
이라도	-8.99013
♡	-8.99148
▁극장판	-8.99176
였는데	-8.99221
▁대단한	-8.99344
▁놀	-8.99431
▁데	-8.99467
▁아버지	-8.99475
▁메	-8.99542
진다	-8.99564
이라니	-8.99791
▁뭐지	-8.99831
▁생각을	-8.99966
w	-9.001
▁항상	-9.00104
▁19	-9.00108
▁아직	-9.00153
▁돌	-9.00186
▁줄거리	-9.00231
▁여주	-9.00265
▁머리	-9.00341
▁않았	-9.00476
▁윤	-9.00491
▁봐서	-9.00504
구요	-9.00537
▁빨리	-9.00658
▁어이없	-9.00866
▁낮은	-9.01112
재미있	-9.01235
찍	-9.01252
놓고	-9.01278
▁세상	-9.01402
▁다들	-9.01413
거나	-9.01468
▁실화	-9.01485
▁안된다	-9.01539
는건	-9.01624
▁90	-9.01643
돼	-9.01698
에선	-9.0175
▁뒤	-9.01785
▁ᄍᄍ	-9.018
▁아님	-9.01843
삼	-9.01962
▁방송	-9.01982
션	-9.02015
▁판타지	-9.02032
▁따	-9.02091
▁싶	-9.02154
b	-9.0216
봣	-9.02365
▁그때	-9.02385
▁재미있는	-9.02391
런	-9.02456
성이	-9.02619
▁봤지만	-9.02731
였	-9.02745
▁오래	-9.02924
▁역사	-9.02931
누	-9.0295
같다	-9.02984
익	-9.03013
▁간만에	-9.03016
▁뭐냐	-9.03315
▁천	-9.03359
느낌	-9.03502
것이	-9.03522
▁초딩	-9.03536
에요	-9.03548
었어요	-9.03594
▁비디오	-9.03594
▁것도	-9.0361
일까	-9.03749
▁편	-9.03888
_	-9.04003
거냐	-9.04051
햇	-9.04111
▁알았	-9.04121
영화를	-9.04127
겟	-9.04185
품	-9.04196
되어	-9.04236
아닌	-9.04438
▁재밌네요	-9.04442
▁찾	-9.04446
▁배경	-9.04473
▁봄	-9.04561
▁잘못	-9.04568
▁삼	-9.04728
잖아	-9.04815
▁흥행	-9.05013
어도	-9.05092
▁전달	-9.05172
겠	-9.05258
▁대한민국	-9.05273
월	-9.05334
변	-9.05339
▁높은	-9.05349
건데	-9.0563
▁사람들은	-9.05676
▁훌륭한	-9.06013
▁충분히	-9.0604
▁형	-9.06071
▁헐	-9.06161
만든	-9.06163
이야기	-9.06358
▁같은데	-9.06397
빈	-9.06413
갑	-9.06424
▁주고	-9.06468
▁힘	-9.06474
▁감동을	-9.06596
했고	-9.06749
▁아닌가	-9.06876
율	-9.07034
▁했는데	-9.07057
▁영화임	-9.07255
할때	-9.07336
기만	-9.07451
▁투	-9.0749
▁책	-9.07492
▁해서	-9.07595
▁진정한	-9.07726
▁쳐	-9.07766
▁했다	-9.07846
▁휴	-9.07863
견	-9.08026
훈	-9.08031
징	-9.08057
갔	-9.08064
숙	-9.08064
▁정도로	-9.08123
h	-9.08125
광	-9.08135
▁더럽게	-9.08227
▁이상한	-9.08244
남자	-9.08291
▁추억	-9.0853
여서	-9.08598
▁준다	-9.08737
~!!	-9.08753
빨	-9.08768
▁코	-9.08941
▁백	-9.09007
▁슬픈	-9.09061
들어	-9.09063
였음	-9.09065
▁따뜻한	-9.09123
▁진실	-9.09206
써	-9.09311
슴	-9.09319
▁상상	-9.09347
▁크	-9.09371
것이다	-9.09382
자들	-9.09412
좋아	-9.09421
없고	-9.09453
가서	-9.09469
눈	-9.09516
예요	-9.09614
c	-9.09647
반전	-9.09657
▁아쉽다	-9.097
윤	-9.09727
브	-9.09846
효	-9.09859
▁없네	-9.09914
가지	-9.09919
오는	-9.10025
대박	-9.10049
▁담	-9.10064
▁나와서	-9.10169
송	-9.10191
▁재미는	-9.10196
▁나왔	-9.1031
▁처음부터	-9.10319
▁재미있어요	-9.1033
나서	-9.10498
곤	-9.10629
▁100	-9.10685
▁있었다	-9.10755
버리	-9.10793
괴	-9.10805
▁만나	-9.11085
돌	-9.11145
엇	-9.11205
▁인간의	-9.11465
▁뻔	-9.11533
▁키	-9.11546
▁제작	-9.11639
▁찍	-9.11872
▁그런지	-9.11877
패	-9.11901
▁충격	-9.11932
본다	-9.11951
득	-9.12243
%	-9.12286
▁뭐가	-9.12343
▁엄청난	-9.12416
▁있어서	-9.12443
▁세계	-9.12467
▁점점	-9.12636
▁꿀잼	-9.12693
굿	-9.12839
▁빠져	-9.12866
▁아무	-9.12928
▁선택	-9.13075
▁현	-9.1312
▁보여주	-9.13187
▁드	-9.13203
▁느	-9.13263
▁있을까	-9.13358
▁개연성	-9.13381
▁우연히	-9.13407
▁흥미	-9.13419
으며	-9.13559
사람들	-9.13664
▁사람은	-9.13689
0	-9.13711
▁자체가	-9.13769
한번	-9.13911
▁두번	-9.13937
필	-9.14025
*	-9.14051
▁힘든	-9.14098
맛	-9.14233
페	-9.14234
철	-9.14241
▁어디	-9.14351
튼	-9.14403
▁깊은	-9.14484
▁영웅	-9.14502
▁화면	-9.14942
▁80	-9.15117
▁그것	-9.15169
▁잼있	-9.15276
▁설	-9.15311
싸	-9.15396
정도로	-9.15445
▁복	-9.15517
▁갑자기	-9.15599
록	-9.15603
▁좋겠다	-9.15649
▁원래	-9.15713
▁어릴때	-9.15755
▁양	-9.15764
▁대작	-9.15838
▁예상	-9.15841
▁주인공이	-9.1591
▁하지	-9.16037
별로	-9.16057
▁치	-9.16136
u	-9.16157
이거	-9.16238
▁봤음	-9.16322
귀	-9.1633
▁개그	-9.16336
▁천재	-9.16374
했습니다	-9.16427
거리	-9.16463
▁장면이	-9.1655
▁목	-9.16571
링	-9.16718
껏	-9.16718
▁병맛	-9.16726
▁이런영화	-9.16993
▁좋네요	-9.17004
▁같네요	-9.17005
▁새	-9.17122
▁해도	-9.17304
▁너무너무	-9.17442
을듯	-9.17515
이라면	-9.17562
▁좋은데	-9.17584
쉬	-9.17718
노잼	-9.17762
-_-	-9.17773
료	-9.17779
=	-9.17855
처음	-9.1795
속에	-9.18079
거다	-9.18132
이에요	-9.18202
려는	-9.18209
▁예고편	-9.18337
▁완벽한	-9.18363
▁좋았어요	-9.18477
▁문	-9.18524
▁있는데	-9.18531
▁깨	-9.18537
틀	-9.186
▁바람	-9.18633
커	-9.18657
▁비해	-9.18683
▁자꾸	-9.18684
▁요	-9.18739
봉	-9.18746
▁봐라	-9.18774
졌다	-9.18779
목	-9.18803
년에	-9.18872
▁어쩌	-9.18911
벌	-9.18917
뒤	-9.18972
▁귀	-9.18975
▁버	-9.18987
염	-9.19004
시대	-9.19009
▁새로운	-9.19011
▁더욱	-9.19076
▁배우들이	-9.19096
실망	-9.19099
시리즈	-9.19148
있고	-9.19202
▁산	-9.1921
▁한마디로	-9.19302
▁아빠	-9.19546
▁나의	-9.19555
▁낮	-9.19565
하여	-9.19608
린다	-9.19646
▁b	-9.19899
▁낫다	-9.1993
랬	-9.19965
▁달	-9.19989
▁생각해	-9.19989
▁이번	-9.20059
▁기대하고	-9.2009
▁이유	-9.20091
느	-9.20151
렌	-9.20167
닝	-9.20167
잉	-9.20167
많이	-9.20181
▁것이다	-9.20374
사람이	-9.20399
▁영화인데	-9.20412
겠지만	-9.20537
함이	-9.20539
▁없어서	-9.2065
▁모르는	-9.2077
것을	-9.20877
방송	-9.20893
감이	-9.20933
▁댓글	-9.20941
▁주제	-9.21043
▁써	-9.21072
▁노출	-9.21104
ᄏᄏᄏᄏᄏᄏᄏᄏᄏᄏᄏᄏᄏᄏᄏᄏ	-9.21257
씩	-9.21283
▁집중	-9.21283
▁황	-9.21325
ᄉ	-9.21335
▁저는	-9.21338
킬	-9.21343
▁아쉬운	-9.21344
타임	-9.21358
▁사랑을	-9.21358
▁작품이	-9.21462
▁M	-9.21488
▁짜	-9.21509
▁어디서	-9.21569
▁가지고	-9.21586
▁초반	-9.21635
렸다	-9.21642
▁그러나	-9.21968
▁나라	-9.22131
▁빛	-9.22194
답	-9.22204
▁믿고	-9.22294
▁태	-9.22307
▁원작을	-9.22318
주세요	-9.2233
▁이영화는	-9.22367
오빠	-9.2245
▁작	-9.22478
▁비슷한	-9.22534
됬	-9.22534
▁경찰	-9.22546
▁-_-	-9.2262
▁여배우	-9.22657
손	-9.22667
▁이런거	-9.22686
▁복수	-9.22884
▁성우	-9.22885
▁역	-9.22933
재밋	-9.22975
도록	-9.22999
역시	-9.23004
▁후반부	-9.23147
되고	-9.23191
앗	-9.23245
줘	-9.23285
됐	-9.23329
▁만드	-9.23384
▁마무리	-9.23446
▁누구	-9.2353
▁다시봐도	-9.2359
적이고	-9.2362
인거	-9.23622
킹	-9.23739
▁행동	-9.23746
▁지루해	-9.23792
그런	-9.23915
▁잘만든	-9.23973
▁티	-9.24085
조차	-9.24088
▁극장	-9.24118
근데	-9.24163
연출	-9.24205
걸까	-9.24409
으나	-9.2441
????	-9.24455
▁결혼	-9.24486
▁시절	-9.24528
▁알아	-9.24552
듬	-9.24563
고싶다	-9.24583
년도	-9.24615
▁모습이	-9.24664
▁웃긴	-9.24698
났다	-9.24716
▁나쁜	-9.2485
▁귀신	-9.24892
▁통	-9.24906
같이	-9.24924
규	-9.24958
▁여운	-9.24961
였던	-9.24962
▁인물	-9.2497
▁골	-9.24991
▁좋았습니다	-9.2501
▁존재	-9.25023
▁왕	-9.25069
▁어린	-9.25099
▁의도	-9.25216
족	-9.25329
보면서	-9.25344
▁200	-9.25372
분이	-9.25405
▁평론가	-9.25418
전개	-9.2567
▁삼류	-9.25686
▁이것도	-9.25738
▁삶	-9.25757
▁영화였습니다	-9.25785
립	-9.25818
▁좋음	-9.25912
▁못하는	-9.25925
▁후반	-9.2595
▁tv	-9.25952
▁감독은	-9.26052
▁폭	-9.26348
▁노력	-9.26403
내는	-9.26417
야지	-9.26433
A	-9.26507
▁집	-9.2651
꼬	-9.26519
억	-9.2662
▁지나	-9.26707
해라	-9.26785
명작	-9.26801
▁억지로	-9.26808
▁부분이	-9.26834
▁그래픽	-9.26897
▁똑같	-9.26899
▁(	-9.26902
성을	-9.26912
으니	-9.27032
▁이정도	-9.27193
시다	-9.27301
▁나온다	-9.27324
▁자신	-9.27387
량	-9.27415
▁보는데	-9.27505
리가	-9.27534
▁잔잔하	-9.27538
시켜	-9.27543
▁그닥	-9.27608
주인공	-9.27638
낚	-9.2766
랄	-9.27707
▁합니다	-9.27734
▁죽음	-9.27754
전에	-9.27861
▁앞	-9.27912
영화중	-9.2794
▁무서운	-9.27967
▁지금까지	-9.28014
▁그림	-9.2815
▁사랑이	-9.28252
▁바보	-9.28337
탈	-9.28408
▁좋은영화	-9.28436
~^^	-9.28523
보는데	-9.28625
▁망작	-9.2863
▁보고나서	-9.28676
ᄂ	-9.28705
▁화려한	-9.2871
▁액션도	-9.28775
▁유머	-9.28794
▁잔	-9.28827
▁교훈	-9.28845
▁영화보다	-9.28876
한데	-9.28914
▁처	-9.28923
▁나와	-9.28974
밀	-9.29088
▁리메이크	-9.29114
▁출	-9.29115
▁액션영화	-9.29174
놀	-9.29178
것같다	-9.29285
습	-9.29407
▁불편	-9.29415
들과	-9.2945
▁완벽	-9.29456
마지막	-9.29472
▁싫어	-9.29506
▁순간	-9.29566
▁무섭	-9.29674
▁작품성	-9.29698
▁확	-9.29732
애니	-9.29762
▁돈주고	-9.29827
끄	-9.29873
▁싸	-9.2988
는것	-9.29904
롭	-9.29969
▁흥미진진	-9.29991
있게	-9.30005
▁가끔	-9.30031
▁아들	-9.30181
▁모습을	-9.30247
▁어렸을때	-9.30278
하던	-9.30283
▁아까워	-9.30408
▁절	-9.30413
T	-9.30474
하는거	-9.30621
▁재미없어	-9.30659
시절	-9.30828
좋다	-9.30851
봐라	-9.30874
▁만들었다	-9.30912
~~~~	-9.30974
스타	-9.3104
▁편집	-9.31065
쯤	-9.31236
항	-9.31285
홀	-9.31289
x	-9.3129
▁우울	-9.31465
이냐	-9.31516
나라	-9.31584
▁프랑스	-9.31651
▁모르고	-9.31727
▁맥	-9.31739
▁가는	-9.31842
▁괜히	-9.32091
▁믿	-9.32102
하자	-9.32183
있네	-9.32188
▁코메디	-9.32221
기대	-9.32282
▁급	-9.32365
▁좀비	-9.32466
▁굳	-9.32529
빵	-9.3254
▁오히려	-9.32606
▁일본영화	-9.32654
ᅲᅲᅲ	-9.32671
많	-9.32759
▁저도	-9.32816
▁철	-9.32877
▁게임	-9.32883
▁둘	-9.32893
▁자유	-9.32899
추천	-9.32976
▁연출이	-9.33013
▁쓸	-9.33029
ᄋ	-9.33173
하니	-9.33199
▁나에게	-9.33207
풍	-9.33261
▁받	-9.33286
▁으	-9.33302
▁재밌었다	-9.33362
▁전개가	-9.33366
▁무엇보다	-9.33402
▁느낄	-9.33443
무슨	-9.33454
음악	-9.3358
그래도	-9.33673
▁쓴	-9.33679
▁것은	-9.33761
▁물론	-9.33774
최악	-9.33794
옥	-9.33835
@	-9.33939
힌	-9.33939
▁별루	-9.3395
▁만족	-9.33958
▁아무것도	-9.33977
▁아쉽	-9.34038
▁완성도	-9.341
▁말고	-9.34147
▁그랬	-9.34172
▁괴	-9.34212
▁느끼게	-9.34295
▁전작	-9.34305
였어요	-9.34396
▁있다는	-9.344
▁대단	-9.34434
▁살인	-9.34495
응	-9.34614
나와	-9.34654
마다	-9.34676
S	-9.34686
꼭	-9.34715
▁감상	-9.34731
▁잔인	-9.3476
▁브	-9.3489
▁각	-9.34915
▁같음	-9.3509
스럽	-9.35094
네여	-9.35144
▁아까움	-9.35194
ᄀ	-9.35271
츠	-9.35285
▁리얼	-9.353
▁볼수	-9.35312
주고	-9.35369
놈들	-9.3537
▁그게	-9.35386
봣는데	-9.35421
▁레	-9.35474
왔	-9.35478
▁일단	-9.35579
드는	-9.35653
▁이것	-9.35655
▁법	-9.35677
만으로도	-9.35707
▁되어	-9.35716
▁느끼	-9.35752
▁떠	-9.35802
▁슬프다	-9.35837
줌	-9.35883
▁없네요	-9.36015
점준다	-9.36175
▁부족한	-9.36242
하냐	-9.36248
▁재미없고	-9.36364
▁끝내	-9.36372
▁좋았고	-9.36395
▁하다	-9.36461
곡	-9.36493
▁맞는	-9.36525
▁했	-9.36563
끔	-9.36611
▁SF	-9.36663
▁맛	-9.36692
▁보여준	-9.36699
때마다	-9.3671
아깝다	-9.3673
르는	-9.36736
좋은	-9.36826
▁아오	-9.36868
▁영화에서	-9.36873
▁너무나도	-9.36947
▁있음	-9.37056
▁스토리에	-9.37139
▁재밌는데	-9.37179
▁유치	-9.37243
▁저질	-9.37263
▁됐	-9.37352
▁본다	-9.3751
쪽	-9.37523
▁왜이렇게	-9.3753
얼	-9.37539
딱	-9.3759
한영화	-9.37599
▁방	-9.37646
자가	-9.37651
▁실패	-9.37671
령	-9.37784
▁괜찮	-9.37809
스럽다	-9.37819
말이	-9.37827
▁화이팅	-9.37905
겁	-9.37935
싱	-9.38048
해주	-9.38053
던가	-9.38079
▁팬	-9.3814
는걸	-9.38187
▁까	-9.382
▁독	-9.38202
스런	-9.38256
▁보았	-9.38295
▁가서	-9.3831
▁성장	-9.38322
일뿐	-9.38378
▁알았다	-9.38402
▁여러	-9.3842
▁감동적이	-9.38504
해지는	-9.38521
▁수준이	-9.38576
▁영화라	-9.38657
▁커	-9.38681
▁속편	-9.38703
쩌	-9.38728
▁이미	-9.38807
▁않아	-9.38826
▁cg	-9.38834
▁촬영	-9.38838
▁이야기가	-9.38851
거임	-9.38893
을텐데	-9.389
폭	-9.38918
하긴	-9.38925
봐야	-9.38945
▁ᅮ	-9.39
곳	-9.39028
▁먼저	-9.39071
▁숨	-9.39152
▁해주는	-9.39376
흔	-9.39387
▁카메라	-9.39457
▁전체적으로	-9.39469
................	-9.39524
아이	-9.39544
▁루	-9.3958
▁배우가	-9.39585
▁영화중에	-9.39613
▁재밌었음	-9.39618
▁알았는데	-9.39621
▁페	-9.39758
▁사이	-9.39764
시고	-9.39924
▁좋아하	-9.39955
작가	-9.40123
▁느껴지는	-9.40273
는건지	-9.4046
만들었	-9.40483
십	-9.40505
풀	-9.40517
던지	-9.40526
킨	-9.40586
▁반전이	-9.40691
▁평점에	-9.40806
▁관	-9.40815
,,,,	-9.40857
탕	-9.40858
춘	-9.40879
▁어린이	-9.40951
▁장면은	-9.40957
▁내인생	-9.40988
▁밑에	-9.40991
▁매력적인	-9.41072
▁나가	-9.41179
▁C	-9.41199
▁아름답고	-9.41226
▁소설	-9.41267
번째	-9.41284
▁미화	-9.41312
▁예전에	-9.41343
보다가	-9.41474
했으면	-9.41511
▁감동적이고	-9.41654
마음	-9.41793
▁좋았음	-9.41822
이면	-9.41857
▁디	-9.41862
▁이후	-9.41917
혹	-9.41965
▁안보	-9.4202
▁처음으로	-9.42047
스의	-9.42063
▁스타일	-9.42153
▁재미있고	-9.42181
봐서	-9.42244
수록	-9.42269
▁실제	-9.42277
▁아깝	-9.42313
&	-9.42335
E	-9.42335
▁청춘	-9.42341
▁가능	-9.42449
▁않을	-9.42587
▁온	-9.42671
하세요	-9.42732
▁성인	-9.42772
▁서로	-9.42793
준다	-9.42874
함을	-9.429
▁질	-9.42943
▁긴	-9.43046
애들	-9.43407
▁자신의	-9.43419
▁순	-9.4347
▁ᄃᄃ	-9.43489
뜨	-9.43561
암	-9.43584
▁만점	-9.43631
념	-9.43715
▁ᅳ	-9.43772
친구	-9.43779
▁깊이	-9.43806
▁엉망	-9.43807
▁대단하다	-9.43883
▁전편	-9.43958
r	-9.43966
▁기분이	-9.4437
생활	-9.44394
▁송	-9.44404
▁중에	-9.44407
▁무조건	-9.44424
▁니	-9.44444
최	-9.44474
▁보러	-9.44633
▁이쁘	-9.44682
에겐	-9.44719
▁진부한	-9.44778
▁허접한	-9.44846
보게	-9.44862
재미없	-9.44945
충	-9.45042
▁답답	-9.45098
▁평점은	-9.45103
북	-9.45168
▁유치하	-9.45183
특히	-9.45221
축	-9.4525
▁뭔지	-9.45293
X	-9.45298
▁예쁜	-9.45305
▁전형적인	-9.45333
▁종교	-9.45337
보이	-9.45344
▁보지마세요	-9.45362
▁재밌었어요	-9.45383
모르겠	-9.4539
소재	-9.45444
▁유치한	-9.45465
눈물	-9.45471
세계	-9.45582
마저	-9.45651
▁근	-9.45663
▁수가	-9.45694
▁아름답다	-9.45724
▁킬링타임용	-9.45828
다운	-9.45922
▁없었	-9.45946
가족	-9.46037
▁볼거리	-9.46124
되지	-9.46152
▁유치하고	-9.46175
▁ost	-9.46177
▁든다	-9.46286
▁부분	-9.46414
▁몰	-9.4648
▁메세지	-9.46486
▁초반에	-9.46506
대사	-9.46525
황	-9.46599
▁로맨틱	-9.46678
▁질질	-9.46712
▁진행	-9.46771
꼽	-9.46788
모습	-9.46812
▁도저히	-9.46813
▁싸이코	-9.46814
(?)	-9.46814
▁감탄	-9.46849
었으면	-9.46853
▁중요한	-9.46867
▁성공	-9.46903
했을	-9.46983
것은	-9.47018
▁과거	-9.47073
▁취	-9.47167
더군요	-9.47179
▁인정	-9.47267
할듯	-9.47373
▁최악이다	-9.47374
돌아	-9.47564
▁앞으로	-9.47576
▁ᄒᄒᄒ	-9.47597
▁왜이리	-9.47661
▁시청률	-9.47686
닥	-9.47719
▁드는	-9.47761
▁모르	-9.47873
람	-9.47934
도없고	-9.47945
▁지루하지	-9.47986
▁마음을	-9.48168
▁흐	-9.48319
G	-9.48338
책	-9.48338
ᄇ	-9.48341
였습니다	-9.48343
흐	-9.48344
▁현실성	-9.48347
둥	-9.48351
▁벌	-9.48379
▁스토리를	-9.48443
▁분명	-9.48455
보세요	-9.48457
▁아니면	-9.48499
▁있습니다	-9.48545
▁재미를	-9.48567
▁액션이	-9.48688
▁그렇지	-9.4869
▁멋지다	-9.48702
해주는	-9.48733
있음	-9.48738
▁그렇고	-9.48765
었습니다	-9.4878
▁아닌데	-9.48849
▁재밌어	-9.48861
▁몰입감	-9.48935
▁가치	-9.48995
졸	-9.49037
or	-9.49084
▁밀	-9.49121
▁애들이	-9.49194
▁중간	-9.49275
▁사건	-9.4939
와서	-9.49465
인가요	-9.49529
▁재밌었	-9.49619
▁넘어	-9.49673
놔	-9.49745
물이	-9.49842
▁회	-9.49843
▁하는데	-9.49886
솔	-9.49912
떡	-9.49914
j	-9.49915
▁등장	-9.49917
▁소름돋	-9.49919
▁불륜	-9.49927
▁꺼	-9.49956
▁역대	-9.49984
확	-9.4999
강추	-9.50049
정신	-9.5012
지루	-9.5013
▁상상력	-9.50144
받고	-9.50212
인이	-9.50414
▁삶을	-9.50828
▁나만	-9.50864
▁연출력	-9.5094
▁나를	-9.5109
▁싫다	-9.51125
다른	-9.51161
▁지루하	-9.51192
▁짜증나는	-9.51227
겠네	-9.51391
▁여자가	-9.51395
▁듯한	-9.51464
▁다소	-9.51468
▁참고	-9.51469
▁스케일	-9.51506
▁느낀	-9.51507
줬	-9.5152
▁희망	-9.51532
▁궁금	-9.51546
가지고	-9.51564
▁아이들이	-9.51616
클	-9.51639
쇼	-9.51644
▁사는	-9.51657
▁비극	-9.51661
거같다	-9.51662
▁아놔	-9.51674
▁매력적이	-9.51687
▁용서	-9.51744
▁영화이다	-9.51783
▁이젠	-9.51883
▁엉성	-9.51981
▁나서	-9.51997
▁유쾌한	-9.52028
▁느껴	-9.5205
▁단순	-9.52062
▁표정	-9.52078
▁마치	-9.52185
▁감사합니다	-9.52201
만으로	-9.52214
▁생각한다	-9.52253
끼리	-9.52287
버리고	-9.52344
▁봤네요	-9.52369
▁테	-9.52578
느라	-9.52589
▁그들의	-9.526
▁아니지만	-9.52625
젠	-9.52728
▁여자들	-9.52878
▁그녀	-9.52913
픈	-9.52937
욱	-9.52945
▁하면	-9.52963
▁좋았	-9.5297
▁이러	-9.5307
▁이영화가	-9.53102
늘	-9.53104
콩	-9.53108
▁여전히	-9.53115
▁아닐까	-9.53135
드립니다	-9.53204
하시는	-9.53242
었지만	-9.53248
인생	-9.53279
▁과정	-9.53358
▁굳이	-9.53362
▁감사	-9.53388
▁왠지	-9.53391
er	-9.53441
▁만들지	-9.53534
착	-9.5364
기억	-9.53666
▁저예산	-9.53794
▁그래	-9.53822
▁해야	-9.53824
▁처음이다	-9.53833
▁미치	-9.5388
유치	-9.53922
얘기	-9.53958
▁사람을	-9.53975
▁꽝	-9.54034
하다니	-9.54079
▁이런게	-9.5413
▁특	-9.54179
▁눈을	-9.54184
기엔	-9.54203
▁꼬	-9.54234
▁낭비	-9.54239
럽	-9.54252
▁명작이다	-9.54395
O	-9.54449
묘	-9.54479
.......	-9.54484
기가	-9.54509
하려	-9.54515
니깐	-9.54521
▁비추	-9.54522
▁명작이	-9.54569
▁슬프	-9.546
▁사기	-9.54665
▁범죄	-9.54674
웅	-9.54722
앙	-9.54727
려서	-9.5473
;;;;	-9.54746
▁OST	-9.54754
▁그럭저럭	-9.54754
놨	-9.54754
▁메시지	-9.54759
▁바라	-9.54773
▁어찌	-9.54798
▁과연	-9.54832
▁좋았는데	-9.54865
▁독특한	-9.54939
▁당신	-9.54963
휴	-9.54998
웠	-9.55001
쓴	-9.55074
▁있었던	-9.5511
▁채널	-9.55169
인간	-9.55184
--	-9.55198
▁싫	-9.55234
로서	-9.55347
▁없지만	-9.55446
▁S	-9.55489
▁이하	-9.5555
▁여성	-9.55623
▁합	-9.55715
▁접	-9.55735
셔	-9.55822
따위	-9.55848
▁짜증나	-9.55877
지마라	-9.55942
할까	-9.56009
00	-9.56021
▁웃겨	-9.56298
▁돈이	-9.56316
었고	-9.56386
▁확실히	-9.56421
나와서	-9.56444
▁시간낭비	-9.56452
▁상처	-9.56459
▁그런데	-9.56515
▁의외	-9.5652
▁관계	-9.56531
▁티비	-9.56537
▁홍보	-9.56553
▁끝나고	-9.56583
▁고민	-9.5659
▁설명	-9.56654
▁아마	-9.56687
▁흠	-9.56752
엿	-9.56794
▁여기서	-9.56866
▁표현한	-9.56973
알바	-9.57013
▁죄	-9.57017
▁녹	-9.5704
▁해주	-9.57041
▁한편	-9.57057
▁어색	-9.57086
▁몰랐	-9.57107
▁교	-9.57155
결말	-9.57181
▁보고싶다	-9.57185
하는게	-9.57205
▁특유의	-9.57206
▁그럴	-9.5729
▁임	-9.57321
▁자연	-9.57385
에서는	-9.57395
면서도	-9.57447
하려는	-9.57566
▁그의	-9.57605
세기	-9.57678
되서	-9.57752
▁별로다	-9.58032
▁나왔으면	-9.58105
엉	-9.58109
▁잊혀지지	-9.58115
껄	-9.58115
▁힐링	-9.58116
▁리뷰	-9.58121
▁벌써	-9.58129
에대한	-9.58287
▁제작진	-9.58296
▁지금도	-9.58331
혼	-9.58388
만들어	-9.58408
▁금	-9.58426
이게	-9.58453
▁묻	-9.58459
죄	-9.58585
20	-9.5865
으면서	-9.5874
▁스토리와	-9.58833
웃음	-9.58942
N	-9.59006
▁재밋게	-9.59008
▁받아	-9.59039
이제	-9.59063
▁젤	-9.5909
때문	-9.59096
▁해준	-9.5912
▁못하고	-9.59346
▁병	-9.59363
▁싶어	-9.59412
▁프로그램	-9.59421
▁관람	-9.59507
▁나오고	-9.59524
▁클	-9.59526
냥	-9.59528
▁캐릭터들	-9.59549
감독이	-9.5955
인의	-9.59648
하는지	-9.59655
재밌다	-9.5971
좌	-9.59838
벨	-9.5984
▁또한	-9.59859
▁지금봐도	-9.59981
▁사극	-9.59986
▁같습니다	-9.59987
더만	-9.60095
▁미래	-9.60099
▁통해	-9.60183
▁일상	-9.60183
▁잼나	-9.60234
아주	-9.60238
완	-9.60332
식이	-9.60414
▁소녀	-9.60426
둘	-9.60431
평점이	-9.60522
텐데	-9.60601
▁필요없는	-9.60643
▁않았다	-9.60659
▁갑	-9.60799
▁이런걸	-9.60818
▁어색한	-9.60956
째	-9.60982
▁잘봤습니다	-9.61028
있어	-9.61052
▁밥	-9.61216
▁기대를	-9.61275
점짜리	-9.61301
▁이유가	-9.61306
13	-9.61347
▁안타깝	-9.6138
몰	-9.6139
▁세상에	-9.61413
ar	-9.61449
흘	-9.61539
롱	-9.61562
▁시간을	-9.61589
밝	-9.61594
▁귀여운	-9.61594
▁눈빛	-9.61613
▁뒷	-9.61642
▁채	-9.61672
▁볼수록	-9.617
▁가볍게	-9.61706
▁티비에서	-9.61804
▁환상	-9.61819
▁호러	-9.61831
▁죽는	-9.6186
재미없다	-9.61897
내요	-9.61965
▁드라마가	-9.6197
▁어릴적	-9.62047
시간이	-9.62083
인것	-9.62089
했으나	-9.62102
시키	-9.62115
▁지난	-9.62171
찌	-9.62188
취	-9.62237
▁주인공의	-9.62243
없어	-9.62281
깨	-9.62287
▁슬프고	-9.623
▁남주	-9.62313
▁프로	-9.62352
에서도	-9.62361
일이	-9.62365
막장	-9.62365
계속	-9.62398
야할	-9.62514
▁팔	-9.62517
있는데	-9.62578
ᄍᄍ	-9.62585
▁남는다	-9.62592
▁볼만하다	-9.62661
▁월	-9.62699
나온	-9.62711
▁적당	-9.62721
▁괜찮았	-9.62827
력이	-9.6284
영화다	-9.62846
▁떠나	-9.62939
▁계	-9.63096
따뜻	-9.63103
거라	-9.6316
▁꼴	-9.63171
▁화가	-9.63195
▁잼없	-9.632
만드는	-9.63272
▁보이	-9.63341
V	-9.63367
z	-9.6338
▁뛰어난	-9.6338
▁섹스	-9.63387
낮	-9.63404
▁흐름	-9.63412
▁현재	-9.63447
▁설레	-9.63466
▁소재는	-9.63481
▁자막	-9.63481
▁고생	-9.63535
려면	-9.63585
▁빠지	-9.63604
▁피해자	-9.63647
▁괴물	-9.6367
▁생각합니다	-9.63692
상을	-9.63698
▁인생의	-9.6373
▁무섭다	-9.63794
든다	-9.63848
▁왜케	-9.63867
▁볼만하	-9.63907
코미디	-9.64058
▁홍	-9.64079
▁신선한	-9.64087
힘	-9.6415
젤	-9.64162
▁영화관	-9.64182
총	-9.64184
B	-9.64186
▁드라마를	-9.64218
지고	-9.64225
▁진심으로	-9.64253
연기도	-9.64344
수도	-9.64382
▁사랑하는	-9.64487
거면	-9.64582
▁매력이	-9.64586
했어	-9.64606
▁민	-9.6467
▁낫	-9.64699
▁틀	-9.64711
▁그린	-9.64728
버렸	-9.6474
ᅲᅲᅲᅲ	-9.6476
▁되었	-9.64786
▁독립영화	-9.6484
쾌	-9.65005
▁결	-9.65005
▁내용을	-9.65035
만화	-9.65088
랜	-9.65125
팬	-9.65172
껴	-9.65177
헌	-9.65192
힐	-9.65197
▁아나	-9.65279
▁포장	-9.65377
▁동화	-9.6546
한듯	-9.65543
▁시원	-9.65574
▁생각나	-9.65577
시킨	-9.65581
▁소름	-9.65585
▁영화냐	-9.65614
왔다	-9.65636
▁그렇다	-9.65686
한다면	-9.65744
▁15	-9.65796
▁그렇다고	-9.65851
▁검	-9.65903
▁있나	-9.66045
팔	-9.66079
함과	-9.66109
▁완	-9.66148
현실	-9.6623
▁중간중간	-9.66236
찾	-9.66264
▁의미를	-9.6627
▁돌려	-9.66362
활	-9.66363
시키는	-9.6646
들고	-9.66519
면에서	-9.66559
▁친	-9.66612
지않고	-9.66671
▁소재로	-9.66765
▁문화	-9.66779
봤지만	-9.66792
▁쇼	-9.66884
v	-9.66889
▁슬	-9.66903
▁칼	-9.66966
폐	-9.67003
했나	-9.67004
엽	-9.67027
▁누	-9.67028
널	-9.6703
균	-9.67031
몽	-9.67035
갓	-9.6705
덤	-9.6705
땅	-9.6705
설정	-9.67055
더라도	-9.67059
▁살짝	-9.67069
▁재밌습니다	-9.67267
▁평이	-9.67274
▁볼만함	-9.67305
▁사랑과	-9.67318
▁끌	-9.67322
▁차이	-9.67396
았던	-9.67427
사는	-9.67459
▁인상	-9.67462
머리	-9.6751
▁개판	-9.6755
▁마라	-9.67587
▁아저씨	-9.6761
▁끝난	-9.67626
▁친구들	-9.67635
▁I	-9.6775
▁광	-9.67768
버렸다	-9.6781
▁다르	-9.67873
명이	-9.67915
▁오버	-9.67991
▁공감이	-9.68035
홍	-9.68044
받은	-9.68061
캐릭터	-9.68093
점주	-9.68153
▁논	-9.68161
▁보고싶	-9.68208
전쟁	-9.68275
나올	-9.68431
재밌음	-9.68482
들아	-9.68547
갖	-9.68576
▁만들어진	-9.68694
▁무협	-9.68704
찰	-9.68852
로운	-9.68877
R	-9.68937
▁분노	-9.69029
▁희	-9.69057
수없는	-9.69134
ᄒᄒᄒ	-9.69224
▁보았다	-9.69239
나왔	-9.6925
쳤	-9.69289
봤음	-9.69437
버리는	-9.69487
▁누구나	-9.69492
▁40	-9.69513
▁죽어	-9.69633
▁짠	-9.69733
▁춤	-9.69881
이야기를	-9.69981
▁말하는	-9.69991
▁ᄉᄇ	-9.7011
▁단순한	-9.7014
안되	-9.70209
최고의	-9.7023
걸로	-9.703
필요	-9.70345
▁권	-9.70352
리지	-9.70576
점준	-9.70633
▁창	-9.70649
▁추억의	-9.70662
내용이	-9.70739
틴	-9.70809
▁연기력이	-9.70832
릿	-9.70859
꾼	-9.7086
K	-9.7086
▁풋풋	-9.7086
뢰	-9.7086
진심	-9.70904
▁시각	-9.70977
▁잃	-9.71019
▁이쁜	-9.71023
▁좋습니다	-9.71026
▁봤다가	-9.71089
ᄒᄒᄒᄒ	-9.71217
▁볼수있	-9.71232
시는	-9.71233
▁연기에	-9.71267
▁풀어	-9.71307
▁풍	-9.71431
▁곳	-9.71449
▁"""	-9.715
었나	-9.71592
누나	-9.71666
▁다행	-9.71729
"""	-9.71753
속에서	-9.71753
▁인간들	-9.71789
▁울고	-9.71836
재밌게	-9.71874
▁빈	-9.71963
▁ᄏᄏᄏᄏᄏ	-9.71971
▁감동적	-9.7199
▁덜	-9.72016
▁무지	-9.72043
▁있으면	-9.72053
없네	-9.72071
I	-9.72084
꿀잼	-9.7212
▁황당	-9.72162
▁어이가	-9.72338
▁s	-9.72392
쉽	-9.72415
▁심리	-9.72433
지않은	-9.72452
이며	-9.72461
스터	-9.7249
라지만	-9.72497
으로서	-9.72527
센	-9.72554
프로	-9.72559
▁답	-9.72571
▁봐야할	-9.72604
▁안나오	-9.72623
▁내려	-9.7269
▁흘러	-9.72803
▁청소년	-9.7282
▁해피엔딩	-9.7282
▁평범한	-9.72821
▁슬픔	-9.72824
▁에휴	-9.72857
▁조폭	-9.72889
▁악당	-9.7293
▁평생	-9.72992
▁그려	-9.73027
▁재밌네	-9.7304
▁엄	-9.73081
▁남녀	-9.73107
영화에	-9.73222
언니	-9.73228
▁상영	-9.73266
▁고전	-9.7335
▁보시길	-9.73356
▁국	-9.73417
▁좋았을	-9.73481
▁12	-9.73482
▁죄다	-9.73536
▁울었	-9.73611
편을	-9.73664
▁현대	-9.73677
자는	-9.73692
▁제목이	-9.73705
했네	-9.73887
........	-9.74042
▁판	-9.74079
쿠	-9.74135
▁지금은	-9.74136
▁어이없는	-9.74153
쓸	-9.74178
▁빼	-9.74237
년전에	-9.74239
▁떨어지는	-9.7429
▁알바들	-9.74292
▁장면에서	-9.74299
ᄏᄏᄏᄏᄏ	-9.74309
▁핵	-9.74326
▁참신	-9.74369
▁있어야	-9.74376
영화의	-9.74454
중에서	-9.74461
내용도	-9.74499
▁식	-9.74563
제발	-9.74632
짝	-9.7474
룡	-9.74764
겼	-9.74782
무비	-9.7479
▁정서	-9.74802
렉	-9.74817
앤	-9.7482
떼	-9.7482
▁먹고	-9.7482
낼	-9.74821
▁겁나	-9.74846
▁민망	-9.74861
▁몸매	-9.74885
▁팬이	-9.74887
많은	-9.74887
▁아깝지	-9.74911
도아니고	-9.74966
자의	-9.74977
▁이루	-9.75004
▁들어가	-9.75012
▁드러	-9.75016
▁f	-9.75039
있었	-9.7504
▁기대했는데	-9.75051
▁보기엔	-9.75133
▁군대	-9.75162
이유	-9.75214
▁북한	-9.75247
어가	-9.75323
▁재미있었다	-9.7536
▁함	-9.75451
영화라고	-9.75508
▁없나	-9.75664
▁만들고	-9.75741
▁되게	-9.75741
▁찍은	-9.75952
아니라	-9.75965
그렇	-9.75965
▁되지	-9.75995
▁가진	-9.75995
▁기다리	-9.76121
▁폭력	-9.76134
▁나오지	-9.76142
an	-9.76151
▁눈이	-9.76152
▁전설	-9.76185
아님	-9.76224
아요	-9.76233
떠	-9.76303
▁산만	-9.76343
표현	-9.76399
▁되었다	-9.764
▁좋아할	-9.76486
재밌어요	-9.76496
팅	-9.7656
이크	-9.76571
▁분들	-9.76666
▁난다	-9.76708
텐	-9.76757
보지	-9.76819
들만	-9.76845
▁에피소드	-9.76861
렷	-9.76861
컷	-9.76861
▁디즈니	-9.76861
▁외계인	-9.76862
▁옛날에	-9.76862
▁더러운	-9.76863
▁나머지	-9.76867
▁긴장	-9.76872
▁더불어	-9.76872
겁니다	-9.76903
▁없는데	-9.76955
▁추천합니다	-9.77046
▁이해하기	-9.77053
▁보는게	-9.77059
하려고	-9.7707
▁떠나서	-9.77122
짜증	-9.77131
▁졸라	-9.77185
자나	-9.77208
▁기본	-9.77242
▁극치	-9.77289
▁어제	-9.77301
▁했지만	-9.77316
▁본다면	-9.77395
▁탄탄한	-9.77403
▁한계	-9.77467
▁얼	-9.77503
▁썩	-9.77521
▁잼있게	-9.77555
▁이어	-9.77598
▁감동과	-9.77603
▁놓	-9.77658
▁재미없네	-9.77686
▁재밋다	-9.77686
해주세요	-9.777
▁동생	-9.77715
지않는	-9.77767
▁있다면	-9.77889
▁유쾌	-9.77928
았는데	-9.77931
되었	-9.77934
가슴	-9.77964
▁영화에요	-9.77984
▁영화보고	-9.77987
▁쥐	-9.77989
사람은	-9.7799
▁섬	-9.78009
▁많다	-9.78085
편의	-9.78181
ᄃᄃ	-9.78202
▁사랑이야기	-9.78207
지가	-9.78241
▁지구	-9.78388
▁늘	-9.78402
자체가	-9.78403
▁우주	-9.78436
자리	-9.78458
C	-9.78469
믿	-9.78477
것만	-9.78497
오브	-9.78537
▁캐	-9.78698
▁인상적이	-9.7888
잤	-9.78913
픽	-9.78933
몬	-9.78944
턴	-9.78944
▁씁쓸	-9.78945
▁다룬	-9.79006
용으로	-9.79011
겠어요	-9.79041
까진	-9.79051
느니	-9.79152
▁대부분	-9.79163
드라	-9.79176
본영화	-9.79225
▁현실적인	-9.79263
▁먼	-9.7931
▁재미있음	-9.79384
▁주인공들	-9.79408
▁십	-9.79487
하는건	-9.79521
▁봤으면	-9.79534
▁청	-9.7963
것같	-9.79651
▁어쩔	-9.79669
▁끝나는	-9.79677
볼수	-9.79685
스를	-9.79686
▁되고	-9.79695
▁만든다	-9.79724
▁이리	-9.79785
▁연예인	-9.79827
▁인기	-9.79846
▁짧	-9.7987
하하하	-9.79887
▁말을	-9.79995
▁우리가	-9.80008
꾸	-9.80106
▁나중에	-9.80141
▁보이는	-9.8015
▁미드	-9.80187
버려	-9.80214
냈	-9.80258
▁우정	-9.80303
▁멋있	-9.80318
?!	-9.80385
연기가	-9.80522
▁사랑에	-9.80537
▁이유는	-9.80577
엄	-9.80592
▁오랜만	-9.80593
▁엘	-9.8062
슈	-9.80646
▁끊	-9.80659
▁남아	-9.80666
▁헤	-9.80668
잠	-9.80675
하는것	-9.80732
▁풀	-9.80764
엄마	-9.80795
공포	-9.80808
제목	-9.80815
▁용	-9.80823
▁외국	-9.80852
▁남편	-9.80912
▁받았	-9.80941
▁눈에	-9.80967
영화라	-9.8099
▁음악이	-9.80995
압	-9.80999
▁모든게	-9.81021
혁	-9.81031
궁	-9.81048
텔	-9.81072
톤	-9.81072
▁good	-9.81073
▁압권	-9.81073
▁전기세	-9.81074
▁글쎄	-9.81078
았습니다	-9.81091
▁있지	-9.81097
리스	-9.81097
▁양심	-9.81169
▁재밌었는데	-9.81284
▁요소	-9.81294
▁이정도면	-9.81298
님들	-9.81348
▁의심	-9.8143
▁동물	-9.81444
▁시걸	-9.81471
▁유명	-9.81489
보려고	-9.8154
▁발전	-9.81556
▁돌아가	-9.81619
▁안되고	-9.81651
▁신선하고	-9.8168
영상	-9.81701
▁영화지만	-9.81702
한게	-9.81761
▁입니다	-9.81771
감을	-9.81775
자체는	-9.81808
▁뮤지컬	-9.81867
▁보내	-9.81901
▁붙	-9.81931
▁크게	-9.81936
▁지루하게	-9.81937
▁줌	-9.81959
▁있네요	-9.81972
▁이쁘고	-9.8202
짜증나	-9.82157
▁둘다	-9.82171
▁않음	-9.82185
했는지	-9.82192
▁언제나	-9.82283
▁안됨	-9.82395
져서	-9.8251
고싶은	-9.8253
▁어릴	-9.82582
▁18	-9.82835
ᄍ	-9.82837
▁망한	-9.8286
닌	-9.8286
특	-9.82865
아니다	-9.82885
맘	-9.82955
겠음	-9.82958
▁킬링타임	-9.82965
괜찮	-9.82965
M	-9.82977
한국	-9.83032
▁생각할	-9.83084
개봉	-9.83107
멋	-9.83125
▁시도	-9.83151
례	-9.83164
▁연기와	-9.83177
흑	-9.83231
P	-9.83231
모든	-9.83243
L	-9.83246
▁드럽게	-9.83246
▁어처구니	-9.83246
▁펑펑	-9.83246
▁많았	-9.8325
르고	-9.83253
▁같아	-9.83257
▁어머니	-9.8329
▁지루할	-9.83329
티비	-9.83397
▁외모	-9.83399
으론	-9.83404
▁생각하는	-9.8344
▁하는지	-9.83452
▁그걸	-9.83503
▁넘치는	-9.83516
▁액션은	-9.83589
▁생각하고	-9.83606
따구	-9.83628
싸움	-9.83661
▁생각없이	-9.8368
▁전에	-9.83688
▁그럼	-9.83713
▁무엇을	-9.83848
하겠	-9.83864
▁씨	-9.83866
▁짓	-9.83977
▁못했다	-9.84039
▁c	-9.84053
▁조연	-9.84093
▁드라마는	-9.8413
▁한마디	-9.84143
▁못해	-9.84175
▁반전도	-9.84177
▁한국인	-9.84219
▁부르	-9.84229
당한	-9.84297
해준	-9.8431
▁돋	-9.84324
갔다	-9.84353
보이는	-9.84378
하라	-9.84405
▁뜻	-9.84456
세상	-9.84483
▁학교	-9.84496
기에는	-9.84501
온다	-9.84513
님의	-9.84522
▁줬	-9.84534
▁작은	-9.84559
▁말로	-9.84676
▁무서워	-9.84713
사건	-9.8476
하다가	-9.84811
▁역시나	-9.84855
싫	-9.84946
말고	-9.85025
▁맘	-9.85077
▁살아있	-9.8509
학생	-9.85155
따라	-9.85175
in	-9.85232
봅니다	-9.8525
돋	-9.85275
캐	-9.85281
첨	-9.85313
스가	-9.85317
▁음악도	-9.85375
▁속에서	-9.85383
▁젊은	-9.85406
▁생각나는	-9.85415
`	-9.85468
값	-9.85468
폰	-9.85468
▁왠만하면	-9.85468
▁저렇게	-9.85468
▁기대안하고	-9.8547
▁덕분	-9.85478
▁쉽게	-9.85487
▁짜증난다	-9.85519
▁나옴	-9.8558
▁게다가	-9.85586
▁운명	-9.8559
▁볼때마다	-9.85601
기분	-9.85606
해진	-9.85651
▁것들	-9.85654
▁취향	-9.85706
▁잇	-9.85726
▁아직까지	-9.8573
▁개인	-9.85749
▁의리	-9.85786
씨가	-9.85803
긴한데	-9.85805
봐요	-9.85808
나온다	-9.85814
▁이건뭐	-9.85852
▁좋을	-9.85934
▁역할	-9.85937
▁귀엽고	-9.85975
나게	-9.8599
▁더이상	-9.86004
▁찍어	-9.86031
장난	-9.86048
▁포기	-9.86058
▁지루해서	-9.86166
없어서	-9.86173
▁멍청한	-9.8627
▁중반	-9.86484
▁사랑은	-9.8651
▁볼때	-9.86514
▁시대를	-9.86547
▁영화인	-9.86635
았음	-9.86648
▁빠져들	-9.86671
기위해	-9.86942
친다	-9.86951
▁제작비	-9.86954
▁<	-9.87037
급영화	-9.8705
▁않게	-9.87086
▁A	-9.87163
스러움	-9.87223
▁했던	-9.87269
딩	-9.87279
그리	-9.87297
▁찬	-9.87374
지도않고	-9.87412
▁연출도	-9.87447
▁끌어	-9.87474
▁인물들	-9.87557
쩔	-9.87585
▁군	-9.87607
흥	-9.87615
왔습니다	-9.87618
▁더럽	-9.8762
골	-9.87634
숨	-9.87664
아까운	-9.87699
차라리	-9.87703
000	-9.87705
시즌	-9.87706
멘	-9.8774
▁경험	-9.87741
▁높다	-9.87741
▁쩐다	-9.87741
넹	-9.87741
틈	-9.87741
▁싸구려	-9.87741
▁직접	-9.87745
▁사랑의	-9.87749
▁바꿔	-9.87752
▁표절	-9.87765
극장	-9.87791
하겠다	-9.87793
부족	-9.87824
배우들의	-9.87829
▁스포	-9.87871
지마	-9.87891
."	-9.87896
지루하	-9.87925
▁푹	-9.88025
보여주	-9.88027
센스	-9.88052
▁킬링타임용으로	-9.88074
▁혹	-9.88098
관계	-9.88112
▁싶네요	-9.88154
할수있	-9.8823
▁않나	-9.88241
▁불쌍해	-9.88246
야한다	-9.88271
그러	-9.88315
▁체	-9.88431
안에	-9.88443
하면서도	-9.88468
▁그것도	-9.88476
나옴	-9.88504
점주는	-9.88517
▁홍콩	-9.88624
▁질리지	-9.88682
수있는	-9.88694
▁뻔하고	-9.88721
▁좀더	-9.88766
▁건지	-9.88785
//	-9.88838
▁범인	-9.88864
is	-9.88914
했을까	-9.89
▁믿을	-9.8901
그자체	-9.89012
▁아는	-9.89034
▁몰입이	-9.89066
▁행복한	-9.89102
▁시리즈중	-9.89112
▁좋아하는데	-9.89127
찡	-9.89165
계의	-9.89307
제작	-9.89466
른다	-9.89547
▁있어요	-9.89555
▁느끼는	-9.89583
▁:	-9.89592
▁말할	-9.89656
됐다	-9.89687
▁높아	-9.89854
▁난해	-9.89961
끌	-9.89984
럭	-9.90067
▁퀄리티	-9.90067
▁헐리우드	-9.90067
뽕	-9.90067
▁어려운	-9.90067
떨	-9.9008
▁옷	-9.90082
▁검색	-9.90096
▁전문가	-9.90099
▁맨날	-9.90106
▁어휴	-9.90134
▁봤었는데	-9.90137
▁11	-9.90139
▁대충	-9.90148
▁두번째	-9.90148
▁최강	-9.90166
▁코난	-9.90182
어울리	-9.90229
▁야동	-9.90239
▁단연	-9.9024
▁읽	-9.90255
▁보여	-9.90285
▁들었다	-9.90286
되면	-9.9032
배경	-9.9033
▁늘어	-9.9037
▁찌	-9.90385
지마세요	-9.905
▁하루	-9.90544
▁쓰레기다	-9.90671
▁열심히	-9.90821
더라구요	-9.91025
▁결말은	-9.91047
했네요	-9.91126
짜리	-9.9114
▁엉성한	-9.9126
▁만큼	-9.91397
▁재미있어	-9.91445
▁순수한	-9.91462
리를	-9.91518
시대에	-9.91605
자기	-9.9162
▁이해할	-9.91626
▁가득	-9.91688
▁무비	-9.91699
▁힘들었	-9.91807
▁최근	-9.91866
▁당시에	-9.91886
▁어렸을	-9.91914
▁시청	-9.91926
었을	-9.9194
▁예전	-9.92054
지지	-9.92147
▁소름이	-9.92163
하신	-9.92182
▁달리	-9.92208
▁명성	-9.92262
▁뇌	-9.92299
택	-9.92342
ᄅ	-9.92352
머니	-9.92423
뽑	-9.92437
깔	-9.92437
▁하게	-9.92445
▁견자단	-9.92448
▁비주얼	-9.92448
▁불구하고	-9.92449
▁동시에	-9.92451
새끼들	-9.92465
▁시사회	-9.92481
듯하다	-9.92499
▁할머니	-9.92503
▁연결	-9.92507
뇌	-9.92566
▁그다지	-9.92567
▁막판	-9.92598
헤	-9.92602
아까움	-9.92619
▁게이	-9.92642
스릴러	-9.92677
▁잭	-9.92746
▁아쉽네요	-9.92747
▁작품이다	-9.92779
▁허세	-9.92782
조아	-9.92792
그래서	-9.92792
노래	-9.92918
▁받는	-9.92948
▁개연성이	-9.93002
▁지나치	-9.93006
▁소장	-9.93203
▁올해	-9.93241
봤어요	-9.93318
▁뒤로	-9.9336
▁잘하고	-9.9339
형님	-9.93439
..........	-9.93456
수밖에	-9.93505
▁긴장감도	-9.93509
▁나오네	-9.93569
이걸	-9.93588
했다는	-9.93599
했다고	-9.93604
▁울었다	-9.93611
▁이런영화를	-9.93752
▁딴	-9.93831
웠다	-9.93936
▁정치	-9.93968
▁이미지	-9.93976
▁빠	-9.9398
▁남자의	-9.93987
▁벗	-9.94038
▁인생을	-9.94062
▁묘사	-9.94064
장면이	-9.94075
스럽게	-9.94084
▁;;	-9.94091
영화로	-9.94105
▁배우의	-9.94144
박한	-9.94293
▁삶의	-9.94311
▁웃기고	-9.94357
▁못한다	-9.94382
랐	-9.94421
명의	-9.94477
모양	-9.94503
깝	-9.9464
빙	-9.94671
▁뭉클	-9.94725
▁둘이	-9.94727
꿀	-9.94862
왓	-9.94886
]	-9.94887
▁높게	-9.94887
▁시트콤	-9.94887
핑	-9.94887
▁누군가	-9.94887
▁색다른	-9.94888
냄새	-9.9489
▁the	-9.94901
▁어린시절	-9.94905
▁편견	-9.9492
▁개뿔	-9.94921
▁방금	-9.94937
▁착한	-9.94951
▁베스트	-9.9497
▁반복	-9.94989
이렇게	-9.95016
▁고통	-9.95019
▁조합	-9.95033
▁성격	-9.95038
▁무척	-9.95065
라스	-9.95079
▁ᅲᅲᅲ	-9.95089
▁올려	-9.95119
답답	-9.95131
끈	-9.95134
듣	-9.95147
▁이후로	-9.95149
▁훈훈	-9.95155
꼴	-9.95173
▁처음엔	-9.9521
▁악마	-9.95227
▁답답하고	-9.95241
만이	-9.95263
▁ᄋ	-9.95284
되나	-9.95329
▁동안	-9.95332
▁표	-9.95342
후반	-9.95353
▁가져	-9.95365
▁못할	-9.95373
해야지	-9.95401
으로써	-9.95432
▁투자	-9.95461
▁다큐멘터리	-9.95557
바닥	-9.95575
▁몇번을	-9.95588
▁자식	-9.95592
▁필요없다	-9.95681
모두	-9.95709
▁작가가	-9.958
▁광고	-9.95802
▁영화인듯	-9.9584
어라	-9.95916
뻔한	-9.95972
까지는	-9.96064
ᅲᅮ	-9.96098
▁안하고	-9.96158
이런영화	-9.96249
▁찍었	-9.96307
▁우와	-9.96316
감독의	-9.9637
▁이거보고	-9.96382
▁개연성도	-9.96451
▁아이돌	-9.96468
▁빼고	-9.96509
씨의	-9.96521
▁신선	-9.96553
왔는데	-9.96574
볼만	-9.96585
▁놈들	-9.9659
보니까	-9.96697
▁나왔다	-9.96736
▁느꼈	-9.96744
▁남자들	-9.96779
▁낮아서	-9.96837
지를	-9.96908
▁좋았던	-9.96915
좋고	-9.96941
▁실제로	-9.97027
릭	-9.97193
▁멀	-9.9729
점수	-9.97317
▁국내	-9.97368
틱	-9.97382
쏘	-9.97382
톱	-9.97386
▁쵝오	-9.97387
★	-9.97387
윈	-9.97387
젖	-9.97387
ᄆ	-9.97387
▁러닝타임	-9.97387
▁즐겁게	-9.97387
▁007	-9.97388
스러웠	-9.97401
▁새롭	-9.97409
▁필름	-9.97416
▁바꾸	-9.97425
▁불쾌	-9.97426
▁명품	-9.97439
자고	-9.97439
거같아요	-9.97478
▁생애	-9.97499
잡고	-9.97516
대는	-9.97519
▁살면서	-9.97564
▁다시한번	-9.97583
▁박수를	-9.97609
▁그렇	-9.9766
▁말하고	-9.97685
▁보긴	-9.97692
겨울	-9.97697
로써	-9.97757
▁필	-9.97767
▁결과	-9.97791
▁뜨	-9.97795
▁현실적이	-9.97813
같아	-9.97817
▁작품은	-9.97831
분은	-9.97839
▁불러	-9.97841
시간에	-9.97842
▁비판	-9.97848
▁대본	-9.97922
보고싶은	-9.9794
▁심장	-9.97941
▁아침	-9.97942
▁재밌게봤	-9.98076
▁아예	-9.98183
▁낮게	-9.98198
더라면	-9.98217
스타일	-9.98303
적은	-9.9837
▁발로	-9.98414
▁노답	-9.98466
▁있게	-9.98527
▁아닌듯	-9.98654
▁만들기	-9.98664
있어서	-9.98673
공감	-9.98707
▁많아	-9.98723
하고자	-9.98767
있나	-9.98893
▁가치가	-9.9896
적이다	-9.98972
▁케	-9.98992
▁순수	-9.99006
이라서	-9.99012
▁혼	-9.99028
▁무엇	-9.99044
▁웃음이	-9.99047
▁뜬금없	-9.99082
▁탈	-9.99113
쳐서	-9.99122
시작	-9.99147
▁몇번	-9.99161
▁D	-9.99189
▁안맞	-9.99223
▁영화였어요	-9.99373
앞에	-9.99376
▁유치하다	-9.99396
▁연애	-9.99432
▁짱짱	-9.9944
▁다만	-9.9946
▁쓰레기같은	-9.99497
▁하나하나	-9.99545
▁북	-9.99549
▁미소	-9.996
겠습니다	-9.9965
식의	-9.99668
벽	-9.99792
▁어렵	-9.99805
▁무서웠	-9.99837
▁올리	-9.99878
▁퍼	-9.99887
낙	-9.99947
붕	-9.9995
▁아름다움	-9.99951
긋	-9.99951
▁밋밋	-9.99951
룩	-9.99951
컨	-9.99951
▁김기덕	-9.99951
▁로그인	-9.99951
층	-9.99951
▁크리스	-9.99986
▁풍경	-10.0001
▁색감	-10.0001
▁발견	-10.0001
▁충	-10.0001
▁첫사랑	-10.0002
▁뭐라	-10.0004
▁않을까	-10.0011
겠네요	-10.0013
편보다	-10.0016
▁부모	-10.0019
▁죽은	-10.0025
▁없습니다	-10.0025
간의	-10.0027
▁볼게	-10.0031
▁영화보는	-10.0034
▁출연진	-10.0042
▁반개도	-10.0048
▁산으로	-10.0048
엘	-10.005
밥	-10.0051
▁연기자들	-10.0053
무섭	-10.0053
▁열정	-10.0054
▁재미있네요	-10.0055
무시	-10.0055
▁답이	-10.0058
▁유치함	-10.0061
▁않지만	-10.0062
▁하네요	-10.0066
▁이상하게	-10.0067
슬프	-10.0068
▁형님	-10.0068
▁한참	-10.0071
▁즐기	-10.0072
▁이런건	-10.0079
아쉽	-10.0082
문화	-10.0086
▁반성	-10.0089
▁관한	-10.0089
▁빼고는	-10.0089
이었음	-10.009
▁이제야	-10.0092
▁올라	-10.0097
▁살고	-10.0103
지말고	-10.0105
▁최고입니다	-10.0107
▁이제서야	-10.0117
▁시선	-10.0129
봤어	-10.0129
기고	-10.013
뭔가	-10.0139
▁홍콩영화	-10.0158
▁형사	-10.0166
하지마라	-10.0174
편도	-10.0175
▁인간이	-10.0177
▁샤	-10.0177
오오	-10.0188
같고	-10.019
▁우리는	-10.0202
▁장면들	-10.0205
▁연기자	-10.021
▁멋	-10.021
▁죽이	-10.0221
▁재밌다고	-10.0228
▁보고싶어	-10.0229
▁한데	-10.0231
밑	-10.0235
ᄃ	-10.0247
하구	-10.0253
섹	-10.0257
옹	-10.0257
낄	-10.0257
▁짝퉁	-10.0258
엑	-10.0258
▁스스로	-10.0259
▁흥미로운	-10.026
▁모르겠음	-10.026
▁느껴진다	-10.0261
▁떨어진다	-10.0262
▁방법	-10.0262
▁충실	-10.0262
▁알겠는데	-10.0266
▁생생	-10.0271
bb	-10.0271
▁내면	-10.0277
▁막장드라마	-10.0277
▁수도	-10.0284
▁아픈	-10.0286
▁신나	-10.0286
으니까	-10.0286
▁국민	-10.0287
한다고	-10.0292
............	-10.0299
▁있었지만	-10.0302
▁나오면	-10.0302
▁50	-10.0305
▁비하면	-10.0313
▁예쁘고	-10.0316
▁매력있	-10.0318
▁이따위	-10.032
▁소년	-10.0321
▁웃김	-10.0322
▁부족하다	-10.0323
▁남을	-10.0323
빛	-10.0327
딸	-10.033
기로	-10.0336
▁신비	-10.034
▁전쟁영화	-10.0341
속의	-10.0342
보는내내	-10.0343
▁시청률이	-10.0348
▁아름답	-10.0351
▁몰라도	-10.0353
▁커플	-10.0356
▁캬	-10.0357
되었다	-10.0359
▁낮아	-10.0363
바라	-10.0365
▁자주	-10.0366
▁빠진	-10.0367
▁주말	-10.0368
▁중에서	-10.0368
끝나	-10.037
엔딩	-10.0371
문제	-10.0377
▁똑같은	-10.038
원작	-10.0398
▁좋아서	-10.0412
▁안타깝다	-10.0413
▁완전히	-10.0414
▁보여준다	-10.0432
▁몰라	-10.0436
▁슬퍼	-10.0439
▁대해서	-10.0443
▁육	-10.0446
▁히어로	-10.045
싶다	-10.046
촌	-10.0461
좋아하는	-10.0464
▁가지	-10.0466
평가	-10.0467
▁이것이	-10.0469
같았	-10.0486
▁진정	-10.0496
▁얼마	-10.0498
▁많고	-10.0499
보시	-10.0504
쓰는	-10.0509
씬은	-10.0511
영화입니다	-10.0519
댄	-10.052
있냐	-10.0525
뉴	-10.0527
▁블랙	-10.0528
퇴	-10.0528
▁비슷하	-10.0528
▁안타까운	-10.0528
▁카리스마	-10.0528
칸	-10.0528
▁고양이	-10.0529
▁다양한	-10.0529
▁잠깐	-10.0529
▁핵노잼	-10.053
▁심각	-10.053
▁시간가는줄	-10.0531
▁따뜻해지는	-10.0531
역사	-10.0532
▁겨우	-10.0532
▁레알	-10.0532
연기력	-10.0539
▁한번쯤	-10.054
▁봤을때	-10.054
▁하늘	-10.0541
▁연속	-10.0542
▁왜이래	-10.0545
▁다운	-10.0546
▁사랑스러운	-10.0547
▁싶지	-10.0551
하기만	-10.0553
▁없지	-10.0553
▁이럴	-10.0555
▁많아서	-10.0557
쟁	-10.056
▁보고싶은	-10.0568
▁다시는	-10.0571
▁강한	-10.0572
▁처음에	-10.0574
▁+	-10.0576
▁대사가	-10.0577
▁공부	-10.0578
▁쩝	-10.0585
버스	-10.0588
였지만	-10.0588
▁인해	-10.0589
하하	-10.0591
▁집에서	-10.0591
▁됨	-10.0595
▁훌륭하다	-10.0601
▁오바	-10.0602
▁문제가	-10.0602
▁독특하	-10.0607
육	-10.0609
빌	-10.0611
<	-10.0612
▁틀어	-10.0612
샤	-10.0612
낭비	-10.0614
▁느와르	-10.0617
큰	-10.0617
중의	-10.0617
한다는	-10.0625
▁보여줬	-10.0628
요즘	-10.063
▁아역	-10.0631
▁따로	-10.0635
려나	-10.0642
소설	-10.0649
▁긴장감이	-10.0654
하기엔	-10.0658
봣다	-10.0659
일본	-10.0665
찌질	-10.0665
빼고	-10.067
▁반전을	-10.0672
감독님	-10.0675
▁에로	-10.0683
얘	-10.0687
보자	-10.0689
▁줘야	-10.0704
▁그런가	-10.0707
셈	-10.0716
다큐	-10.0719
같아서	-10.0721
▁떨어지	-10.0729
▁훌륭하	-10.0732
스럽고	-10.0738
▁방식	-10.0743
잼잇	-10.0756
워서	-10.0757
님이	-10.0759
신이	-10.0767
이쁘	-10.0775
었지	-10.0775
렇	-10.0779
▁나쁘	-10.078
on	-10.0781
같음	-10.0787
▁맨	-10.079
있었다	-10.0793
웬	-10.0794
협	-10.0795
▁죽었	-10.0798
칙	-10.0806
깍	-10.0806
둔	-10.0806
▁이연걸	-10.0807
▁주성치	-10.0807
줍니다	-10.0807
▁따뜻하고	-10.0808
▁촌스럽	-10.0808
▁폭풍	-10.0808
▁새벽에	-10.0809
▁즐겨	-10.0809
▁남자주인공	-10.0814
▁갈등	-10.0814
▁봤더니	-10.0815
▁화려하	-10.0816
▁내용전개	-10.0818
▁보지마	-10.0821
▁주변	-10.0824
▁개념	-10.0824
▁이용	-10.0825
▁한국에서	-10.0829
▁학교에서	-10.083
였어	-10.0833
집니다	-10.084
▁감안	-10.0841
▁자신이	-10.0842
▁끝이	-10.0842
▁얻	-10.0847
주제	-10.0849
▁입장	-10.085
30	-10.0851
▁보통	-10.0852
▁라는	-10.0853
영화임	-10.0858
▁와닿	-10.0858
▁갔다	-10.0869
보구	-10.0871
▁조선	-10.0872
▁주기	-10.0873
▁귀엽	-10.0879
학교	-10.088
알아	-10.0882
공주	-10.0893
▁좋지만	-10.0893
전체적인	-10.0901
ᄌ	-10.0904
밤	-10.0906
삶	-10.0909
▁마이너스	-10.0911
▁없어요	-10.0913
▁모를	-10.0919
▁밤	-10.092
년만에	-10.0921
순간	-10.0922
▁재미없게	-10.0923
▁졸리	-10.0923
봤습니다	-10.0924
끝까지	-10.0926
줄이야	-10.0932
이유를	-10.0932
~!!!	-10.0936
절대	-10.0945
▁마지막까지	-10.0948
하더라	-10.0951
좋아요	-10.096
▁놈	-10.097
▁음악과	-10.0973
사회	-10.0979
▁속에	-10.0987
▁죽을	-10.1009
▁이기	-10.1012
하길	-10.1013
메이	-10.1017
겟다	-10.1019
▁멍	-10.1023
▁감정을	-10.1025
년도에	-10.1026
자를	-10.1032
사이	-10.1049
보고싶다	-10.1058
로만	-10.1068
▁보자	-10.1076
측	-10.109
쭉	-10.1092
ᅵ	-10.1092
▁특수효과	-10.1092
뮤	-10.1092
탓	-10.1092
▁챙겨	-10.1092
롤	-10.1092
▁박중훈	-10.1092
▁크리스마스	-10.1092
▁울컥	-10.1092
▁좋았으나	-10.1094
▁흑인	-10.1094
▁집착	-10.1094
쳤다	-10.1095
▁모르겠고	-10.1098
▁희생	-10.1099
▁예능	-10.1103
것같아요	-10.1103
▁개막장	-10.1107
▁전투	-10.1109
▁어설프고	-10.111
했다면	-10.1111
▁레이	-10.1114
▁힘들다	-10.1116
갔는데	-10.1118
뭔	-10.112
▁억지스럽	-10.1123
▁갖고	-10.1135
대의	-10.1135
▁아련	-10.1141
▁자살	-10.1144
▁여자의	-10.1148
▁미모	-10.1149
▁용기	-10.1151
마지막에	-10.1152
▁푸	-10.1152
▁조작	-10.1152
▁좋아해서	-10.1159
▁기자	-10.1161
버림	-10.1165
▁보인다	-10.1168
▁관심	-10.1174
불쌍	-10.1178
▁공포물	-10.1186
▁영화라는	-10.1195
▁한심	-10.1197
▁야구	-10.1201
때부터	-10.1201
등등	-10.1203
▁위해서	-10.1204
▁돈을	-10.1205
접	-10.1205
굴	-10.1207
덜	-10.1211
논	-10.1211
얼굴	-10.1214
어떻게	-10.1214
▁대중	-10.1215
▁하는거	-10.1215
▁괜찮았다	-10.1227
시기	-10.1229
후회	-10.1232
들한테	-10.1238
▁21	-10.1239
이니	-10.1247
▁망치	-10.1252
능력	-10.1253
▁필요없	-10.126
▁받을	-10.1261
▁추리	-10.127
▁톰	-10.1272
시길	-10.1273
좋음	-10.128
다는게	-10.128
▁눈물을	-10.1281
허무	-10.1281
▁액션을	-10.1286
▁암튼	-10.129
▁뻔하	-10.1297
빨리	-10.1299
▁시점	-10.1308
▁무섭지도	-10.1309
못해	-10.131
▁가족의	-10.1312
주기	-10.1327
▁멋지	-10.1329
▁O	-10.1336
▁충분	-10.1343
딴	-10.1353
▁할말이	-10.1357
▁떨	-10.1357
방식	-10.1361
▁사람들의	-10.1367
▁아무도	-10.1369
신기	-10.1372
이래서	-10.1377
미가	-10.1377
닮	-10.1377
탁	-10.1382
흡	-10.1383
컬	-10.1386
뽀	-10.1386
▁뛰어나	-10.1386
▁바랍니다	-10.1386
▁잊지	-10.1386
▁케릭터	-10.1386
딘	-10.1386
콧	-10.1386
▁포르노	-10.1386
▁호기심	-10.1386
▁마이클	-10.1386
▁익숙	-10.1386
▁돋보이는	-10.1388
▁보기에	-10.1388
애초에	-10.1388
▁어쩜	-10.139
▁무엇인지	-10.1391
사람들이	-10.1393
▁지켜	-10.1394
▁재미있었어요	-10.1394
▁방영	-10.1399
▁재능	-10.14
▁비밀	-10.1401
▁하나같이	-10.1401
▁오래된	-10.1402
▁봐줄	-10.1402
▁재미도없고	-10.1405
아프다	-10.1406
▁여름	-10.1407
▁집중이	-10.1408
▁욕망	-10.1409
▁이런영화가	-10.1409
▁영국	-10.141
▁좋았지만	-10.141
▁있는지	-10.1411
▁쉬	-10.1411
▁독일	-10.1411
빠졌	-10.1413
▁선동	-10.1413
할만한	-10.1413
▁감히	-10.1419
▁보니까	-10.1425
▁연기력은	-10.1426
낮은	-10.1431
▁효과	-10.1433
점이다	-10.1439
▁풍자	-10.1441
▁직	-10.1441
▁한명	-10.1443
▁불쌍하다	-10.1444
거리는	-10.1446
▁정작	-10.1457
▁초등학생	-10.1467
▁씹	-10.1467
▁예쁘	-10.147
임을	-10.1479
▁웃겼	-10.1481
▁터지	-10.1486
▁난리	-10.1491
▁다시보고	-10.1494
ᄏᄏᄏᄏᄏᄏᄏᄏ	-10.1497
이래	-10.15
뜻	-10.1507
구성	-10.151
라곤	-10.1514
건가요	-10.1519
쥐	-10.1523
▁주인공은	-10.1525
없는영화	-10.1529
더빙	-10.1532
나오고	-10.1545
▁점수를	-10.1547
되네요	-10.1555
▁낳	-10.1557
▁척	-10.1557
▁집에	-10.1559
▁보다니	-10.1561
쟁이	-10.1567
긴하지만	-10.1567
안되는	-10.1568
▁가수	-10.157
▁보던	-10.1572
였고	-10.1573
♥♥	-10.1575
사를	-10.1584
▁탐	-10.1587
ᄏᄏᄏᄏᄏᄏᄏᄏᄏ	-10.1592
▁알려	-10.1592
▁달라	-10.1594
받았	-10.1597
▁영어	-10.1604
▁이쁘다	-10.1609
▁구성이	-10.1612
분들은	-10.1617
▁교육	-10.1617
▁왠	-10.1623
▁계기	-10.163
▁단지	-10.163
보내	-10.1631
▁상어	-10.1639
st	-10.1641
주면	-10.1646
▁작품을	-10.1663
▁감동적이었	-10.1677
이든	-10.168
제가	-10.168
듭	-10.1684
주기도	-10.1685
이자	-10.1685
춰	-10.1687
수있	-10.1687
셀	-10.1689
빅	-10.1689
칭	-10.1689
떄	-10.1689
▁기독교	-10.1689
▁인터넷	-10.1689
▁클레멘타인	-10.1689
밍	-10.1689
찐	-10.1689
▁헐리웃	-10.1689
▁식상한	-10.1689
포인트	-10.169
▁장르가	-10.1691
▁넌	-10.1692
해주고	-10.1693
▁여러가지	-10.1693
▁흔한	-10.1694
새벽	-10.1703
▁테러	-10.1705
▁마세요	-10.1705
▁열연	-10.1708
보는게	-10.171
▁역대급	-10.171
빼곤	-10.1712
!!!!!!!!!!!!!!!!	-10.1714
도안	-10.1714
▁뭘까	-10.1715
▁없었던	-10.1717
▁잔인한	-10.1718
▁이보다	-10.1722
▁보았는데	-10.1723
알고	-10.1732
▁막장이	-10.1733
▁짜증나서	-10.1734
▁밀려	-10.1735
점줌	-10.1736
임에도	-10.1738
▁능력	-10.1739
▁재밌지	-10.1743
▁씬	-10.1744
▁a	-10.1746
▁부부	-10.1764
▁없다는	-10.177
▁어색하고	-10.1778
빼	-10.1781
▁치고	-10.1781
▁조화	-10.179
80	-10.1802
▁정의	-10.1808
▁케이블	-10.1811
선생님	-10.1815
▁미안	-10.182
하고싶은	-10.182
▁이때	-10.1821
re	-10.1822
▁한번도	-10.1837
아까워	-10.1838
인물	-10.184
다음	-10.1841
춤	-10.1846
▁연기력도	-10.1854
웨이	-10.1857
▁보여줘	-10.1858
▁잼있다	-10.1858
초반	-10.1862
▁W	-10.1865
▁아줌마	-10.1865
▁보여주고	-10.187
우리	-10.1871
▁아쉬움	-10.1873
▁굴	-10.1876
혼자	-10.1876
▁간다	-10.1876
있으면	-10.1878
▁상대	-10.1879
보네	-10.1888
▁멍청	-10.1891
성과	-10.1895
새끼	-10.19
▁안보고	-10.1909
나가는	-10.1918
▁할까	-10.1919
이랄까	-10.1927
매력	-10.1927
▁엿	-10.1932
▁좀비영화	-10.1932
▁아이가	-10.1941
▁좋겠	-10.1948
▁진리	-10.195
▁찾아볼	-10.1952
▁간지	-10.1961
▁없으면	-10.1968
▁애기	-10.1975
것들	-10.1976
억지	-10.1977
100	-10.1983
헬	-10.1994
▁굿굿	-10.1997
튀	-10.1997
▁즐	-10.1998
빗	-10.2002
ᅡ	-10.2002
닉	-10.2002
델	-10.2002
핀	-10.2002
▁쓰래기	-10.2002
▁유일하게	-10.2002
▁소소한	-10.2002
거같은데	-10.2003
성은	-10.2003
▁잔혹	-10.2004
라이언	-10.2004
▁모르겠지만	-10.2005
▁치밀	-10.2005
▁하는게	-10.2006
▁개그맨	-10.2006
▁식상하	-10.2007
▁상영관	-10.2007
▁좋겠어요	-10.2009
▁거짓말	-10.2011
▁거북	-10.2011
▁달달	-10.2011
▁동양	-10.2015
▁기술	-10.202
▁빼면	-10.2023
▁케이블에서	-10.2025
었네요	-10.2034
▁남기	-10.2037
▁나쁘지	-10.2041
▁아니잖아	-10.2046
놈이	-10.2048
▁공간	-10.2051
▁안습	-10.2051
▁듣	-10.2052
▁빌려	-10.2052
▁안돼	-10.2053
▁살린	-10.2055
년작	-10.2058
▁매일	-10.206
있던	-10.206
이였다	-10.2063
최악의	-10.207
사람들은	-10.2073
▁모르게	-10.2077
▁못하다	-10.2079
▁아기	-10.208
▁보아	-10.2088
▁업	-10.2097
▁끝났	-10.2103
▁헛	-10.2103
▁허무하	-10.2123
▁어렵다	-10.2126
^^*	-10.2128
그래	-10.2141
▁분위기가	-10.2142
▁재미로	-10.2144
▁[	-10.2152
▁신선하	-10.2153
▁자연스럽	-10.2155
▁빌	-10.2162
▁섹시	-10.2172
▁영화자체	-10.2178
▁배우들도	-10.2178
또한	-10.2181
걍	-10.2182
상태	-10.2187
▁노래도	-10.2188
있어요	-10.2194
▁관객들	-10.2199
▁에이	-10.2199
▁생각함	-10.22
봤지	-10.22
장면은	-10.22
상황	-10.2203
영화인데	-10.2204
▁살려	-10.2205
스토리도	-10.2205
▁재미잇	-10.2206
▁ᄏᄏᄏᄏᄏᄏ	-10.2228
▁줄수	-10.2237
아직도	-10.2239
▁웃기지도	-10.2243
편에	-10.2245
▁스타	-10.2247
▁평점보고	-10.2251
▁애정	-10.2252
▁아픔	-10.2258
아깝네	-10.2259
▁맹	-10.2263
▁그건	-10.2266
것같은	-10.2271
보게되	-10.2274
되게	-10.2285
멜	-10.2288
▁죽이고	-10.2298
▁이름을	-10.2298
▁하나로	-10.2298
닐	-10.2307
한건지	-10.2316
이었던	-10.2316
싶어	-10.2317
당시	-10.2319
렵	-10.2319
▁대단하	-10.2321
납	-10.2321
농	-10.2324
묵	-10.2324
윌	-10.2324
켓	-10.2324
▁빨갱이	-10.2324
▁아닙니다	-10.2324
셋	-10.2324
펜	-10.2324
▁베드신	-10.2324
▁빵빵	-10.2324
▁위대한	-10.2324
▁손발이	-10.2325
▁탄생	-10.2325
▁빈약	-10.2327
▁sf	-10.2327
▁부탁	-10.2328
레기	-10.2329
▁결코	-10.233
90	-10.2331
▁어울리는	-10.2334
▁유럽	-10.2334
▁다섯	-10.2335
▁개봉한	-10.2337
▁당연	-10.2338
▁꼬마	-10.2342
▁결정	-10.2344
▁보았습니다	-10.2351
▁끝날	-10.2353
▁있구나	-10.2353
▁기회	-10.2356
아무	-10.2357
▁않았던	-10.2358
보여	-10.2358
▁하길래	-10.236
as	-10.2361
▁소재도	-10.237
▁기준	-10.2372
->	-10.2377
▁삶이	-10.2377
▁사라	-10.2377
▁내용인지	-10.2383
▁명작입니다	-10.2389
▁제로	-10.239
▁지키	-10.2394
▁설정이	-10.2399
▁여행	-10.24
▁반전은	-10.2402
▁일본인	-10.2403
▁점수가	-10.2404
▁있던	-10.2405
하러	-10.241
▁짧은	-10.2414
▁지루했다	-10.2419
!!!!!	-10.2424
▁할수	-10.2428
만듬	-10.2431
▁쿠	-10.2436
▁대화	-10.2438
했지	-10.2442
▁새끼	-10.2442
▁동성애	-10.245
알았	-10.2453
▁답답한	-10.2458
란다	-10.2459
이었습니다	-10.246
보네요	-10.246
▁본영화	-10.246
▁다신	-10.2465
▁해라	-10.2476
나에겐	-10.2477
요소	-10.2478
▁폴	-10.2479
▁시청자	-10.2482
▁현실이	-10.2484
어린	-10.2488
▁액션씬	-10.2491
▁웃기다	-10.2493
▁사진	-10.2495
점대는	-10.2499
▁안본	-10.2501
▁가슴을	-10.2503
치가	-10.251
▁가슴에	-10.2517
똥	-10.2522
붙	-10.2524
검	-10.2524
우리나라	-10.2529
브라	-10.253
몰입	-10.2531
노답	-10.2533
만큼은	-10.2534
감정	-10.2537
답게	-10.2538
▁시시	-10.255
▁관점	-10.2552
▁결말을	-10.2573
▁읽어	-10.2585
▁느낄수	-10.2585
햇다	-10.2588
▁같아서	-10.2592
안됨	-10.2594
▁몇년	-10.2595
oo	-10.2598
배우가	-10.2599
▁있었는데	-10.2606
기전에	-10.2611
살아	-10.2612
▁술	-10.2616
▁뒤에	-10.2622
켜	-10.2622
럼	-10.2628
봤던	-10.2647
낀	-10.2656
엠	-10.2657
뀌	-10.2657
숭	-10.2657
삐	-10.2658
▁깨닫게	-10.2658
▁조니뎁	-10.2658
닷	-10.2658
뜬	-10.2658
▁배트맨	-10.2658
▁즐거운	-10.2658
▁디테일	-10.2658
땀	-10.2658
▁나루토	-10.2658
▁리얼리티	-10.2658
▁영원히	-10.2658
▁걱정	-10.2658
▁심지어	-10.2659
▁상관없	-10.2659
▁케빈	-10.2659
▁말아야	-10.2662
▁등록	-10.2662
▁할아버지	-10.2663
▁그림체	-10.2665
▁적어도	-10.2667
▁담배	-10.2667
▁연극	-10.267
같은영화	-10.2674
▁오랫만에	-10.2677
▁일품	-10.2677
▁재밌을	-10.2677
▁썼	-10.2678
▁본지	-10.2678
▁아까웠다	-10.268
▁스토리전개	-10.2682
보고나면	-10.2685
▁재밌었던	-10.2687
지네	-10.2687
▁높아서	-10.2688
▁변화	-10.2688
▁잡아	-10.2698
▁부실	-10.2699
▁남겨	-10.2699
▁보지마라	-10.2701
▁이어지	-10.2703
▁아름답게	-10.2703
▁생각했는데	-10.2706
▁신파	-10.2707
▁사람들에게	-10.2709
▁듣고	-10.2717
▁찍는	-10.2718
제일	-10.2718
▁싶을	-10.2724
▁ᄃᄃᄃ	-10.2725
▁재미없어요	-10.2728
▁여주인공이	-10.2731
▁잼나게	-10.2731
▁느꼈다	-10.2744
▁하면서	-10.2745
▁휘	-10.2745
▁정말로	-10.2752
▁심하게	-10.2754
재미없어	-10.2759
▁70	-10.276
외에는	-10.2761
기까지	-10.2763
▁맞지	-10.2765
었는지	-10.2775
하나하나가	-10.2777
▁주제를	-10.2779
▁운	-10.2779
와는	-10.2782
▁말도안되는	-10.2786
▁무리	-10.2794
전문	-10.2799
▁괜찮다	-10.2802
▁적당한	-10.2802
▁기가	-10.2804
▁살리	-10.2811
▁응	-10.2811
▁수준의	-10.2812
▁괜찮고	-10.2819
멋있	-10.2833
옴	-10.284
▁떨어지고	-10.2847
▁영혼	-10.285
적이지	-10.2853
▁죽는줄	-10.2855
인건	-10.2859
▁앞으로도	-10.2859
▁헤어	-10.2863
▁국가	-10.2865
몇	-10.2867
뿐만	-10.287
▁가정	-10.2874
팀	-10.2877
아버지	-10.288
▁때려	-10.2881
맥	-10.2883
영화보다	-10.2883
커플	-10.2885
허접	-10.2885
포스터	-10.2888
목소리	-10.2888
▁노래가	-10.2888
▁남자가	-10.289
▁199	-10.2897
▁사상	-10.2906
▁안남	-10.2912
들보다	-10.2914
싶었던	-10.2917
▁꿈을	-10.292
이었는데	-10.2922
동생	-10.2927
장애	-10.2932
▁끝에	-10.2935
▁의문	-10.2943
▁만들면	-10.2945
으로만	-10.2958
끝나고	-10.2966
▁싸우는	-10.2975
▁죽여	-10.2976
지도않	-10.2978
▁애들은	-10.298
▁60	-10.2985
퀴	-10.2991
륜	-10.3
뷰	-10.3001
롯	-10.3002
싹	-10.3002
▁DVD	-10.3002
▁로봇	-10.3002
▁우려먹	-10.3002
▁숨겨진	-10.3002
▁초등학교	-10.3002
깁	-10.3002
렐	-10.3002
혈	-10.3002
▁후속작	-10.3002
▁브루스	-10.3002
▁허술한	-10.3002
▁떠오르	-10.3003
▁역겹	-10.3003
아류작	-10.3004
스러워	-10.3004
▁몇몇	-10.3005
삭제	-10.3005
납니다	-10.3005
▁액션과	-10.3006
▁흉내	-10.3008
ᄏᄏᄏᄏᄏᄏᄏᄏᄏᄏᄏᄏᄏ	-10.3009
▁머리가	-10.3012
▁봤을까	-10.3015
▁만들었는지	-10.3016
▁프리	-10.3016
▁아닐	-10.3016
▁디워	-10.3016
▁속았다	-10.3017
▁보길	-10.3017
▁로코	-10.3018
▁배역	-10.3021
▁손에	-10.3029
▁절정	-10.3033
▁괜찮음	-10.3035
▁실력	-10.3037
▁살아가는	-10.3037
▁기대이하	-10.3038
▁못함	-10.3038
▁생각난다	-10.3039
▁편안	-10.304
▁위트	-10.3043
지말자	-10.3046
였을	-10.3047
▁명화	-10.3051
▁목적	-10.3052
▁재밌던데	-10.3056
▁탑	-10.3059
이브	-10.3059
▁신경	-10.306
▁괜찮은데	-10.3062
했더니	-10.3064
▁생각나서	-10.3066
▁느껴졌다	-10.3067
▁생각하면	-10.3071
▁낚였다	-10.3074
▁꾸	-10.3075
▁F	-10.3076
불쌍한	-10.309
!!!!!!!!!!!	-10.3096
▁갑니다	-10.3099
▁이상해	-10.31
▁최근에	-10.31
▁마리	-10.3102
▁필요한	-10.3102
▁초딩때	-10.3103
▁힘내	-10.3106
▁한다는	-10.3111
▁에로영화	-10.3114
듯이	-10.3114
▁가족영화	-10.3115
▁멋있다	-10.3115
▁않네요	-10.3117
때까지	-10.3119
▁당신은	-10.3124
▁아쉬웠	-10.3128
점이상	-10.313
▁귀여워	-10.3131
재밌게봤	-10.3134
▁진부	-10.314
하는건지	-10.3146
스케	-10.3147
▁역사를	-10.3154
▁돋보	-10.3154
▁만든거	-10.3161
겠는데	-10.3165
▁신기하	-10.3166
▁느끼고	-10.3171
▁쩔	-10.3175
엇다	-10.3184
▁귀엽다	-10.3187
내내	-10.3191
부분에서	-10.3193
▁철학	-10.3198
▁ᄋᄋ	-10.3201
라는걸	-10.3202
▁좋게	-10.3203
▁분들이	-10.3204
▁연인	-10.3207
▁그녀의	-10.3208
자신을	-10.3212
큐	-10.3213
받는	-10.3214
부작	-10.3221
▁거지	-10.3222
▁안본다	-10.3228
▁배우를	-10.3228
▁이만한	-10.323
▁ᄌ	-10.3233
즐	-10.3248
아저씨	-10.3252
평론가	-10.3254
범죄	-10.3257
▁내가본	-10.3264
졸작	-10.3266
겠죠	-10.3267
빠진	-10.327
▁세상을	-10.3273
까봐	-10.3276
극장에서	-10.3287
재미없음	-10.3293
버전	-10.3316
▁끈	-10.3323
▁이래	-10.3329
낫다	-10.3331
th	-10.3334
▁등장인물	-10.334
▁흥	-10.3345
▁야한	-10.3347
겹	-10.335
맡	-10.3354
▁찾는	-10.3358
콤	-10.3359
▁조차	-10.3359
펑	-10.3359
팍	-10.3359
쥬	-10.3359
렁	-10.336
U	-10.336
▁가벼운	-10.336
▁말아먹	-10.336
▁살다살다	-10.336
템	-10.336
▁부끄러	-10.336
▁설득력	-10.336
▁러시아	-10.336
▁임창정	-10.336
대통령	-10.336
▁드디어	-10.336
▁이병헌	-10.336
▁무언가	-10.336
▁탈출	-10.3362
▁1,2	-10.3362
▁감정이입	-10.3362
▁한개도	-10.3362
랄까	-10.3363
▁극장가서	-10.3364
▁아무런	-10.3364
영원한	-10.3364
▁엄청나게	-10.3365
습니까	-10.3367
▁여러번	-10.3368
▁당연히	-10.3368
▁못보	-10.337
▁판단	-10.337
▁변태	-10.337
▁악역	-10.337
▁몰입도가	-10.3371
▁최초	-10.3373
였으면	-10.3375
답니다	-10.3376
▁읽고	-10.3378
▁좋겠네요	-10.3381
▁환상적인	-10.3384
▁생긴	-10.3385
▁부모님	-10.3385
▁것에	-10.3386
놀랐	-10.3387
▁만들다니	-10.3387
든가	-10.3389
▁해석	-10.3389
▁설마	-10.3389
▁수많은	-10.339
▁울면서	-10.3394
▁봅니다	-10.3395
▁내용과	-10.34
▁괜찮네요	-10.3403
▁정체	-10.3405
셔서	-10.3406
▁본건데	-10.341
든지	-10.3411
▁감정이	-10.3412
▁한심한	-10.3415
▁따뜻해	-10.3415
▁작가님	-10.3419
▁최고였다	-10.3432
▁재밌어서	-10.3432
▁아니지	-10.3436
▁엄마가	-10.3437
▁두고	-10.3438
▁나은	-10.3444
좋아하는데	-10.3454
▁했으면	-10.3462
▁잔잔하게	-10.3465
▁열받	-10.3469
al	-10.347
쁘	-10.3472
▁수입	-10.3472
차원	-10.3472
▁단편	-10.3477
▁탄탄	-10.3486
해진다	-10.3486
것처럼	-10.3489
▁이상의	-10.3491
▁쌍	-10.3496
▁쪽	-10.3497
▁맛이	-10.3509
▁제작비가	-10.3511
▁내게	-10.3519
▁하지마	-10.3519
었을까	-10.3527
▁마니	-10.3528
▁맞추	-10.3535
OOO	-10.3535
않음	-10.3542
▁소설을	-10.3544
▁별로임	-10.3544
▁출연한	-10.3553
감동적이	-10.3554
낫	-10.3556
▁강렬	-10.3562
▁아래	-10.3569
못한	-10.3569
재미와	-10.3584
▁T	-10.3587
▁봤네	-10.3591
▁명작을	-10.3593
▁부분도	-10.3593
▁인생에	-10.3594
▁시나리오가	-10.3602
▁H	-10.3605
▁매니아	-10.3605
▁힘을	-10.3622
▁가면	-10.3629
▁지겹	-10.3631
▁좋지	-10.3632
휘	-10.3633
읽	-10.3635
하고싶다	-10.3636
느껴	-10.3639
채널	-10.364
솔직히	-10.364
관객	-10.3641
▁스트레스	-10.3641
공포영화	-10.3641
▁알수있	-10.3641
▁주연배우	-10.3641
갑니다	-10.3643
▁같고	-10.3646
같네	-10.3648
올리	-10.3652
▁전체	-10.3655
▁최고임	-10.3658
뻐	-10.3666
▁니들	-10.3667
보인다	-10.368
선생	-10.3683
▁낚였	-10.3684
늙	-10.3684
어이없	-10.3688
▁지루하기	-10.369
려다가	-10.369
▁유치해	-10.3691
▁여러분	-10.3691
▁바라보	-10.3694
▁놀라	-10.3695
▁분들은	-10.3696
▁기대한	-10.3706
폼	-10.3708
▁영환	-10.3709
es	-10.371
11	-10.3718
▁관객을	-10.3718
섭	-10.3719
보시길	-10.372
콘	-10.3721
부끄럽	-10.3727
깔끔	-10.3727
코드	-10.3728
▁슈퍼	-10.373
뭉	-10.373
랫	-10.373
벼	-10.373
Y	-10.373
▁네티즌	-10.373
▁컴퓨터	-10.373
▁혐오	-10.373
깃	-10.373
땡	-10.373
및	-10.373
캠	-10.373
둡	-10.373
▁스크린	-10.373
본방사수	-10.373
▁장국영	-10.373
▁짜집기	-10.373
▁끔찍	-10.373
▁착각	-10.373
▁그립다	-10.373
▁넘게	-10.3731
양아치	-10.3731
▁스포츠	-10.3731
▁꿈꾸	-10.3732
▁감흥	-10.3733
▁남은	-10.3733
▁배경음악	-10.3733
▁즐길	-10.3734
▁고뇌	-10.3735
▁돈아까워	-10.3735
▁과학	-10.3737
▁만약	-10.3737
▁억지스러운	-10.3738
▁극복	-10.3738
줘야	-10.374
▁어느정도	-10.3742
▁거짓	-10.3743
▁서울	-10.3743
▁대표	-10.3747
▁빵점	-10.3748
▁봐도봐도	-10.375
▁무료	-10.375
▁들고	-10.375
▁제외	-10.3751
▁대결	-10.3752
▁중독	-10.3755
▁여태	-10.3756
▁웃고	-10.3756
받아서	-10.3761
아빠	-10.3761
▁말하고자	-10.3764
▁조절	-10.3765
▁다시보기	-10.3768
표정	-10.3769
▁안볼	-10.3769
▁말투	-10.3772
▁싶어요	-10.3773
점정도	-10.3777
▁잼있음	-10.3777
▁싸우	-10.3788
▁특별한	-10.3791
상영	-10.3793
▁멋있는	-10.3795
▁생각으로	-10.3801
▁삼류영화	-10.3803
▁반전에	-10.3805
▁싶은데	-10.3806
스토리가	-10.3806
▁딱히	-10.3815
▁드라마중	-10.3815
▁재미없어서	-10.3816
▁떨어	-10.3816
아이들	-10.3819
던데요	-10.382
▁살리지	-10.382
여운을	-10.3821
▁세월이	-10.3827
안되고	-10.3828
▁예쁘다	-10.3833
▁전쟁의	-10.384
▁구리	-10.3847
▁아우	-10.3849
▁어디로	-10.3853
달라	-10.3853
▁뜬금없는	-10.3857
▁자랑	-10.3861
▁가득한	-10.3865
▁팀	-10.3866
▁비디오로	-10.3868
더러	-10.3869
냈다	-10.3874
▁보기에는	-10.388
▁역사적	-10.3886
▁도전	-10.3897
봤네요	-10.3902
일듯	-10.3902
ne	-10.391
▁반대	-10.3914
지않다	-10.393
스키	-10.3932
▁이상하고	-10.3934
▁불편한	-10.3941
▁교훈을	-10.3943
▁쩔어	-10.3943
레스	-10.3955
▁몰랐다	-10.3957
▁잘한다	-10.3959
▁뭐라고	-10.3966
▁웃을	-10.3979
▁개봉했	-10.3982
▁단어	-10.4
▁맞아	-10.4003
▁재미없을	-10.4009
▁영환데	-10.4015
F	-10.4032
푸	-10.4034
쩝	-10.4034
흠	-10.4037
몸	-10.4038
캐스팅	-10.4039
▁애니는	-10.4044
순위	-10.4047
웃김	-10.4047
대체	-10.405
▁주제가	-10.4051
했을때	-10.4057
▁멋진영화	-10.4057
▁다르다	-10.4065
줘서	-10.4075
씀	-10.4083
▁평론가들	-10.4083
씨는	-10.4085
회사	-10.4086
였네	-10.4088
▁감동은	-10.4093
못보겠	-10.4103
립니다	-10.4104
▁깜짝	-10.4109
▁주기도	-10.411
젊	-10.4112
액	-10.4113
앨	-10.4114
▁뱀파이어	-10.4115
▁스필버그	-10.4115
▁어정쩡	-10.4115
곧	-10.4115
▁둘째치고	-10.4115
▁짜임새	-10.4115
▁훌륭했	-10.4115
곰	-10.4115
▁몽환적	-10.4115
▁흘렀	-10.4115
▁적절한	-10.4115
▁스타뎀	-10.4115
▁제임스	-10.4115
▁사운드	-10.4115
▁제이슨	-10.4115
▁진지하게	-10.4115
▁유일한	-10.4115
ver	-10.4116
▁낚시	-10.4116
▁진지한	-10.4117
▁낭만	-10.4117
▁흘러가는	-10.4119
▁되네요	-10.4121
▁일반	-10.4123
▁개콘	-10.4124
▁내생에	-10.4125
▁만들었을까	-10.4125
▁데리고	-10.4126
▁결국은	-10.4127
▁사랑해	-10.4129
▁이런영화는	-10.4131
▁잼있어요	-10.4134
▁짜증남	-10.4137
▁재미없었다	-10.4137
▁어거지	-10.4141
▁만남	-10.4143
▁하품	-10.4143
▁재미있습니다	-10.4143
할수있는	-10.415
▁유쾌하고	-10.4155
▁산만하고	-10.4156
▁몰입해서	-10.4158
▁조카	-10.4161
▁우연	-10.4164
▁죽인	-10.417
치곤	-10.417
▁싶었	-10.4171
▁진부하고	-10.4172
▁벗어나	-10.4173
에대해	-10.4174
▁난잡	-10.4175
▁시작해서	-10.4176
▁봤을	-10.4176
▁빠르	-10.4178
▁궁금하	-10.4182
!!!!!!	-10.4183
▁좋아하지만	-10.4186
좋앗	-10.4189
▁슈	-10.4191
▁잼있는	-10.4195
개그	-10.4196
▁훈훈한	-10.4203
▁알겠다	-10.4207
▁사실을	-10.4208
▁방해	-10.4208
▁대사들	-10.4212
▁감동입니다	-10.4221
▁마음으로	-10.4221
짱짱	-10.4223
▁발상	-10.4223
갈수록	-10.4224
어색	-10.4225
▁가고	-10.4231
▁냉	-10.4236
▁보이지	-10.4239
일어나	-10.424
보고있어요	-10.4247
▁짜리	-10.4249
돌려	-10.425
▁명장면	-10.4252
▁ᄍᄍᄍ	-10.4257
▁와우	-10.4258
해준다	-10.4261
▁황당한	-10.4265
▁처음에는	-10.4271
영화였다	-10.4278
었네	-10.4289
▁길게	-10.4296
▁이드라마	-10.4305
▁코드	-10.4311
▁추억이	-10.4321
▁아파	-10.4322
▁힘이	-10.4324
위에	-10.4325
▁만들어라	-10.4333
법한	-10.434
로서는	-10.4342
▁얼굴이	-10.4347
장르	-10.4349
▁한장면	-10.4352
▁ᄏᄏᄏᄏᄏᄏᄏ	-10.436
▁절대로	-10.4377
▁쫌	-10.438
▁정말이지	-10.4389
▁오락	-10.4395
▁쓰는	-10.4396
뿌	-10.4396
▁김치	-10.44
해줄	-10.4403
ᄋᄋ	-10.4405
▁느껴지	-10.4408
▁어색하	-10.4422
▁무섭지	-10.4428
▁모자	-10.4431
꽃	-10.4448
탑	-10.4449
헐	-10.4455
럴	-10.4455
로맨스	-10.4456
애니메이션	-10.4456
오랜만에	-10.4456
뭘	-10.4456
코믹	-10.4457
엄청	-10.4459
그럼	-10.446
예술	-10.4467
류영화	-10.4471
▁현실감	-10.4472
쓰고	-10.4472
출연	-10.4474
▁보는것	-10.4482
▁될수	-10.4484
▁아내	-10.4488
줬으면	-10.4493
멜로	-10.45
▁참신한	-10.45
▁털	-10.45
왔어요	-10.4506
쩜	-10.451
첩	-10.4512
갱	-10.4514
▁권상우	-10.4514
▁4.44	-10.4515
▁블록버스터	-10.4515
▁인상깊었	-10.4515
혔	-10.4515
▁웰메이드	-10.4515
▁유덕화	-10.4515
▁소름끼치	-10.4515
▁비호감	-10.4515
▁교과서	-10.4515
▁잘만들었다	-10.4515
▁목숨	-10.4516
▁후에	-10.4517
▁평범하	-10.4517
ing	-10.4518
▁영화였음	-10.4518
▁기획	-10.4518
▁공룡	-10.452
▁강아지	-10.4521
▁빛나는	-10.4521
▁서양	-10.4522
▁중학교	-10.4523
▁이도저도	-10.4524
▁축구	-10.4527
▁여자주인공	-10.4528
▁한시간	-10.4531
▁나름대로	-10.4533
▁슬픈영화	-10.4534
▁최소한	-10.4544
▁동심	-10.4552
입니까	-10.4552
▁인형	-10.4553
효과	-10.4554
있지만	-10.4555
잖아요	-10.4556
▁장면만	-10.4558
▁겪	-10.4566
여행	-10.4566
▁준비	-10.4566
▁충격적인	-10.4568
▁어쩔수	-10.4568
▁사랑합니다	-10.457
버릴	-10.4571
학년	-10.4573
▁뿐이다	-10.4575
▁꽃	-10.4581
▁사랑해요	-10.4582
▁자극적	-10.4587
▁남긴	-10.4588
▁어색함	-10.4589
▁배신	-10.459
▁책임	-10.4599
▁생명	-10.46
▁모든것이	-10.4603
떨어진	-10.4604
것인가	-10.4606
▁터미네이터	-10.4606
▁집어	-10.4608
~~~~~~	-10.4611
▁밤에	-10.4615
이딴	-10.4631
▁있다니	-10.4637
▁절로	-10.4641
보셈	-10.4646
치면	-10.4647
▁2014	-10.4647
치고는	-10.4655
▁범죄자	-10.4656
▁배경이	-10.4657
▁인생은	-10.4664
편까지	-10.4665
▁비중	-10.4665
▁그당시	-10.4666
▁이소룡	-10.4667
▁찾기	-10.4674
요소가	-10.4674
하지말고	-10.4676
키우	-10.4677
▁답답함	-10.4682
광구	-10.4684
▁쓰고	-10.4687
하진	-10.471
▁결론	-10.4715
▁지나도	-10.4718
▁공감할	-10.4729
찾아	-10.4732
▁액션신	-10.4738
▁실수	-10.4739
지않아	-10.4755
여주	-10.4756
역할	-10.4761
마저도	-10.4763
싶으면	-10.4771
▁한국영화의	-10.4786
▁오글거리는	-10.4801
▁몰아	-10.481
▁광기	-10.4811
▁인상적	-10.4826
않아요	-10.4828
▁샘	-10.4833
▁재밋어요	-10.4841
▁형편없	-10.4845
▁제목만	-10.4849
▁아진짜	-10.4851
▁무게	-10.486
같은거	-10.4862
▁기다려	-10.4863
옆	-10.4873
▁자본	-10.4887
꿈	-10.489
시나리오	-10.4891
▁무대	-10.4894
잖	-10.4908
한마디로	-10.4908
즘	-10.4911
▁제목은	-10.4914
나쁜	-10.492
▁돌리	-10.4921
지루함	-10.4922
흉	-10.4925
멸	-10.4926
잘생겼	-10.4927
▁다운받아	-10.4928
▁킬링	-10.493
싼	-10.4931
깜	-10.4931
J	-10.4931
씁	-10.4931
팝	-10.4931
쿵	-10.4931
▁즐거움	-10.4931
▁해리포터	-10.4931
▁데이빗	-10.4931
▁레전드	-10.4931
▁탁월	-10.4931
▁일부러	-10.4931
▁무거운	-10.4931
▁소중한	-10.4932
▁언론	-10.4932
▁쏘우	-10.4932
말이필요없	-10.4932
아쉬워	-10.4934
▁괴롭	-10.4934
▁새삼	-10.4936
▁놀라운	-10.4936
조금	-10.4937
소녀	-10.4938
▁묘한	-10.4938
▁모른다	-10.4939
전혀	-10.4941
▁재미있었습니다	-10.4941
▁갖다	-10.4943
▁꼭보세요	-10.4946
질질끌	-10.4949
▁태어나서	-10.4949
▁모욕	-10.495
그러나	-10.4951
▁해결	-10.4951
▁단순히	-10.4953
▁기존	-10.4953
▁강력	-10.4955
▁등장인물들	-10.4955
잼씀	-10.4957
▁반담	-10.4959
▁불쌍하	-10.4959
▁이딴걸	-10.4962
▁재미있었	-10.4962
▁무술	-10.4964
느냐	-10.4966
▁궁금해서	-10.4972
▁아쉽지만	-10.4974
▁만났	-10.4978
▁아깝네요	-10.498
▁꽉	-10.4984
▁욕심	-10.4985
▁엉성하고	-10.4988
없나	-10.5002
못하고	-10.5006
♥♥♥	-10.5009
▁시간아깝다	-10.5011
성우	-10.5014
▁다르게	-10.5015
▁보게된	-10.5019
▁자극	-10.502
▁잠시	-10.5021
웃으면서	-10.5023
▁삶과	-10.5026
셔야	-10.503
▁선물	-10.503
▁싫어하는	-10.5034
했었는데	-10.5036
긴했지만	-10.5041
기도하고	-10.5045
중간	-10.5053
▁16	-10.5053
▁무섭게	-10.5055
▁거기다	-10.5058
99	-10.5061
▁죽이는	-10.5062
▁부정	-10.5066
▁주원	-10.5069
좋은데	-10.5071
▁떨어짐	-10.5072
▁정도면	-10.5074
▁끌고	-10.5084
시키고	-10.5088
▁정부	-10.5088
▁미소가	-10.5089
팬이	-10.5089
▁그만큼	-10.5095
▁만들수	-10.5098
것만으로도	-10.5101
▁아쉬움이	-10.5106
▁순수함	-10.511
도좋고	-10.5114
국민	-10.5116
▁능력이	-10.5119
막히	-10.512
▁아깝고	-10.5121
하지마	-10.5124
▁만점에	-10.5126
▁봤다면	-10.5126
해져	-10.5129
▁날아	-10.5135
남주	-10.5138
▁쩌는	-10.5139
▁위로	-10.5142
▁으리	-10.5145
▁나오는데	-10.5147
▁먼가	-10.5147
▁감동적이다	-10.5151
▁최고의영화	-10.5156
▁찍고	-10.5158
▁그럴듯	-10.5161
▁범인이	-10.5163
▁단점	-10.5178
때매	-10.5201
▁마지막장면	-10.5203
▁사라지	-10.5207
▁고어	-10.5233
번은	-10.5233
▁알리	-10.5243
▁낮다	-10.5244
영상과	-10.5255
만드냐	-10.5258
▁없게	-10.5265
느낌이	-10.5266
▁잠들	-10.5267
라구	-10.5268
▁중국영화	-10.5286
▁당신이	-10.5289
▁이런류	-10.5294
굳	-10.53
할것	-10.5304
겠어	-10.5306
▁액션만	-10.5309
란걸	-10.5316
▁피해	-10.5318
▁짜증이	-10.5336
썼	-10.5339
멀	-10.5341
주연	-10.5345
픔	-10.5348
충격	-10.5352
▁사람과	-10.5352
낭	-10.5356
▁굉장	-10.5358
▁예술영화	-10.5362
앉	-10.5365
뚱	-10.5366
▁뛰어넘	-10.5366
▁왤케	-10.5366
▁임팩트	-10.5366
딧	-10.5366
읍	-10.5366
퀄	-10.5366
▁귀여움	-10.5366
▁심형래	-10.5366
▁엉망진창	-10.5366
줫	-10.5366
ᄐ	-10.5366
▁로버트	-10.5366
▁다이하드	-10.5366
눌	-10.5366
。	-10.5366
▁누군지	-10.5366
▁불가능	-10.5366
줄알았는데	-10.5366
▁도무지	-10.5366
▁갠적으로	-10.5367
▁헛웃음	-10.5367
▁전성기	-10.5367
▁평균	-10.537
▁명대사	-10.5372
▁못보겠다	-10.5373
▁로빈	-10.5373
▁뭐랄까	-10.5374
▁말씀	-10.5375
▁나와야	-10.5376
캐릭	-10.5376
▁부럽	-10.5376
▁반개	-10.5376
▁절반	-10.5377
▁절망	-10.5377
▁음향	-10.5377
굳굳	-10.5378
▁흘리	-10.5379
▁근래	-10.5379
것같은데	-10.5381
▁한심하다	-10.5382
▁증거	-10.5383
굿굿굿	-10.5384
▁거기서	-10.5385
▁듣는	-10.5388
▁재미있었음	-10.5389
▁고문	-10.5389
▁다행이다	-10.5393
편에서	-10.5394
▁볼만했다	-10.5397
▁아까운영화	-10.5397
▁띄	-10.54
▁첨부터	-10.54
분동안	-10.5401
▁안나온다	-10.5407
▁도망	-10.541
레이드	-10.541
▁애국	-10.5414
그렇게	-10.5425
▁못했	-10.5427
▁지극	-10.5428
▁한번더	-10.5432
▁강간	-10.5438
▁사람에게	-10.5446
연습	-10.5447
▁낮네요	-10.5447
▁영화라니	-10.5451
▁거기에	-10.546
▁달려	-10.5464
▁그동안	-10.5465
▁안간다	-10.5466
▁짜증나게	-10.547
▁음식	-10.5486
▁재미있는데	-10.5487
▁재난영화	-10.549
▁싶다면	-10.5496
▁대부	-10.5496
▁잃은	-10.5501
▁본격	-10.5504
▁스릴감	-10.5505
▁멋있고	-10.5507
있지	-10.5511
▁궁금하다	-10.5512
거같음	-10.5512
▁바다	-10.5513
▁진수	-10.5516
있네요	-10.5519
재미있게	-10.5522
▁실망이다	-10.5524
▁많은데	-10.5534
드문	-10.5536
주려고	-10.5544
▁짜증나고	-10.5547
▁알수	-10.5551
였지	-10.5555
▁도시	-10.5557
▁소재와	-10.5565
▁낮지	-10.5569
웨	-10.5572
▁전설의	-10.5572
▁초반부	-10.5575
봐야겠다	-10.5578
▁잔인함	-10.5579
뻔했다	-10.5589
ou	-10.5592
보임	-10.5603
▁대학	-10.5609
▁안보는	-10.5612
▁재방	-10.5614
▁처음이네	-10.5614
▁아니야	-10.5625
▁고인	-10.5633
하더니	-10.5642
거에요	-10.5648
▁뭐니	-10.5651
돌리	-10.5651
덕에	-10.5655
에다가	-10.5669
줘야지	-10.5681
▁다시보니	-10.5689
▁멋있어	-10.5689
거죠	-10.573
▁미쳤	-10.573
▁관련	-10.5734
▁안좋은	-10.5736
쁜	-10.5737
▁우리나라에서	-10.574
▁취향이	-10.5756
점부터	-10.5758
할정도로	-10.5765
▁생기	-10.577
▁요리	-10.5779
좋은영화	-10.5784
▁있기	-10.5793
▁장점	-10.5803
안나오	-10.5809
▁러브	-10.5812
▁어째	-10.5812
넌	-10.5816
벗	-10.5817
옷	-10.5817
ᄎ	-10.582
‘	-10.582
▁스티븐	-10.582
곽	-10.582
렛	-10.582
엣	-10.582
핫	-10.582
▁dvd	-10.5821
▁나레이션	-10.5821
▁놀랍다	-10.5821
▁먹먹하	-10.5821
▁뭥미	-10.5821
뚫	-10.5821
렴	-10.5821
시종일관	-10.5821
왈	-10.5821
쩍	-10.5821
컴	-10.5821
푼	-10.5821
▁역겨운	-10.5821
릅	-10.5821
▁2015	-10.5821
▁말그대로	-10.5821
▁이토록	-10.5821
▁인내심	-10.5821
▁평점조절	-10.5821
▁플롯	-10.5821
▁사투리	-10.5821
바탕으로	-10.5821
판타지	-10.5821
▁이런식으로	-10.5821
▁향연	-10.5822
▁민폐	-10.5823
▁뭐하자는	-10.5823
TV	-10.5823
▁작위적	-10.5823
▁허술하	-10.5824
▁맞춰	-10.5824
라이즈	-10.5824
간만에	-10.5824
▁돌아보게	-10.5825
▁만화책	-10.5825
▁파괴	-10.583
경찰	-10.583
▁감각	-10.5832
▁향수	-10.5833
▁억지감동	-10.5835
▁흔들	-10.5837
▁차별	-10.5837
▁멋져요	-10.5838
시켰	-10.5838
아프고	-10.584
ut	-10.5843
▁강추합니다	-10.5844
웃겨	-10.5844
▁담긴	-10.5845
셨으면	-10.5845
오늘	-10.5845
재미있어요	-10.5848
▁탄탄하고	-10.5848
▁싶습니다	-10.5849
▁치유	-10.5849
하니까	-10.585
▁기억나는	-10.585
▁지옥	-10.5851
▁남기는	-10.5851
▁감명	-10.5851
▁부담	-10.5852
~~^^	-10.5854
▁인생영화	-10.5855
아무리	-10.5856
▁집중해서	-10.5856
▁현실적으로	-10.5856
▁순수하고	-10.5859
햇는데	-10.5865
▁인류	-10.587
▁일반인	-10.5872
▁어쩌면	-10.5874
▁없었음	-10.5876
▁실망스럽다	-10.5877
▁왜곡	-10.5877
ᄏᄏᄏᄏᄏᄏᄏ	-10.5877
ᅮᅮᅮ	-10.5884
갈수	-10.5887
▁경우	-10.5888
하는것도	-10.5888
▁행복하게	-10.589
▁무엇인가	-10.5891
▁배려	-10.5892
지루해	-10.5892
영화관에서	-10.5893
공부	-10.5895
▁to	-10.59
▁별하나	-10.5905
바보	-10.5909
것들이	-10.5911
사극	-10.5912
▁괜찮아	-10.5913
▁선정	-10.5914
▁형편없는	-10.5917
▁자극적인	-10.5925
▁않은데	-10.5932
▁이것보다	-10.5939
▁삶에	-10.5942
▁묻어	-10.5944
▁괜찮게	-10.5946
잘못	-10.5951
더군	-10.596
났는데	-10.5961
어버린	-10.5961
▁관심이	-10.5966
▁정점	-10.5969
▁멋졌	-10.5974
▁거장	-10.5976
였다면	-10.5977
▁안나오는	-10.5984
▁가식	-10.599
▁어린애	-10.5993
▁박수	-10.5997
▁아이들과	-10.5999
▁동네	-10.6009
▁어디가	-10.6012
▁보는거	-10.6014
셨어요	-10.6026
▁나무	-10.6026
존나	-10.6028
▁웃어	-10.6039
▁연출력이	-10.6042
하시길	-10.6042
애들은	-10.6045
▁인생에서	-10.6048
▁봐야하는	-10.6053
▁인상적인	-10.6057
외엔	-10.6063
스카	-10.6069
언제	-10.6096
▁담은	-10.6101
▁아동	-10.6104
쓰레기영화	-10.6111
선생님이	-10.6119
해지고	-10.6123
▁넘어가	-10.6127
줄알았다	-10.6132
▁담고	-10.6135
하거나	-10.6152
않는다	-10.6154
▁낚이지	-10.6155
▁프랑스영화	-10.6163
통쾌	-10.6171
것보다	-10.6172
am	-10.6193
▁못해서	-10.6195
져요	-10.6211
▁와닿는	-10.6212
▁충격적이	-10.6212
생에	-10.6215
▁특별	-10.6224
갈때	-10.6234
▁본질	-10.6234
▁남아있	-10.6239
▁내돈	-10.6256
시작부터	-10.6264
글자	-10.6277
▁따지	-10.6279
녕	-10.6281
40	-10.6284
▁혹시	-10.6292
객	-10.6292
▁2000	-10.6293
ᅩ	-10.6296
곱	-10.6297
밴	-10.6297
븐	-10.6297
툭	-10.6297
▁감명깊게	-10.6297
▁오글거려	-10.6297
▁잊을수	-10.6297
▁짐캐리	-10.6297
▁클리셰	-10.6297
▁흡입력	-10.6297
껀	-10.6297
꾹	-10.6297
됫	-10.6297
삽	-10.6297
▁주윤발	-10.6297
튜	-10.6297
▁쓸데없는	-10.6297
▁아마추어	-10.6297
▁제니퍼	-10.6297
▁박평식	-10.6297
▁깜놀	-10.6297
▁피아노	-10.6297
쯧쯧	-10.6297
▁복잡한	-10.6297
▁박진감	-10.6297
▁하정우	-10.6297
사무라이	-10.6297
▁오그라드는	-10.6297
▁정우성	-10.6297
옵니다	-10.6297
▁비행기	-10.6298
▁격투	-10.6298
▁찬사를	-10.6298
▁증명	-10.6298
▁슈퍼맨	-10.6299
▁풀어낸	-10.63
ᄀᄀ	-10.63
▁예측	-10.63
▁생겼	-10.6301
▁동영상	-10.6302
될듯	-10.6303
마인드	-10.6303
▁튀어	-10.6303
ᅮᅲ	-10.6304
▁전반적으로	-10.6305
est	-10.6305
▁각색	-10.6306
▁커버	-10.6306
▁폐지	-10.6307
▁러브스토리	-10.6307
▁믿고보는	-10.6308
▁요새	-10.6308
털	-10.6314
▁승리	-10.6315
왠	-10.6316
▁이뻐서	-10.6316
▁더욱더	-10.6317
분위기	-10.6318
▁드림	-10.6319
칼	-10.6319
비디오	-10.6321
취향	-10.6322
▁다운받아서	-10.6323
▁감동도없고	-10.6323
여운이	-10.6324
▁괜찮았는데	-10.6325
▁못하네	-10.6327
나왔으면	-10.633
▁마블	-10.6332
▁생각해보게	-10.6335
▁소통	-10.6336
▁따분	-10.6336
지않나	-10.634
엇는데	-10.634
▁답답하다	-10.6341
▁오직	-10.6344
▁무리수	-10.6344
▁공연	-10.6349
▁오글거리고	-10.6351
▁유치해서	-10.6357
▁나왔음	-10.6358
여주인공	-10.6362
▁없나요	-10.6363
▁옆에	-10.6364
▁외국인	-10.6369
중간에	-10.6369
▁이거보단	-10.6373
▁싶어서	-10.6374
▁그저그런	-10.6375
▁최고최고	-10.6378
▁캐리	-10.6379
보는중	-10.6381
안돼	-10.6387
▁장소	-10.6391
▁벗어	-10.6396
▁멋지고	-10.6406
▁미녀	-10.6419
운동	-10.6424
▁작품입니다	-10.6441
▁않으면	-10.6445
나오면	-10.6446
▁책으로	-10.6464
스릴	-10.6464
▁보기싫	-10.6465
▁세번	-10.6465
▁여인	-10.6466
▁싶었다	-10.6468
그야말로	-10.6482
▁부분은	-10.6507
▁비교하면	-10.6508
최고의영화	-10.6525
울리는	-10.654
지않을	-10.6544
싶어요	-10.6551
였나	-10.6552
▁포스터만	-10.6561
▁다루	-10.6565
▁망했	-10.6576
처리	-10.6579
보니깐	-10.6595
▁착하	-10.6616
ch	-10.6617
▁기대하지	-10.6618
ᄏᄏᄏᄏᄏᄏ	-10.6622
▁높은지	-10.6622
▁써야	-10.6624
재밋다	-10.6655
na	-10.6672
밖	-10.6673
▁없던	-10.6676
od	-10.6684
▁지루하지않	-10.6697
있으니	-10.6703
▁재난	-10.6706
▁맞나	-10.6716
▁거기	-10.6717
할뿐	-10.6741
▁이거보다	-10.6752
나올때	-10.6752
번을	-10.6753
당시엔	-10.6754
▁가족애	-10.6762
▁남성	-10.6776
▁태어나	-10.6776
▁안좋아	-10.6787
닿	-10.6792
▁재밋엇	-10.6795
깎	-10.6796
뻑	-10.6796
닭	-10.6796
^-^	-10.6797
’	-10.6797
▁뚝뚝	-10.6797
닦	-10.6797
맺	-10.6797
뺏	-10.6797
숲	-10.6797
▁재발견	-10.6797
▁팍팍	-10.6797
헉	-10.6797
▁가슴아픈	-10.6797
런닝맨	-10.6797
▁화장실	-10.6797
▁도데체	-10.6797
▁레이첼	-10.6797
▁제시카	-10.6797
▁공짜로	-10.6797
▁솔직하	-10.6797
▁읽는	-10.6797
쭈	-10.6797
▁아놀드	-10.6797
▁무서움	-10.6797
▁아바타	-10.6797
장근석	-10.6797
▁농담	-10.6797
▁반드시	-10.6797
▁닥치고	-10.6797
▁이해불가	-10.6797
▁기발한	-10.6797
▁록키	-10.6797
▁환경	-10.6798
▁끼워	-10.6798
디자인	-10.6799
▁나타나	-10.6799
▁왠만한	-10.68
밖엔	-10.68
▁맡은	-10.68
▁흐르는	-10.6801
▁놀랐다	-10.6801
▁빠른	-10.6801
▁섬세하	-10.6802
▁문득	-10.6802
▁놀라울	-10.6803
▁은근히	-10.6804
▁거듭	-10.6804
▁쉬운	-10.6805
학년때	-10.6806
▁황금	-10.6807
▁좋겠습니다	-10.6809
▁중학생	-10.6811
▁저평가	-10.6811
▁따름	-10.6812
▁아무튼	-10.6813
▁모르겠네요	-10.6815
▁로망	-10.6817
tt	-10.6818
▁권력	-10.682
▁첨엔	-10.6821
▁존경	-10.6821
▁마지막엔	-10.6822
앞에서	-10.6823
▁암울	-10.6823
▁지나친	-10.6823
▁대놓고	-10.6825
▁냉정	-10.6829
▁혹시나	-10.6832
한편의	-10.6832
멋잇	-10.6835
▁주온	-10.684
▁시체	-10.6843
시청률	-10.6846
▁진부함	-10.6851
▁보았던	-10.6853
▁않습니다	-10.6853
▁친구랑	-10.6854
▁찍으	-10.6855
▁잘만들어	-10.6856
▁공유	-10.6858
▁놀란	-10.6859
모르고	-10.6859
▁평화	-10.686
▁별로였다	-10.686
▁얻어	-10.6862
▁감동적이네요	-10.6863
좋았다	-10.6865
행복	-10.6866
▁천사	-10.6867
앞으로	-10.6867
특집	-10.6868
▁볼만한데	-10.6877
▁기대없이	-10.688
▁매미	-10.6882
▁거지같은	-10.6882
▁아까워서	-10.6883
▁기대이상	-10.6888
▁우선	-10.6889
는뎅	-10.689
났음	-10.6891
제대로	-10.6892
갔으면	-10.6893
▁못만들	-10.6894
▁토니	-10.6897
▁수작이다	-10.69
▁망쳐	-10.6911
▁중심	-10.6917
아직	-10.6917
함께	-10.6918
이해가안	-10.6919
▁영구	-10.6922
화이팅	-10.6925
▁진부하다	-10.6925
▁두개	-10.6927
▁느껴졌	-10.693
▁발음	-10.6932
등장	-10.6934
▁필요한가	-10.6939
▁지겹다	-10.6945
▁놓은	-10.6957
▁아무나	-10.6957
그저	-10.6961
도대체	-10.6969
▁동감	-10.6971
▁기분좋은	-10.6978
▁기대되	-10.6985
ra	-10.6994
취급	-10.6998
길을	-10.7
▁대신	-10.7001
▁말인가	-10.7007
▁낮네	-10.7016
▁미니	-10.7016
▁망할	-10.7019
▁포스	-10.7042
▁뻔하다	-10.7047
▁조연들	-10.7065
엇음	-10.7076
▁아이디어	-10.7078
▁잘하시	-10.7081
▁짝이없	-10.709
앞	-10.7091
몰라	-10.7098
▁끌려	-10.7108
▁독특	-10.7112
▁안맞는	-10.7131
▁무시하	-10.7137
▁다운받	-10.714
없었다	-10.7145
▁복잡하	-10.715
▁하셨	-10.7169
또다른	-10.7178
▁잼있었	-10.718
달라고	-10.7223
▁알겠	-10.7229
여배우	-10.7231
받아야	-10.7238
▁정신병	-10.7251
▁짜증났	-10.7263
▁ᄏᄏᄏᄏᄏᄏᄏᄏᄏᄏ	-10.7268
므	-10.7287
똑	-10.7311
떤	-10.7318
쿡	-10.7323
멈	-10.7323
퉤	-10.7323
랩	-10.7323
▁니콜라스	-10.7323
▁됩니다	-10.7323
▁마찬가지	-10.7323
▁스타워즈	-10.7323
▁할리우드	-10.7323
넬	-10.7323
덮	-10.7323
랏	-10.7323
뿜	-10.7323
쏙	-10.7323
즉	-10.7323
턱	-10.7323
트랜스포머	-10.7323
홈	-10.7323
▁말았어야	-10.7323
▁차태현	-10.7323
▁홧팅	-10.7323
꼼	-10.7323
▁오프닝	-10.7323
▁강동원	-10.7323
▁어두운	-10.7323
▁홍상수	-10.7323
▁2012	-10.7323
킴	-10.7323
▁you	-10.7323
▁잘생긴	-10.7323
▁흑백	-10.7323
▁지브리	-10.7323
▁후속편	-10.7323
▁도움이	-10.7323
빠져	-10.7324
▁슈렉	-10.7324
▁심오한	-10.7324
▁ᄌᄂ	-10.7325
▁스파이	-10.7325
▁뉴스	-10.7326
▁엽기	-10.7326
▁말이필요없다	-10.7326
▁확실하	-10.7327
▁상당한	-10.7328
▁100%	-10.7329
▁깨알	-10.733
▁분량	-10.733
▁궁금해	-10.7331
▁잤다	-10.7331
▁허무한	-10.7331
▁교회	-10.7332
▁질문	-10.7334
김정	-10.7336
▁이딴영화	-10.7339
▁에효	-10.7339
분짜리	-10.734
자마자	-10.734
▁태국	-10.734
▁낚인	-10.7341
▁줘도	-10.7342
▁만들어낸	-10.7342
▁알려준	-10.7343
▁봤는지	-10.7347
▁더빙판	-10.7351
▁명작중	-10.7351
▁비록	-10.7353
▁미술	-10.7354
▁이뻐	-10.7358
▁괜찮았음	-10.7364
▁멋져	-10.7367
▁개노잼	-10.7367
▁어설프다	-10.7367
▁작화	-10.7368
▁오그라들	-10.7369
질질끄	-10.7372
▁멀리	-10.7374
▁제대로된	-10.738
하자면	-10.7381
회부터	-10.7387
▁멋지게	-10.739
▁웃겨서	-10.7393
▁넘넘	-10.7394
▁유행	-10.7395
▁데려다	-10.7396
▁안봐서	-10.7399
▁결론은	-10.74
▁원조	-10.7402
첫	-10.7403
개연성	-10.7403
아름다운	-10.7404
이후로	-10.7405
드립	-10.7407
▁학생들	-10.7408
추억	-10.7409
무협	-10.7411
느끼	-10.7411
미국	-10.7413
▁청년	-10.742
▁않아서	-10.7422
하시고	-10.7423
▁정신없	-10.7423
결국	-10.7424
▁군인	-10.7426
▁만난	-10.7429
별루	-10.7432
문학	-10.7433
▁나쁜놈	-10.7436
▁불안	-10.744
▁팬들	-10.7441
▁배경으로	-10.7444
물론	-10.7454
▁관심을	-10.7459
보고나서	-10.746
망작	-10.7468
▁가치를	-10.7468
▁찾아서	-10.7476
▁ᄏᄏᄏᄏᄏᄏᄏᄏᄏᄏᄏᄏ	-10.7482
▁안봐도	-10.7484
▁세상에서	-10.7493
▁오락영화	-10.7493
19	-10.7499
▁두시간	-10.7502
▁신화	-10.7504
▁당당	-10.7505
조연	-10.7516
▁만화영화	-10.753
▁신선함	-10.7538
되길	-10.7543
▁어울리지	-10.7544
돈주고	-10.7558
거같아	-10.7563
강렬한	-10.7572
것같아	-10.7575
ᄃᄃᄃᄃ	-10.7578
▁개봉당시	-10.7581
실력	-10.7606
▁헤어지	-10.761
▁명배우	-10.761
깐	-10.7617
어쩔수없	-10.7624
싫어	-10.7667
ic	-10.7668
▁어우	-10.7673
▁중반부	-10.7681
▁들여	-10.7694
▁화나	-10.7697
▁본영화중	-10.77
지못한	-10.7701
졸라	-10.7723
▁중년	-10.7739
▁열라	-10.7746
▁주위	-10.7756
아련한	-10.7757
▁두명	-10.7764
▁좋더라	-10.7776
오래	-10.7802
▁살렸	-10.7805
!!!!!!!	-10.7824
말곤	-10.7828
▁가볍	-10.7845
▁오랜	-10.7854
▁오래전	-10.7859
섯	-10.7859
획	-10.7873
렬	-10.7875
쎄	-10.7877
앵	-10.7878
헨	-10.7879
▁드림웍스	-10.7879
▁디카프리오	-10.7879
☆	-10.7879
랭	-10.7879
샷	-10.7879
셧	-10.7879
썬	-10.7879
욤	-10.7879
쫓	-10.7879
츄	-10.7879
텅	-10.7879
▁아름다워	-10.7879
▁핸드폰	-10.7879
쟈	-10.7879
펙	-10.7879
▁어우러진	-10.7879
▁원주율	-10.7879
▁컨셉	-10.7879
▁깡패	-10.7879
▁엉뚱	-10.7879
▁자동차	-10.7879
앜	-10.7879
▁내생애	-10.7879
▁흑역사	-10.7879
▁윌리스	-10.7879
▁미스터리	-10.7879
▁칭찬	-10.7879
▁타이틀	-10.7879
▁침묵	-10.7879
▁저절로	-10.7879
▁하이틴	-10.7879
▁깨달았	-10.7879
거든요	-10.7879
▁컬트	-10.7879
플레이	-10.788
▁무간도	-10.788
▁혁명	-10.788
다운로드	-10.788
▁거대한	-10.788
▁웅장	-10.788
▁무식한	-10.788
▁김구라	-10.788
▁도둑	-10.7881
▁늙은	-10.7883
심리를	-10.7885
▁고딩	-10.7886
▁패션	-10.7887
▁감동적이에요	-10.7887
▁몇번이고	-10.7887
▁열광	-10.7887
분만에	-10.7888
▁마시길	-10.7888
▁가깝	-10.7889
▁반응	-10.7894
▁마냥	-10.7894
▁개인적인	-10.7895
▁에로물	-10.7896
▁추악	-10.7896
커녕	-10.7897
▁미안하다	-10.7898
▁어설프게	-10.7899
▁웬만	-10.79
▁나았을	-10.7901
였구나	-10.7901
el	-10.7903
녀석	-10.7904
▁기억난다	-10.7904
▁고증	-10.7904
될까	-10.7904
▁적당히	-10.7905
▁파격	-10.7905
▁OOOO	-10.7905
▁사귀	-10.7907
▁최후	-10.7911
▁되야	-10.7911
▁살인마	-10.7914
떨어져	-10.7914
▁만날	-10.7915
▁웃었다	-10.7916
▁관객에게	-10.7918
▁마법	-10.7918
▁하지원	-10.792
▁미학	-10.792
▁성형	-10.792
▁배우분들	-10.7922
것같네요	-10.7924
남는다	-10.7927
▁파리	-10.7928
▁최고봉	-10.7928
구멍	-10.7928
▁안나옴	-10.7929
500	-10.7933
▁평소	-10.7934
▁사랑한다	-10.794
▁나을듯	-10.7948
하시면	-10.7948
▁오래전에	-10.7952
통쾌한	-10.7953
▁공식	-10.7953
▁마지막회	-10.7953
▁믿기지	-10.7954
▁한국판	-10.7964
▁충분한	-10.7965
▁정신병자	-10.7972
▁듣기	-10.7973
▁살았	-10.7977
▁된장	-10.798
맹	-10.7985
▁재밋음	-10.7986
끊	-10.7988
▁통쾌하	-10.7989
▁오글거리	-10.7991
긴장감	-10.7992
그나마	-10.7993
초딩	-10.7996
▁없냐	-10.7996
tv	-10.7997
편부터	-10.7999
▁안들어	-10.8
▁뭐하나	-10.8
이해못	-10.8003
독립영화	-10.8006
▁저희	-10.8012
만큼이나	-10.8014
▁의문이	-10.8019
▁여배우들	-10.8019
▁상식	-10.8021
평점낮	-10.8022
좋겠다	-10.8022
▁허구	-10.8025
것같음	-10.8028
마주	-10.8034
편집	-10.8038
관람	-10.8043
▁매주	-10.8051
관심	-10.8058
뭐냐	-10.8064
▁빼놓	-10.8068
▁백인	-10.8078
귀신	-10.809
아니면	-10.8103
천원	-10.8115
▁전편보다	-10.8125
▁충격적	-10.8134
♥♥♥♥♥	-10.8135
▁세대	-10.8136
▁날려	-10.8137
▁가족들	-10.8168
보길	-10.8215
▁제작자	-10.8223
▁의미없	-10.8239
ᅲᅲᅲᅲᅲᅲᅲ	-10.8243
▁감상하	-10.8247
되다니	-10.8303
않았지만	-10.8322
년간	-10.8322
▁공포감	-10.8335
▁귀여웠	-10.8353
ck	-10.836
었구나	-10.8387
재미없습니다	-10.8411
졌습니다	-10.8424
us	-10.8435
너무너무	-10.8439
칠때	-10.8455
괜	-10.8457
쯔	-10.8467
쏴	-10.8467
덴	-10.8467
▁EBS	-10.8467
겻	-10.8467
쉐	-10.8467
썸	-10.8467
팽	-10.8467
ᅢ	-10.8467
▁고등학생	-10.8467
▁고맙습니다	-10.8467
▁고스란히	-10.8467
▁미야자키	-10.8467
▁점수준것들	-10.8467
▁졸업작품	-10.8467
▁파라노말	-10.8467
륙	-10.8467
쏠	-10.8467
쑤	-10.8467
옳	-10.8467
웟	-10.8467
짙	-10.8467
켄	-10.8467
퀸	-10.8467
툰	-10.8467
ᄊ	-10.8467
ᅥ	-10.8467
▁세련된	-10.8467
▁짬뽕	-10.8467
▁한석규	-10.8467
스파이더맨	-10.8467
▁두려움	-10.8467
▁가까운	-10.8467
쇠	-10.8467
▁처절한	-10.8467
▁조승우	-10.8467
그나저나	-10.8467
점만점에	-10.8467
▁박보영	-10.8467
▁단체로	-10.8467
▁섬세한	-10.8467
▁최민수	-10.8467
▁갖춘	-10.8467
▁클라라	-10.8467
▁조잡한	-10.8467
▁워낙	-10.8467
▁심리묘사	-10.8467
▁지겨워	-10.8467
▁돋보인다	-10.8468
▁가까이	-10.8468
▁이끌어	-10.8468
▁온몸	-10.8468
갠	-10.8469
▁소중함	-10.8469
▁간첩	-10.8469
▁응원합니다	-10.847
▁에라이	-10.8471
▁민족	-10.8471
▁호흡	-10.8471
▁멋짐	-10.8471
▁직업	-10.8472
▁앞뒤	-10.8472
▁역량	-10.8472
페이스	-10.8474
▁재개봉	-10.8474
▁장난하냐	-10.8475
끝날때까지	-10.8476
▁국산	-10.8476
▁배꼽	-10.8476
▁않았을까	-10.8477
▁낫겠다	-10.8477
▁장혁	-10.8477
▁라스트	-10.8477
▁보여줄	-10.848
▁있겠지만	-10.8481
점도아깝다	-10.8482
▁마틴	-10.8482
▁여자친구	-10.8484
▁게스트	-10.8484
▁비현실적인	-10.8484
▁은근	-10.8484
▁보시면	-10.8486
▁흥분	-10.8488
웠던	-10.8489
▁천국	-10.8489
▁전투씬	-10.849
▁볼만합니다	-10.8491
▁같았다	-10.8492
▁무겁	-10.8494
▁소품	-10.8494
▁싶었는데	-10.8494
▁최소	-10.8494
▁재밌게봤어요	-10.8495
하지않는	-10.8495
▁아동용	-10.8496
▁한순간	-10.8497
▁울었어요	-10.8499
▁주목	-10.85
▁조낸	-10.85
▁거지같	-10.8501
▁채우	-10.8502
므로	-10.8503
▁종영	-10.8504
예뻐	-10.8505
▁제왕	-10.8505
▁95	-10.8507
년동안	-10.8507
▁아름다웠다	-10.8508
▁부산	-10.8513
▁있었습니다	-10.8516
▁잘봤어요	-10.8516
▁모르지만	-10.8519
봣던	-10.8521
▁만든건지	-10.8521
대가리	-10.8523
▁킬링타임으로	-10.8527
▁믿음	-10.8528
▁보는듯한	-10.853
▁역사상	-10.853
시리즈중	-10.8531
▁끝남	-10.8538
내리는	-10.8538
▁미쳐	-10.8539
▁전라도	-10.855
폭탄	-10.855
▁느껴지지	-10.8551
▁빌리	-10.8553
멍	-10.8555
▁기타	-10.8556
▁돋보였	-10.8562
sh	-10.8568
▁이때까지	-10.8569
▁좋을듯	-10.8573
▁외면	-10.8574
그런데	-10.8577
▁우디	-10.8581
▁약하다	-10.8588
▁통해서	-10.8591
▁걸린	-10.8597
메세지를	-10.8599
샘	-10.8608
잃	-10.8613
핵	-10.8613
프로그램	-10.8614
예쁘	-10.8615
무서워	-10.8616
교육	-10.8616
마무리	-10.8617
얼마나	-10.8617
▁되어서	-10.862
다시봐도	-10.8628
▁일생	-10.8632
인것같다	-10.8635
▁각자	-10.8636
노출	-10.8641
▁라인	-10.8646
▁망친	-10.8651
해줘	-10.8655
너무좋아	-10.8687
▁졸려	-10.8704
녀들	-10.8709
왔던	-10.8724
▁go	-10.8726
▁놓치	-10.8735
♥♥♥♥	-10.8741
삼류	-10.8779
스탈	-10.8796
27	-10.882
▁느낄수있	-10.883
▁없으니	-10.8839
▁미이라	-10.8858
70	-10.886
돈아깝	-10.8865
▁나올까	-10.8868
18	-10.8873
▁내놓	-10.8875
▁대학생	-10.8878
잇엇	-10.8895
할수없는	-10.8906
저런	-10.8906
가는줄	-10.8908
연애	-10.8911
▁작년	-10.8912
▁아닌것	-10.892
커스	-10.8948
▁시대적	-10.8951
수있을까	-10.8961
났어요	-10.8998
비현실적	-10.9007
활동	-10.901
ᄃᄃᄃ	-10.9032
▁어떻	-10.9057
ed	-10.9058
이해할수	-10.9069
룬	-10.9073
▁300	-10.9075
뿔	-10.9083
삭	-10.9086
덩	-10.9092
▁겉멋	-10.9092
▁군더더기	-10.9092
▁다세포소녀	-10.9092
▁다크나이트	-10.9092
▁데뷔작	-10.9092
▁뒤늦게	-10.9092
▁마케팅	-10.9092
▁뮤직비디오	-10.9092
▁솔직한	-10.9092
▁송강호	-10.9092
▁송승헌	-10.9092
▁양조위	-10.9092
▁에일리언	-10.9092
▁엑스맨	-10.9092
▁유치찬란	-10.9092
▁파워레인저	-10.9092
▁훌륭합니다	-10.9092
듦	-10.9092
램	-10.9092
몫	-10.9092
췄	-10.9092
훗	-10.9092
힛	-10.9092
뻘	-10.9092
켈	-10.9092
▁흥미롭게	-10.9092
▁몸부림	-10.9092
▁차승원	-10.9092
▁외로움	-10.9092
▁파이팅	-10.9092
▁멘탈	-10.9092
▁사춘기	-10.9092
▁스피드	-10.9092
▁원숭이	-10.9092
똑똑	-10.9092
▁드니로	-10.9092
테이큰	-10.9092
생겨서	-10.9092
▁상업영화	-10.9092
▁어지간	-10.9092
▁완젼	-10.9092
▁첩보	-10.9092
▁거부감	-10.9093
▁잃어버린	-10.9093
▁깎아	-10.9093
괜찬	-10.9093
▁무의미	-10.9095
▁스토리라인	-10.9095
▁적나라하	-10.9095
▁잔잔하면서도	-10.9096
▁존경합니다	-10.9096
▁미치도록	-10.9096
▁웬만하면	-10.9096
▁깔끔한	-10.9097
하우스	-10.9097
▁첫번째	-10.9098
▁역쉬	-10.9098
▁동화같	-10.91
and	-10.91
▁내겐	-10.91
▁일어나는	-10.9101
▁극단적	-10.9101
▁성찰	-10.9101
▁불필요	-10.9102
▁이나영	-10.9102
▁괜찮던데	-10.9102
▁응원	-10.9102
▁좋으나	-10.9102
▁좋아하시는	-10.9108
거아닌가	-10.9108
▁중딩	-10.9109
▁또라이	-10.9109
▁이기적인	-10.9109
▁재밌기만	-10.9109
▁번역	-10.9112
▁씨발	-10.9112
▁재미나게	-10.9114
▁실종	-10.9117
▁ᄅᄋ	-10.9117
▁심각하게	-10.9118
▁보고싶은데	-10.9118
▁어째서	-10.9122
▁유치원	-10.9122
▁유발하	-10.9123
▁무서웠음	-10.9124
▁마약	-10.9125
▁잘못된	-10.9126
▁귀여워요	-10.9128
▁인종	-10.913
▁던져	-10.9131
▁의미있는	-10.9133
보아도	-10.9137
▁레오	-10.9141
▁편인데	-10.9143
▁드물	-10.9145
▁좋아합니다	-10.9146
▁향기	-10.9151
▁친일	-10.9151
▁떠올리	-10.9152
▁지존	-10.9155
▁무서워서	-10.9155
▁수준이하	-10.9158
▁없었는데	-10.9158
▁슬프네요	-10.9159
나보네	-10.9159
▁비현실적이	-10.916
▁대역	-10.9165
달까	-10.9168
▁요소들	-10.9168
▁실화라는	-10.9174
▁모방	-10.9174
▁나왔는데	-10.9182
버려서	-10.9184
▁알았음	-10.9189
재밋는데	-10.9203
▁보시는	-10.9208
▁장난아니	-10.9216
▁나왔던	-10.922
▁진정성	-10.9227
▁답없	-10.9241
하겠지만	-10.9243
▁모자라	-10.9258
싶을정도	-10.926
▁살아남	-10.9266
코메디	-10.9267
세포	-10.9273
영환데	-10.9276
짧	-10.928
참고로	-10.9282
히어로	-10.9282
CG	-10.9285
선택	-10.9298
재밋어요	-10.9302
실패	-10.9305
몇번	-10.9307
먼저	-10.9313
멋진	-10.9317
▁만들어준	-10.9323
빠지고	-10.9331
각본	-10.9332
웃긴	-10.9335
언제봐도	-10.934
▁맞지않	-10.9344
▁배우들연기	-10.935
▁좋아한다	-10.9391
▁멋있었	-10.9397
▁짝이	-10.9397
보지말고	-10.941
ri	-10.9413
자꾸	-10.942
▁의식	-10.943
보여서	-10.9431
본적이	-10.9462
다는것을	-10.9508
있었는데	-10.9512
▁부족하	-10.9521
▁극중	-10.9563
▁봤어야	-10.9588
▁즐거웠	-10.9593
le	-10.9594
낮아서	-10.9596
▁멈추	-10.9611
ᄡ	-10.9628
▁환상적	-10.9637
▁고등학교	-10.9639
▁미안해	-10.9666
자체를	-10.9676
알려주	-10.9681
웃기네	-10.971
▁스텝	-10.9731
▁모르겠네	-10.9747
꿔	-10.9755
▁존재하는	-10.9756
뚝	-10.9758
렀	-10.9758
귄	-10.9758
쩡	-10.9758
흰	-10.9758
▁기대됩니다	-10.9758
▁명불허전	-10.9758
▁못봐주겠	-10.9758
▁박찬욱	-10.9758
▁오글거림	-10.9758
▁위험한	-10.9758
▁인상깊게	-10.9758
둠	-10.9758
랴	-10.9758
졋	-10.9758
쨋	-10.9758
호불호가	-10.9758
^_^	-10.9758
▁KBS	-10.9758
▁뒷통수	-10.9758
▁아무생각없이	-10.9758
▁윌리엄	-10.9758
▁팀버튼	-10.9758
빤	-10.9758
뼈	-10.9758
짖	-10.9758
텀	-10.9758
▁미스캐스팅	-10.9758
밧	-10.9758
▁손예진	-10.9758
▁설경구	-10.9759
▁흥미롭다	-10.9759
▁모성애	-10.9759
▁실망시키지	-10.9759
▁어떠한	-10.9759
바이러스	-10.9759
▁조용히	-10.9759
#	-10.9759
▁배급사	-10.9759
▁색깔	-10.9759
꼽히는	-10.9759
▁Th	-10.9759
▁이순신	-10.9759
▁거슬리	-10.9759
▁흥미롭지	-10.9759
▁그들만의	-10.9759
▁찢어	-10.9759
▁of	-10.9759
▁총체적	-10.9759
▁흥미로웠	-10.976
오페라	-10.976
▁아쉬워요	-10.976
▁실감나	-10.976
▁노골적	-10.976
▁심심한	-10.976
▁학살	-10.9761
▁어려웠	-10.9761
영향을	-10.9762
▁돌려줘	-10.9762
▁완결	-10.9764
▁아까웠던	-10.9764
▁치명적	-10.9765
▁적절하	-10.9765
▁택시	-10.9766
▁당황	-10.9766
▁미안하지만	-10.9767
▁현빈	-10.9767
▁치료	-10.9767
▁알려주는	-10.9768
▁반지의	-10.9769
▁람보	-10.9769
▁밑도	-10.9769
▁복수극	-10.977
>>	-10.977
▁시골	-10.9771
▁재탕	-10.9771
▁사랑스럽고	-10.9772
▁그지같은	-10.9772
▁부활	-10.9773
▁볼만했음	-10.9774
▁신선했다	-10.9774
▁헬기	-10.9775
▁금방	-10.9776
▁히트	-10.9777
▁해야하나	-10.9777
▁댄스	-10.9781
▁빨아	-10.9782
▁유혹	-10.9782
▁돈벌	-10.9783
▁충분하다	-10.9784
▁사랑스럽다	-10.9785
였죠	-10.9786
스텝업	-10.9787
▁예산	-10.9787
▁기록	-10.9787
클릭	-10.9788
▁없었으면	-10.979
▁거품	-10.9791
클럽	-10.9791
▁역작	-10.9792
움직이는	-10.9792
해줘야	-10.9792
기억에남	-10.9793
▁그런대로	-10.9796
▁매번	-10.9797
합시다	-10.9797
▁장난하나	-10.9798
▁알바생	-10.9799
▁감정선	-10.9802
짱짱맨	-10.9803
▁있었으면	-10.9804
▁엉성하다	-10.9805
▁봤었다	-10.9805
▁네이버평점	-10.9805
▁상실	-10.9806
50	-10.9807
▁연민	-10.9811
그치만	-10.9812
투표	-10.9826
줬는데	-10.9828
▁깨달음	-10.9843
▁고급	-10.9848
사라져	-10.9861
본인이	-10.9891
!!!!!!!!!	-10.9922
뿌리	-10.9961
이게뭐	-10.9984
쫌	-10.999
H	-10.999
매니아	-10.9991
탐	-10.9992
암튼	-10.9997
개인적으로	-10.9998
댓글	-10.9999
네이버	-11.0003
▁표현력	-11.0005
슬퍼	-11.0006
탄탄	-11.0009
교훈	-11.0011
바람	-11.0017
해놓고	-11.0021
▁잃었	-11.0021
졌으면	-11.0033
천재	-11.0034
했었다	-11.0047
▁압도	-11.0053
▁do	-11.0062
▁철학적	-11.0083
보여준	-11.0084
▁자극하는	-11.0093
▁대단했	-11.0093
묘사	-11.0097
▁끝내주	-11.0109
약간	-11.0136
▁생각해보	-11.0162
되었습니다	-11.0171
▁압도적	-11.018
▁훈훈하	-11.0229
찾았	-11.0252
0000	-11.0275
에비해	-11.0293
번이상	-11.0309
했으니	-11.0309
죽을뻔	-11.0332
▁꼭봐야	-11.0347
▁당신들	-11.0353
ly	-11.0409
▁시간아깝	-11.043
▁움직	-11.0438
▁완성	-11.0441
겠군	-11.0457
릇	-11.0466
쯧	-11.0472
甲	-11.0473
깡	-11.0473
셉	-11.0473
톡	-11.0473
▁새록새록	-11.0473
▁이탈리아	-11.0473
▁흐지부지	-11.0473
♡♡♡	-11.0473
룸	-11.0473
삘	-11.0473
샌	-11.0473
▁나홀로집에	-11.0473
▁똑바로	-11.0473
▁리즈시절	-11.0473
▁별한개도	-11.0473
▁쌩뚱맞	-11.0473
▁언젠가	-11.0473
▁타란티노	-11.0473
▁학창시절	-11.0473
▁허무맹랑	-11.0473
긔	-11.0473
뻥	-11.0473
셜	-11.0473
안타까움	-11.0473
젬	-11.0473
횡	-11.0473
▁곱씹	-11.0473
▁국어책	-11.0473
▁담담하게	-11.0473
▁웹툰	-11.0473
▁힙합	-11.0473
쉰	-11.0473
▁클래식	-11.0473
얌	-11.0473
▁왜이러지	-11.0473
▁즐겁다	-11.0473
▁잔잔함	-11.0473
덩어리	-11.0473
▁멘붕	-11.0473
▁짜여진	-11.0473
▁몬스터	-11.0473
▁드래곤볼	-11.0473
▁명복을	-11.0473
▁조잡하고	-11.0473
▁묵직	-11.0473
▁뒤집어	-11.0473
▁왕가위	-11.0473
▁애매한	-11.0473
베리굿	-11.0473
▁다니엘	-11.0473
▁태어난	-11.0473
ill	-11.0473
▁늑대인간	-11.0473
▁콤비	-11.0473
▁유오성	-11.0474
▁러셀	-11.0474
▁이정재	-11.0474
▁솔까	-11.0474
▁관람객	-11.0474
▁농구	-11.0474
▁수면제	-11.0474
▁억울	-11.0474
▁활용	-11.0474
러브라인	-11.0474
▁주제의식	-11.0474
▁흥해라	-11.0475
더라고요	-11.0475
▁특이한	-11.0475
▁증말	-11.0476
▁온갖	-11.0476
▁산드라	-11.0477
▁신파극	-11.0477
▁미친듯이	-11.0477
시네마	-11.0478
▁악몽	-11.0478
▁좋았을텐데	-11.0479
▁관광	-11.048
▁말이필요없는	-11.048
▁결투	-11.0481
▁버튼	-11.0481
▁허무함	-11.0481
▁오로지	-11.0481
▁정치적	-11.0482
▁느껴짐	-11.0482
▁감옥	-11.0482
버젼	-11.0483
▁재앙	-11.0485
▁공감가는	-11.0485
▁시간아까워	-11.0485
▁아침드라마	-11.0486
▁허탈	-11.0487
▁되어버린	-11.0488
시키려	-11.0489
▁있으나	-11.049
▁개성있	-11.049
▁조금씩	-11.0492
▁한번씩	-11.0492
▁물씬	-11.0492
▁백배	-11.0493
▁나은듯	-11.0495
▁초반엔	-11.0495
▁세계관	-11.0495
▁만들어졌다	-11.0495
▁타잔	-11.0497
▁직장	-11.0499
▁어린아이	-11.0499
▁돈아깝다	-11.05
▁파악	-11.05
▁아무래	-11.0501
▁운전	-11.0501
▁아만다	-11.0502
▁재미있었던	-11.0503
▁불법	-11.0504
▁재미있었는데	-11.0515
▁남친	-11.052
로맨틱코미디	-11.0523
▁상영시간	-11.0531
▁조용하	-11.0538
▁진행되	-11.0552
▁진부하	-11.0559
▁확인하	-11.0581
해줘서	-11.0601
느님	-11.0601
▁알수없	-11.0614
▁교감	-11.0619
절대보지마	-11.0621
▁향한	-11.0645
60	-11.0687
배틀	-11.0698
주는것도	-11.07
▁시청자들	-11.07
팬이라면	-11.0701
2008	-11.0735
▁~~~~~~~	-11.0744
어떻게든	-11.0747
궁금	-11.0757
톰	-11.0761
실제로	-11.0763
대단하다	-11.0765
ᄉᄇ	-11.0769
ᄋᄋᄋ	-11.077
아이돌	-11.0771
결혼	-11.0772
대단한	-11.0772
잘봤습니다	-11.0774
결론	-11.0774
괜히	-11.0776
힘든	-11.0777
cg	-11.0777
주인공들의	-11.0794
폭력	-11.0797
이러냐	-11.0815
좋아지는	-11.0835
해지네요	-11.0837
완벽하게	-11.0843
기다리	-11.0857
사람마다	-11.0874
하시네요	-11.0952
지못할	-11.0966
시선으로	-11.0986
▁세월	-11.106
싶을때	-11.1066
점주고싶	-11.1068
였군	-11.1109
▁떠올	-11.1179
▁스타일리쉬	-11.1185
원주고	-11.1225
젼	-11.1231
번쯤	-11.1234
밌	-11.1236
딜	-11.1237
훔	-11.1238
뱅	-11.1242
핸	-11.1242
썰	-11.1242
퉁	-11.1242
▁Good	-11.1242
▁로보캅	-11.1242
▁슬래셔	-11.1242
▁안됩니다	-11.1242
▁애니매이션	-11.1242
▁여고괴담	-11.1242
▁조기종영	-11.1242
▁찜찜	-11.1242
▁코스트너	-11.1242
▁후덜덜	-11.1242
넷	-11.1242
돕	-11.1242
듀	-11.1242
뚤	-11.1242
밟	-11.1242
붐	-11.1242
짚	-11.1242
코스프레	-11.1242
▁뭔내용인지	-11.1242
▁스티브	-11.1242
▁에이리언	-11.1242
▁오타쿠	-11.1242
도라에몽	-11.1242
뱀	-11.1242
뷔	-11.1242
뺐	-11.1242
쒸	-11.1242
▁나비효과	-11.1242
▁키아누	-11.1242
▁그냥저냥	-11.1242
▁담아낸	-11.1242
▁팝콘	-11.1242
▁ᄆᄎ	-11.1242
▁어차피	-11.1242
▁전문성우	-11.1242
▁객관적	-11.1242
▁머릿속에	-11.1242
▁심사위원	-11.1242
com	-11.1242
▁베트남	-11.1242
▁고마운	-11.1242
▁색다르	-11.1242
▁여기저기	-11.1242
▁장동건	-11.1242
▁정주행	-11.1242
쌤	-11.1242
▁앵글	-11.1242
▁활약	-11.1242
즐겁고	-11.1242
▁화려함	-11.1242
▁낚여서	-11.1242
▁일어날	-11.1242
▁케이트	-11.1242
▁엽문	-11.1242
▁박해일	-11.1242
▁이민호	-11.1242
▁나타내	-11.1243
▁이게뭐야	-11.1243
보고있습니다	-11.1243
▁납치	-11.1243
▁색채	-11.1243
▁뒤로갈수록	-11.1243
▁담겨있	-11.1243
▁계획	-11.1243
변호사	-11.1243
두고두고	-11.1243
이해안감	-11.1244
▁용가리	-11.1244
해놓은	-11.1244
나머진	-11.1244
▁촌스러운	-11.1245
▁레옹	-11.1245
수십번	-11.1246
▁장애인	-11.1246
▁더러워	-11.1246
▁벌어지	-11.1246
▁간접	-11.1247
▁어딜	-11.1247
PD	-11.1247
멸망	-11.1247
▁2011	-11.1248
▁죽기전에	-11.1248
으므로	-11.1248
▁일어난	-11.1249
▁갖게	-11.1249
▁독립	-11.125
였으나	-11.125
▁케이지	-11.1251
무튼	-11.1251
▁바란다	-11.1252
ost	-11.1252
▁낮추	-11.1253
노동자	-11.1256
▁재미없었음	-11.1257
▁7~8	-11.1257
▁들었습니다	-11.1257
▁실화라서	-11.1257
▁혼란	-11.1259
▁따뜻함	-11.1259
▁초월	-11.1261
▁해도해도	-11.1261
▁모자란	-11.1262
▁있었을까	-11.1262
▁광팬	-11.1263
했더라면	-11.1263
▁정상인	-11.1266
▁모든것을	-11.1266
▁나왔는지	-11.1266
▁긴장감있	-11.1266
▁여전하	-11.1267
▁버티	-11.1267
▁고독	-11.1269
▁젊은이들	-11.127
빠순이들	-11.1275
▁기발하	-11.1281
▁심오하	-11.1284
똥폼	-11.1288
▁얘들	-11.1289
로인해	-11.1293
만들었으면	-11.1301
역활	-11.1305
유쾌하게	-11.1307
▁8.5	-11.1322
▁오락성	-11.1334
없을정도로	-11.1353
최대의	-11.1364
▁풀어나가	-11.1374
타령	-11.1394
hat	-11.1399
▁실망스럽	-11.1413
▁시시하	-11.1415
영환줄	-11.1426
보고싶네	-11.144
겠으나	-11.1485
어이가없	-11.1486
▁그지없	-11.15
재밌게봄	-11.1521
▁야하지도	-11.1551
▁so	-11.1554
▁찡하	-11.1555
떨어졌	-11.1556
한마디	-11.1562
죽는줄	-11.1574
닼ᄏᄏ	-11.1594
W	-11.1594
아줌마	-11.1594
낳	-11.1595
섬	-11.1597
꽝	-11.1598
무엇보다	-11.1599
그래픽	-11.16
촬영	-11.16
좋았음	-11.1606
왜이렇게	-11.1608
이번엔	-11.1611
▁섹시하	-11.1625
실화라	-11.1721
지않았다	-11.173
▁썰렁	-11.187
▁기억속에	-11.1871
▁맛있	-11.1892
▁할말없	-11.1895
뎅	-11.1918
▁몰입되	-11.1963
빌려서	-11.1987
겐	-11.1998
▁아름다웠	-11.2016
▁시간때우기	-11.2023
밋	-11.2069
믹	-11.2071
둑	-11.2071
댓	-11.2072
률	-11.2075
뎀	-11.2075
펀	-11.2075
드래곤	-11.2075
쇄	-11.2075
솜	-11.2075
▁무미건조	-11.2075
▁사이코패스	-11.2075
▁성냥팔이	-11.2075
▁엔딩크레딧	-11.2075
▁옴니버스	-11.2075
▁징그럽	-11.2075
▁카메론	-11.2075
▁판타스틱	-11.2075
겄	-11.2075
떳	-11.2075
뤘	-11.2075
쌈	-11.2075
욜	-11.2075
쳇	-11.2075
퍽	-11.2075
▁겨울왕국	-11.2075
▁멀쩡한	-11.2075
▁버금가는	-11.2075
▁보냅니다	-11.2075
▁슬펐다	-11.2075
▁안타까울	-11.2075
▁양동근	-11.2075
▁역사왜곡	-11.2075
▁유치뽕짝	-11.2075
▁인상깊다	-11.2075
▁프레데터	-11.2075
▁프로젝트	-11.2075
꿨	-11.2075
댕	-11.2075
덧	-11.2075
뜸	-11.2075
밨	-11.2075
빚	-11.2075
쓰잘데기	-11.2075
왠만해선	-11.2075
윽	-11.2075
짤	-11.2075
쫒	-11.2075
킥	-11.2075
핏	-11.2075
▁이것저것	-11.2075
▁임청하	-11.2075
▁잊지못할	-11.2075
▁쥬라기	-11.2075
비쥬얼	-11.2075
훼	-11.2075
ᅮᅮᅮᅮᅮᅮᅮᅮᅮ	-11.2075
▁무책임	-11.2075
▁절제된	-11.2075
▁구혜선	-11.2075
▁심심할때	-11.2075
▁홍진호	-11.2075
▁가르쳐	-11.2075
▁과장된	-11.2075
▁이리저리	-11.2075
습니당	-11.2075
▁소지섭	-11.2075
로버츠	-11.2075
▁스페인	-11.2075
▁지하철	-11.2075
▁간신히	-11.2075
아이언맨	-11.2075
▁모티브	-11.2075
▁앤딩	-11.2075
▁조금이나마	-11.2075
▁흑흑	-11.2075
▁떡밥	-11.2075
▁못생긴	-11.2075
▁기분좋게	-11.2075
▁가운데	-11.2075
▁나중엔	-11.2075
▁엉엉	-11.2075
▁지저분	-11.2076
▁오인혜	-11.2076
▁징그러	-11.2076
▁평점조작	-11.2076
▁흐뭇	-11.2076
▁어수선	-11.2076
▁춤추는	-11.2076
뽀로로	-11.2076
▁통틀어	-11.2076
▁성유리	-11.2076
▁옹박	-11.2076
▁유지태	-11.2076
▁예지원	-11.2076
▁예수님	-11.2076
자존심	-11.2076
▁마누라	-11.2076
▁옹호	-11.2076
씨리즈	-11.2076
▁달콤하	-11.2076
▁전지현	-11.2076
▁구석이	-11.2076
▁이정현	-11.2076
1,2,3	-11.2076
▁가만히	-11.2076
▁모르겠으나	-11.2076
▁고질라	-11.2076
▁늑대	-11.2077
▁하야오	-11.2077
▁예뻐요	-11.2077
▁me	-11.2077
▁틀림없다	-11.2077
▁쪽팔	-11.2077
▁할말을	-11.2077
▁소리지르	-11.2077
▁훈남	-11.2077
▁전도연	-11.2077
단막극	-11.2077
▁7.5	-11.2077
▁한지민	-11.2077
▁망쳐놓	-11.2078
박하선	-11.2078
▁무난한	-11.2078
▁클라스	-11.2078
▁뜨겁	-11.2079
▁이요원	-11.2079
꽤	-11.2505
닼	-11.2581
큼	-11.2874
켰	-11.2948
냄	-11.2983
캔	-11.2983
랙	-11.2984
꽁	-11.2984
넼	-11.2984
됌	-11.2984
붉	-11.2984
썅	-11.2984
얀	-11.2984
잎	-11.2984
↓	-11.2984
녁	-11.2984
롬	-11.2984
벙	-11.2984
섰	-11.2984
쟝	-11.2984
쳣	-11.2984
촉	-11.2984
렘	-11.2984
좁	-11.2984
뇨	-11.2984
폴	-11.3503
[	-11.3503
묻	-11.3507
줍	-11.3982
낌	-11.3982
찢	-11.3983
풋	-11.3984
닳	-11.3984
됀	-11.3984
샀	-11.3984
쿄	-11.3984
꺄	-11.3984
꿍	-11.3984
끓	-11.3984
넋	-11.3984
댐	-11.3984
럿	-11.3984
빰	-11.3984
뺀	-11.3984
쉣	-11.3984
엌	-11.3984
윗	-11.3984
q	-11.3984
ᆞ	-11.3984
꾀	-11.3984
룰	-11.3984
밸	-11.3984
탭	-11.3984
꽂	-11.3984
칩	-11.3984
퀀	-11.3984
햐	-11.3984
웩	-11.3984
짠	-11.4618
볍	-11.5091
캡	-11.5095
걱	-11.5095
낯	-11.5095
긍	-11.5095
옜	-11.5095
Z	-11.5096
믄	-11.5096
씻	-11.5096
캅	-11.5096
ᅦ	-11.5096
겸	-11.5096
덥	-11.5096
뜰	-11.5096
롹	-11.5096
릉	-11.5096
숫	-11.5096
쬐	-11.5096
펠	-11.5096
無	-11.5096
뉘	-11.5096
댈	-11.5096
땔	-11.5096
뺴	-11.5096
웰	-11.5096
펴	-11.5096
ᄁ	-11.5096
멕	-11.5096
욬	-11.5096
둬	-11.5096
묶	-11.5096
뒀	-11.5096
♬	-11.5096
쌍	-11.5835
냉	-11.5863
캬	-11.5866
녹	-11.5868
껍	-11.6345
닙	-11.6345
$	-11.6345
짬	-11.6345
윙	-11.6346
굵	-11.6346
꺅	-11.6346
뮬	-11.6346
씽	-11.6346
앰	-11.6346
헷	-11.6346
|	-11.6346
、	-11.6346
人	-11.6346
괸	-11.6346
깽	-11.6346
뱃	-11.6346
짭	-11.6346
탠	-11.6346
풉	-11.6346
핡	-11.6346
곸	-11.6346
꺾	-11.6346
젓	-11.6346
콕	-11.6346
헛	-11.7293
썩	-11.7296
늑	-11.7771
뀨	-11.7774
훅	-11.7774
숑	-11.7774
찜	-11.7774
쿼	-11.7774
ᅣ	-11.7774
ᅭ	-11.7774
♪	-11.7774
乃	-11.7774
긁	-11.7774
꺽	-11.7774
놉	-11.7774
늠	-11.7774
떴	-11.7774
몹	-11.7774
뷁	-11.7774
빔	-11.7774
뻗	-11.7774
뻣	-11.7774
숱	-11.7774
쑈	-11.7774
엥	-11.7774
옌	-11.7774
욘	-11.7774
욧	-11.7774
쫑	-11.7774
캣	-11.7774
횽	-11.7774
Q	-11.7774
냠	-11.7774
뇬	-11.7774
뎌	-11.7774
딕	-11.7774
멧	-11.7774
솟	-11.7774
쨩	-11.7774
폄	-11.7774
갸	-11.7774
웁	-11.7774
융	-11.7774
펄	-11.7774
웽	-11.7774
첸	-11.7774
씹	-11.896
얻	-11.8961
즌	-11.9425
\	-11.9441
흫	-11.9441
씌	-11.9441
띵	-11.9441
댜	-11.9441
앳	-11.9441
쵸	-11.9441
탔	-11.9441
톨	-11.9441
픕	-11.9441
핳	-11.9441
걔	-11.9441
궈	-11.9441
냅	-11.9441
넨	-11.9441
넴	-11.9441
뵈	-11.9441
쉘	-11.9441
쨔	-11.9441
쪄	-11.9441
쪙	-11.9441
칫	-11.9441
햄	-11.9441
뺑	-11.9441
슐	-11.9441
쏭	-11.9441
텨	-11.9441
→	-11.9441
촬	-12.1436
옵	-12.1438
に	-12.1441
힙	-12.1441
겔	-12.1441
륨	-12.1441
윅	-12.1441
팟	-12.1441
ᄈ	-12.1441
ᄑ	-12.1441
↑	-12.1441
겜	-12.1441
굼	-12.1441
깅	-12.1441
꿉	-12.1441
늬	-12.1441
띠	-12.1441
랠	-12.1441
밭	-12.1441
뿡	-12.1441
샴	-12.1441
츰	-12.1441
헴	-12.1441
～	-12.1441
쒯	-12.1441
잌	-12.1441
칵	-12.1441
킷	-12.1441
텍	-12.1441
핥	-12.1441
싯	-12.1441
쌔	-12.1441
넝	-12.1441
졷	-12.1441
뭇	-12.394
い	-12.394
し	-12.394
日	-12.394
の	-12.3941
ᅧ	-12.3941
꽈	-12.3941
닛	-12.3941
낱	-12.3941
뎃	-12.3941
룻	-12.3941
맬	-12.3941
욥	-12.3941
찼	-12.3941
핰	-12.3941
괘	-12.3941
뇽	-12.3941
툴	-12.3941
作	-12.3941
궂	-12.3941
꺠	-12.3941
뎐	-12.3941
돠	-12.3941
먀	-12.3941
뮈	-12.3941
샹	-12.3941
쉿	-12.3941
쌘	-12.3941
썽	-12.3941
얍	-12.3941
왁	-12.3941
웍	-12.3941
웤	-12.3941
쨰	-12.3941
쩖	-12.3941
찹	-12.3941
촐	-12.3941
촘	-12.3941
쾅	-12.3941
큽	-12.3941
퉷	-12.3941
팡	-12.3941
팻	-12.3941
굽	-12.3941
땟	-12.3941
쁠	-12.3941
샵	-12.3941
셍	-12.3941
쑥	-12.3941
잰	-12.3941
☞	-12.3941
띈	-12.3941
랗	-12.3941
잴	-12.3941
펌	-12.3941
뽐	-12.3941
굶	-12.3941
귤	-12.3941
女	-12.3941
꽉	-12.6793
겪	-12.6794
잭	-12.6797
푹	-12.6798
떻	-12.7269
텝	-12.7271
컥	-12.7271
첼	-12.7274
で	-12.7274
끗	-12.7274
▽	-12.7274
∇	-12.7274
늪	-12.7274
·	-12.7274
ᄄ	-12.7274
ᆪ	-12.7274
”	-12.7274
を	-12.7274
曰	-12.7274
有	-12.7274
罪	-12.7274
갯	-12.7274
겅	-12.7274
궤	-12.7274
꼐	-12.7274
꿎	-12.7274
낑	-12.7274
냇	-12.7274
냔	-12.7274
넥	-12.7274
눕	-12.7274
댔	-12.7274
둗	-12.7274
떔	-12.7274
띤	-12.7274
렙	-12.7274
멱	-12.7274
놧	-12.7274
깤	-12.7274
롸	-12.7274
멌	-12.7274
갚	-12.7274
깸	-12.7274
÷	-12.7274
띄	-13.1797
す	-13.2274
컵	-13.2274
팜	-13.2274
뒷	-14.1832
렜	-14.2069
딪	-14.207
댁	-14.2071
닠	-14.2072
눴	-14.2073
놬	-14.2074
넉	-14.2075
낰	-14.2076
끽	-14.2077
꿇	-14.2078
껌	-14.2079
궄	-14.208
곀	-14.2081
걀	-14.2082
갉	-14.2083
“	-14.2084
훤	-14.2085
횟	-14.2086
퐉	-14.2087
텼	-14.2088
킼	-14.2089
컹	-14.209
캉	-14.2091
찟	-14.2092
쮸	-14.2093
짊	-14.2094
쥴	-14.2095
옄	-14.2096
얔	-14.2097
쏜	-14.2098
벳	-14.2099
멎	-14.21
뛴	-14.2101
딥	-14.2102
눅	-14.2103
뀜	-14.2104
♨	-14.2105
큭	-14.2106
큘	-14.2107
촤	-14.2108
촛	-14.2109
챔	-14.211
짴	-14.2111
앎	-14.2112
샐	-14.2113
삑	-14.2114
쁩	-14.2115
뿍	-14.2116
뵙	-14.2117
뎈	-14.2118
냨	-14.2119
낍	-14.212
깼	-14.2121
괞	-14.2122
た	-14.2123
훓	-14.2124
쥔	-14.2125
좔	-14.2126
낡	-14.2127
꿰	-14.2128
휼	-14.2129
퀼	-14.213
콥	-14.2131
얹	-14.2132
얕	-14.2133
쉼	-14.2134
빴	-14.2135
랖	-14.2136
딨	-14.2137
됴	-14.2138
뀔	-14.2139
깬	-14.214
펏	-14.2141
읊	-14.2142
얽	-14.2143
빽	-14.2144
붓	-14.2145
벡	-14.2146
떵	-14.2147
꿋	-14.2148
껑	-14.2149
갤	-14.215
̄	-14.2151
휩	-14.2152
헝	-14.2153
핍	-14.2154
왼	-14.2155
엎	-14.2156
슌	-14.2157
뿅	-14.2158
뤽	-14.2159
꼇	-14.216
セ	-14.2161
ス	-14.2162
ク	-14.2163
탤	-14.2164
켠	-14.2165
쫙	-14.2166
쟤	-14.2167
릎	-14.2168
뀐	-14.2169
킵	-14.217
좆	-14.2171
뺨	-14.2172
귓	-14.2173
갇	-14.2174
흙	-14.2175
홉	-14.2176
펭	-14.2177
앓	-14.2178
쌀	-14.2179
밉	-14.218
눠	-14.2181
꽥	-14.2182
쥑	-14.2183
잣	-14.2184
샬	-14.2185
뱉	-14.2186
뭡	-14.2187
맷	-14.2188
췌	-14.2189
빕	-14.219
곁	-14.2191
젝	-14.2192
녔	-14.2193
옮	-14.2194
썻	-14.2195
맑	-14.2196
룹	-14.2197
걷	-14.2198
뜯	-14.2199
엮	-14.22
쌓	-14.2201
뭣	-14.2202
맴	-14.2203
뤄	-14.2204
넓	-14.2205
죤	-14.2206
멤	-14.2207
얄	-14.2208
쌩	-14.2209
똘	-14.221
웹	-14.2211
쨌	-14.2212
홧	-14.2213
쫄	-14.2214
찔	-14.2215
숀	-14.2216
탱	-14.2217
쪼	-14.2218
뭥	-14.2219
틋	-14.222
뗄	-14.2221
껐	-14.2222
펼	-14.2223
팠	-14.2224
쿨	-14.2225
쏟	-14.2226
쉴	-14.2227
셰	-14.2228
왤	-14.2229
뻤	-14.223
틸	-14.2231
컸	-14.2232
뚜	-14.2233
팩	-14.2234
벅	-14.2235
뎁	-14.2236
봇	-14.2237
섞	-14.2238
펐	-14.2239
략	-14.224
혐	-14.2241
뜩	-14.2242
쵝	-14.2243
쁨	-14.2244
늦	-14.2245
퓨	-14.2246
닫	-14.2247
챙	-14.2248
겉	-14.2249
맙	-14.225
빡	-14.2251
벤	-14.2252
됩	-14.2253
쩐	-14.2254
봅	-14.2255
찝	-14.2256
꼈	-14.2257
콜	-14.2258
넣	-14.2259
랍	-14.226
땜	-14.2261
굉	-14.2262
슷	-14.2263
험	-14.2264
뛰	-14.2265
훨	-14.2266
옛	-14.2267
잊	-14.2268
륭	-14.2269
땠	-14.227
훌	-14.227
깊	-14.2271
높	-14.2272
찮	-14.2273
밈	-14.2274
ッ	-14.2274
먹	-14.2274
