<unk>	0
<s>	0
</s>	0
▁.	-3.3338
▁	-3.4884
을	-3.72056
의	-3.83451
는	-3.86874
은	-4.09303
에	-4.18763
를	-4.20216
이	-4.30629
가	-4.40164
▁,	-4.54565
고	-4.86068
에서	-4.94564
한	-5.01066
로	-5.10979
인	-5.24821
▁이	-5.2997
▁일	-5.3201
▁그	-5.42619
과	-5.432
으로	-5.45727
와	-5.57544
▁있다	-5.58585
▁고	-5.61874
도	-5.62937
지	-5.65265
▁수	-5.69402
할	-5.73488
했다	-5.78245
▁밝혔다	-5.83272
하고	-5.85184
▁말했다	-5.85641
▁년	-5.97918
하는	-6.02206
다	-6.0329
▁있는	-6.03438
기	-6.06495
▁전	-6.08507
스	-6.13519
리	-6.17699
해	-6.22957
된	-6.32985
▁대한	-6.33504
자	-6.34128
▁위해	-6.35381
▁미국	-6.39623
나	-6.3975
▁이번	-6.40955
▁월	-6.41062
▁미	-6.42133
▁한	-6.42307
▁전했다	-6.43603
▁중	-6.49487
▁지난	-6.50095
▁정부	-6.51808
▁현지시간	-6.53776
▁명	-6.58482
며	-6.60818
▁대해	-6.61062
에게	-6.6189
라	-6.63273
▁며	-6.66007
들	-6.6692
던	-6.67211
▁것	-6.67565
s	-6.67576
▁것으로	-6.6907
드	-6.69402
어	-6.7105
트	-6.71233
사	-6.71374
▁명이	-6.72705
▁것이라고	-6.74056
게	-6.76029
상	-6.77029
▁주	-6.77984
히	-6.78936
▁있다고	-6.80632
으며	-6.80858
시	-6.81607
하기	-6.82159
▁그러나	-6.82875
▁것을	-6.83359
▁이라크	-6.83807
들이	-6.83833
▁더	-6.84261
수	-6.87302
주	-6.89271
장	-6.91557
하지	-6.91981
적인	-6.92722
서	-6.92943
만	-6.95203
▁중국	-6.95783
운	-6.95922
▁다른	-6.96507
이다	-6.97044
▁만	-6.97063
하게	-6.97084
▁대통령	-6.97168
르	-6.97231
아	-6.99909
▁명의	-7.00207
▁가	-7.00969
▁세	-7.02377
성	-7.03756
▁대	-7.04327
일	-7.0506
▁내	-7.05208
▁북한	-7.05879
부	-7.06514
▁한편	-7.07988
치	-7.09513
▁약	-7.10015
▁오바마	-7.10035
▁등	-7.10589
▁또	-7.11105
▁이라고	-7.11821
▁후	-7.12211
했다고	-7.12665
▁경찰	-7.12699
▁시	-7.13818
▁바	-7.1383
지만	-7.15077
▁총리	-7.15347
▁영국	-7.16522
소	-7.17041
대	-7.17398
▁한국	-7.17951
비	-7.18335
됐다	-7.18821
▁대변인	-7.19006
원	-7.2002
▁우리	-7.20677
▁개	-7.20846
면	-7.21287
▁말	-7.21341
▁아	-7.2195
▁통해	-7.22419
▁이후	-7.22583
▁많은	-7.23006
▁부시	-7.23544
▁위한	-7.23601
하며	-7.24597
적	-7.24871
까지	-7.24923
될	-7.25503
▁두	-7.25607
▁에	-7.25801
니	-7.25981
▁제	-7.2706
크	-7.2746
정	-7.27923
▁알	-7.28001
▁대통령은	-7.28061
프	-7.2892
화	-7.292
▁가장	-7.29458
했으며	-7.30959
▁비	-7.31111
진	-7.31484
▁동안	-7.32589
▁같은	-7.32808
미	-7.3307
▁것이다	-7.34465
▁않았다	-7.35332
전	-7.3667
▁문제	-7.36998
간	-7.37582
거	-7.38435
선	-7.39863
▁사	-7.41025
▁있	-7.42894
▁세계	-7.43417
야	-7.43724
보	-7.43893
하	-7.44074
▁오	-7.44426
국	-7.44437
▁후보	-7.44445
▁달러	-7.44588
세	-7.44656
▁영화	-7.4471
▁주장했다	-7.45538
▁때	-7.45595
▁나	-7.45902
▁지	-7.46027
▁조사	-7.46159
▁될	-7.4684
e	-7.46962
마	-7.47127
▁현재	-7.47333
▁부	-7.48029
▁일본	-7.48695
당	-7.4879
▁한다	-7.48832
▁관련	-7.49141
▁지역	-7.49171
▁할	-7.49179
▁이들	-7.49188
▁것은	-7.49492
바	-7.49492
▁위	-7.49881
▁최근	-7.50011
▁마	-7.50281
▁또한	-7.50293
▁자	-7.50659
우	-7.50953
즈	-7.51186
▁일부	-7.51467
안	-7.52005
▁s	-7.52091
▁로	-7.52711
▁조	-7.52777
디	-7.52863
▁유	-7.52939
▁이상	-7.53243
▁the	-7.53358
▁경제	-7.53648
▁뒤	-7.53651
▁정	-7.55005
으나	-7.5531
▁경우	-7.55397
명	-7.55678
▁보도했다	-7.55697
제	-7.56055
들을	-7.56492
▁덧붙였다	-7.56564
및	-7.5682
위	-7.57326
단	-7.5744
▁것이	-7.58029
한다	-7.58114
▁미군	-7.58244
▁분	-7.58342
오	-7.58938
▁있었다	-7.59028
▁국가	-7.59782
레	-7.60177
관	-7.60281
파	-7.6033
했던	-7.60917
▁시간	-7.61002
적으로	-7.61538
▁계획	-7.62016
▁자신의	-7.62058
▁공격	-7.62446
▁모든	-7.62495
▁안	-7.62728
러	-7.62804
었다	-7.62872
▁기	-7.6347
d	-7.63832
▁라	-7.63955
계	-7.64824
▁무	-7.65828
▁반	-7.66377
타	-7.66448
▁함께	-7.66657
▁하	-7.66797
물	-7.669
▁새로	-7.67164
▁당시	-7.6721
▁차	-7.6725
c	-7.67713
▁결과	-7.67834
려	-7.68323
▁했다	-7.68672
▁라고	-7.68802
식	-7.7069
티	-7.71029
▁계속	-7.71557
▁그리고	-7.7156
▁to	-7.71876
하다	-7.72041
용	-7.72056
▁파키스탄	-7.72597
에따르면	-7.72918
조	-7.73098
▁보	-7.73366
▁모두	-7.74359
해야	-7.74601
▁프랑스	-7.74752
▁다	-7.74793
▁불	-7.74839
▁러시아	-7.74855
▁cnn	-7.74957
y	-7.75202
▁공	-7.7565
▁당국	-7.75798
▁해	-7.76171
▁신	-7.76288
▁상	-7.76523
▁지원	-7.76727
▁수도	-7.77086
구	-7.77311
에서는	-7.77396
▁예정이다	-7.77428
▁재	-7.77593
권	-7.77646
유	-7.78009
▁이란	-7.78102
▁처음	-7.78209
▁군	-7.78649
▁설명했다	-7.78701
내	-7.7887
보다	-7.78948
▁몇	-7.79064
▁있습니다	-7.79532
▁강	-7.7974
했	-7.7979
u	-7.79857
▁있으며	-7.80198
▁유엔	-7.80587
▁구	-7.806
이라고	-7.81068
▁거	-7.81213
▁민주당	-7.81786
▁파	-7.81892
▁사실	-7.81916
방	-7.82059
라고	-7.82251
브	-7.82374
▁이스라엘	-7.83497
▁아직	-7.83965
▁경기	-7.84051
▁도	-7.84107
도록	-7.84126
▁a	-7.84326
▁여	-7.84339
▁사고	-7.84372
카	-7.84835
▁없다	-7.84863
▁카	-7.85088
p	-7.85615
▁결정	-7.85784
린	-7.86036
코	-7.86102
▁큰	-7.86225
▁클린턴	-7.86875
됐	-7.87049
▁데	-7.87108
때문에	-7.87114
▁테러	-7.87243
▁원	-7.87456
질	-7.87604
▁초	-7.88017
모	-7.8803
▁배	-7.89063
▁피	-7.89235
▁억	-7.89583
▁달	-7.89635
▁그녀	-7.89896
▁발표	-7.90006
▁여성	-7.90192
실	-7.9057
했습니다	-7.90669
▁연구	-7.90679
신	-7.91059
산	-7.91133
▁핵	-7.91309
▁회담	-7.91324
▁사건	-7.92028
회	-7.92143
▁살	-7.92292
▁지난해	-7.92563
▁올해	-7.92833
되는	-7.92845
▁모	-7.92914
▁않을	-7.93435
▁열린	-7.93668
▁성명	-7.93896
노	-7.93951
▁대통령이	-7.93967
문	-7.94676
▁성	-7.94712
▁방문	-7.94713
직	-7.95038
점	-7.95241
▁사람들	-7.9556
▁하는	-7.95711
차	-7.96269
▁노	-7.96624
o	-7.97243
였다	-7.97253
▁채	-7.97273
▁줄	-7.97551
력	-7.97631
▁선거	-7.97665
▁이날	-7.97773
▁m	-7.97993
▁시작	-7.9824
에도	-7.98353
체	-7.98656
토	-7.98964
자들	-7.99078
le	-7.99286
▁물	-7.99318
▁사망	-7.99574
▁번	-7.99784
▁w	-8.00178
▁발생한	-8.00196
▁소	-8.00458
▁장관	-8.00777
감	-8.00855
▁존	-8.0091
▁있을	-8.01011
▁국제	-8.0112
▁유럽	-8.01203
▁번째	-8.01342
학	-8.01428
피	-8.0144
▁발표했다	-8.02166
중	-8.02624
란	-8.02658
들에게	-8.02912
▁호	-8.02993
여	-8.03192
▁받고	-8.03392
▁of	-8.03687
▁받았다	-8.03975
▁당	-8.04387
▁미국의	-8.04791
▁관계자	-8.04913
연	-8.05056
법	-8.05187
하면서	-8.05238
▁타	-8.05816
경	-8.06064
▁리	-8.06084
▁다시	-8.06195
▁사람	-8.0665
무	-8.06735
군	-8.07172
동	-8.07367
▁예정	-8.07514
▁관계	-8.0761
▁스	-8.07731
▁그들	-8.08135
▁조치	-8.08206
되고	-8.08267
r	-8.08281
이며	-8.08579
▁발	-8.0882
▁된다	-8.08934
▁가운데	-8.08997
호	-8.09229
이나	-8.09472
터	-8.09503
하여	-8.09971
▁회사	-8.10225
였	-8.10333
면서	-8.10349
▁인	-8.10374
▁정보	-8.10416
▁이라	-8.10715
▁주장	-8.10753
▁사람들이	-8.1077
들의	-8.1083
입니다	-8.1093
▁간	-8.11001
버	-8.11039
t	-8.11046
루	-8.11182
길	-8.11342
키	-8.11364
금	-8.11573
▁주요	-8.12023
▁매	-8.12127
▁의해	-8.12527
습니다	-8.12591
▁아프간	-8.12692
부터	-8.12968
▁에서	-8.13077
▁어	-8.13232
▁사망했다	-8.1357
심	-8.13687
▁사용	-8.13938
▁아이	-8.13989
교	-8.14034
공	-8.14423
▁저	-8.14427
▁양	-8.14466
▁총	-8.14717
▁선	-8.14995
▁시위	-8.15058
▁첫	-8.15263
m	-8.15362
▁승리	-8.15691
▁보고	-8.16131
▁인해	-8.16399
▁입	-8.16582
에따라	-8.16592
▁in	-8.16718
▁차량	-8.16727
되어	-8.16848
ing	-8.16919
▁있었	-8.17044
▁대부분	-8.17206
ed	-8.17209
▁점	-8.17482
하지만	-8.17489
▁인도	-8.17548
▁하고	-8.18083
▁동	-8.18178
▁비난	-8.18322
측	-8.18773
▁포	-8.18905
▁생각	-8.18953
▁외	-8.19057
▁않은	-8.19107
k	-8.19157
재	-8.1917
▁기록	-8.19964
▁언론	-8.20171
▁독일	-8.20529
더	-8.20655
▁기자	-8.2077
처럼	-8.20832
▁이에	-8.2091
▁팔레스타인	-8.20984
▁p	-8.21014
▁탈레반	-8.21119
되었다	-8.21263
워	-8.21417
▁활동	-8.21495
포	-8.21675
▁협상	-8.2172
▁혐의로	-8.22006
▁tv	-8.22012
▁대학	-8.22195
n	-8.22318
▁열	-8.22463
▁지지	-8.22473
▁시장	-8.22507
▁지금	-8.22705
▁상원의원	-8.22889
▁됐다	-8.23177
▁프로그램	-8.23298
▁적	-8.23497
▁이미	-8.23497
설	-8.23509
▁연	-8.23534
g	-8.23556
▁반대	-8.23595
▁실	-8.23659
형	-8.23892
▁피해	-8.24017
b	-8.24156
▁대선	-8.24542
▁호주	-8.25245
종	-8.25272
▁요구	-8.25447
▁뉴욕	-8.25556
▁의원	-8.25687
er	-8.25745
▁합의	-8.25849
난	-8.26124
▁이슬람	-8.26148
▁우주	-8.26275
았다	-8.26275
했지만	-8.26348
▁감독	-8.26361
f	-8.26653
▁위치한	-8.26942
▁경	-8.26992
▁매우	-8.27105
위원회	-8.27172
민	-8.27174
▁인터넷	-8.27215
임	-8.27433
행	-8.27575
▁우려	-8.27613
그	-8.2776
▁보도	-8.28142
역	-8.28189
▁코	-8.2842
▁새	-8.28424
함	-8.28505
▁서	-8.2881
▁매케인	-8.28968
되지	-8.29065
▁최고	-8.29128
a	-8.29161
라는	-8.29195
돼	-8.29214
▁장	-8.29904
▁투표	-8.3005
▁부상	-8.30054
▁있다는	-8.30306
▁잘	-8.30342
▁소속	-8.30425
▁관리	-8.30429
▁없는	-8.30678
▁?	-8.30752
▁우	-8.3084
▁내용	-8.30994
▁추가	-8.31081
▁전쟁	-8.31137
▁c	-8.31451
▁km	-8.31496
들과	-8.31498
로부터	-8.31744
▁산	-8.31925
네	-8.31974
▁대표	-8.3219
▁방송	-8.32291
al	-8.32345
▁중단	-8.32426
▁보고서	-8.33095
▁오늘	-8.33106
품	-8.33221
발	-8.33282
▁않고	-8.33385
박	-8.33529
츠	-8.33674
▁집	-8.33776
데	-8.34069
▁위협	-8.34232
▁혐의	-8.34464
▁노력	-8.34614
든	-8.34626
건	-8.34654
너	-8.34741
▁한다고	-8.3476
▁포함	-8.34979
▁많	-8.35062
▁조지	-8.35171
됐다고	-8.35326
분	-8.35361
▁발생	-8.35654
▁석방	-8.35679
스트	-8.35699
▁기술	-8.35704
▁심	-8.35879
▁맞	-8.36558
▁joins	-8.36685
▁어떤	-8.36685
릴	-8.36771
▁년간	-8.36794
씨	-8.36894
▁f	-8.37032
▁정도	-8.37149
▁지적했다	-8.37323
▁올림픽	-8.37452
▁도시	-8.37656
▁이용	-8.37731
병	-8.37854
▁레	-8.38015
▁판매	-8.38092
▁단	-8.3821
▁평화	-8.38211
▁단체	-8.3822
▁곳	-8.38529
▁남부	-8.38577
된다	-8.38762
작	-8.38766
▁개발	-8.38896
급	-8.38962
청	-8.39017
▁인근	-8.3922
▁폭발	-8.39283
판	-8.39329
▁원문기사보기	-8.39396
▁감	-8.39407
론	-8.39478
i	-8.3953
이었다	-8.39759
▁페	-8.40182
▁때문	-8.40361
▁버	-8.40562
했었다	-8.40843
속	-8.40924
요	-8.40973
▁입장	-8.40987
▁정책	-8.41062
류	-8.41074
▁상태	-8.41413
▁개의	-8.41443
l	-8.41729
▁자동차	-8.42072
▁확인	-8.42715
▁없다고	-8.43382
▁영	-8.43477
통	-8.43552
ar	-8.43803
▁여러	-8.43922
▁날	-8.4409
▁연방	-8.44167
▁천	-8.44207
▁않는다	-8.44473
▁받은	-8.44543
▁준비	-8.44659
▁n	-8.4474
반	-8.45045
래	-8.45383
▁생산	-8.45538
두	-8.45893
▁김	-8.46112
색	-8.46113
▁못했다	-8.46142
▁건물	-8.46372
▁개월	-8.46467
▁가족	-8.46965
▁발생했다	-8.47106
합니다	-8.47755
▁이름	-8.47776
▁의회	-8.479
▁미얀마	-8.47999
▁박사	-8.48054
▁폭탄	-8.48072
▁메	-8.48128
▁남	-8.48307
▁표	-8.48358
▁검찰	-8.48427
▁치	-8.48443
▁사이	-8.48634
▁변화	-8.4891
저	-8.48912
▁하지	-8.48991
복	-8.49088
▁오후	-8.49115
▁해결	-8.49213
▁공화당	-8.49505
▁방법	-8.49547
▁금융	-8.49717
▁볼	-8.50123
▁ap	-8.50308
▁드	-8.50895
▁지도자	-8.50918
▁현	-8.51112
▁모습	-8.51263
▁않았	-8.51339
▁방	-8.51394
▁다음	-8.51398
하는데	-8.51546
출	-8.51569
하기로	-8.51716
▁차례	-8.5173
▁베	-8.5182
▁북한이	-8.52158
량	-8.52222
생	-8.52306
▁루	-8.52321
▁안전	-8.52582
▁행사	-8.52826
v	-8.52895
▁힐러리	-8.53269
▁인터뷰에서	-8.53331
음	-8.53355
▁손	-8.5337
▁남자	-8.53427
▁이어	-8.53518
▁아시아	-8.53753
▁의사	-8.5376
▁지구	-8.53918
울	-8.5402
▁않	-8.54034
w	-8.54059
▁병원	-8.54141
▁보호	-8.54344
▁증가	-8.54428
슨	-8.54438
▁주지사	-8.54506
료	-8.54825
▁컴퓨터	-8.5486
▁현지	-8.55004
▁팀	-8.55105
▁앞서	-8.55155
▁정치	-8.55238
▁앞으로	-8.55263
▁치료	-8.55343
▁있어	-8.5541
▁학교	-8.55433
▁특	-8.55435
▁북부	-8.55599
년	-8.55824
온	-8.55836
▁교수	-8.55924
▁이러	-8.55997
머	-8.5601
▁발견	-8.56035
▁사태	-8.56063
▁터키	-8.56179
▁g	-8.56215
▁백악관	-8.56245
▁친	-8.56366
▁올	-8.56425
▁건강	-8.5649
▁갖고	-8.5655
양	-8.56664
▁난	-8.5667
▁마지막	-8.56943
는데	-8.57085
범	-8.57292
▁강조했다	-8.57318
▁여행	-8.57324
▁본	-8.57497
▁나는	-8.57628
▁상승	-8.57878
져	-8.58013
▁금지	-8.58119
▁것에	-8.5816
▁반군	-8.58301
▁오전	-8.58377
▁떨어진	-8.58594
▁인쇄	-8.58594
▁거래	-8.58622
영	-8.58638
▁교	-8.58737
다고	-8.58833
▁경찰이	-8.58879
었던	-8.58995
테	-8.59134
▁상황	-8.59292
▁가진	-8.59336
개	-8.59844
석	-8.5994
▁진	-8.6001
▁b	-8.60211
증	-8.60241
▁종	-8.60469
▁논의	-8.60496
▁조직	-8.60583
▁연기	-8.6107
▁비난했다	-8.61117
졌다	-8.6115
설명	-8.61232
▁미국과	-8.61601
▁독해	-8.61606
▁스페인	-8.61734
▁야당	-8.6179
▁공개	-8.61809
▁요청	-8.61863
▁은행	-8.62053
지는	-8.62067
▁통신	-8.62071
▁납치	-8.6224
▁버락	-8.62245
an	-8.62293
▁규모	-8.62399
격	-8.6256
▁자신이	-8.62604
▁법	-8.62609
▁없	-8.62624
메	-8.62669
▁출신	-8.6274
▁토	-8.62783
▁원문	-8.628
▁최대	-8.63055
절	-8.63161
▁하나	-8.63166
▁행동	-8.63488
▁불법	-8.63545
▁살해	-8.63679
▁온	-8.63751
▁k	-8.63897
처	-8.63933
▁국민	-8.63951
▁오는	-8.63974
약	-8.64104
▁제공	-8.64261
▁골	-8.64432
먼	-8.64723
▁판결	-8.64734
▁e	-8.64843
▁마리	-8.64948
▁앞	-8.6498
하자	-8.65031
▁지난달	-8.65087
▁필요	-8.65166
▁생	-8.65186
림	-8.65271
하도록	-8.6536
▁서울	-8.65386
친	-8.65423
▁충돌	-8.65488
▁통	-8.6567
▁없었다	-8.65822
▁com	-8.65885
▁자금	-8.65959
언	-8.66049
▁용의자	-8.6619
으로부터	-8.6623
▁이탈리아	-8.66252
▁미국이	-8.66262
▁법원	-8.66372
▁좋은	-8.66767
▁자신	-8.66867
▁보내	-8.66877
▁무샤라프	-8.67025
▁유지	-8.67135
▁비행기	-8.67247
▁문	-8.6731
▁돈	-8.67352
▁있지만	-8.67864
or	-8.67915
▁최소	-8.67969
▁이를	-8.68052
▁d	-8.68225
▁영향	-8.68244
▁관한	-8.68268
▁출연	-8.68345
▁성공	-8.68423
▁for	-8.68442
해서	-8.68481
▁된	-8.68537
립	-8.68656
▁관	-8.68751
▁지역에서	-8.68855
▁아무	-8.68994
▁투자	-8.69
열	-8.69196
▁막	-8.69198
▁전문가들	-8.69267
렌	-8.69536
▁보인다	-8.69666
준	-8.69686
▁발사	-8.69798
▁이런	-8.69865
▁주둔	-8.69948
▁없이	-8.69948
▁공급	-8.69972
베	-8.70115
▁회장	-8.70132
▁사망자	-8.70172
▁들	-8.70292
탄	-8.70308
▁h	-8.70347
▁공동	-8.70528
▁re	-8.70716
▁애	-8.70873
▁팔	-8.70927
▁예	-8.7122
▁가지	-8.71248
▁미사일	-8.71435
▁검사	-8.71489
▁하루	-8.71612
▁미국은	-8.71683
▁전망	-8.71695
▁돌	-8.71749
투	-8.71797
▁사회	-8.71807
▁건	-8.71818
▁공식	-8.71865
h	-8.71893
▁정치적	-8.71949
▁지방	-8.71962
▁선수	-8.7197
▁수사	-8.72049
▁결	-8.72114
집	-8.72193
팀	-8.72258
▁무기	-8.72306
▁가격	-8.7239
날	-8.72459
▁런던	-8.7255
▁않다	-8.72584
▁가능성	-8.72771
▁관심	-8.72919
▁소식	-8.7317
▁코리아	-8.73181
▁놓	-8.7337
▁범죄	-8.73383
회사	-8.73385
한다고	-8.73423
▁인정	-8.73432
▁게임	-8.73459
▁진행	-8.73681
▁동영상	-8.73712
▁환경	-8.73722
▁역사	-8.73769
▁편	-8.73883
▁우승	-8.74007
▁야	-8.7407
st	-8.74261
▁평	-8.74277
▁못	-8.74435
▁중요한	-8.74455
▁행위	-8.74485
▁밤	-8.74772
▁이전	-8.74781
▁자유	-8.74978
▁시위대	-8.74995
▁박	-8.75104
▁언급	-8.75143
▁씨	-8.75296
▁artic	-8.75386
▁최초	-8.75393
es	-8.75478
▁보다	-8.75507
▁빌	-8.75607
▁la	-8.75721
▁되	-8.75788
▁군사	-8.75801
업	-8.75856
▁밀	-8.75981
▁나라	-8.76019
▁까지	-8.76261
▁하락	-8.76392
▁인질	-8.76508
▁알카에다	-8.76706
▁위험	-8.76768
혀	-8.77087
▁알려졌다	-8.77092
▁들어	-8.773
강	-8.77473
▁포인트	-8.77663
▁변	-8.77947
▁관계자들	-8.77951
▁발언	-8.78055
▁운동	-8.78459
▁법안	-8.78536
▁만명	-8.78596
▁걸	-8.78612
각	-8.78618
▁벌이	-8.78792
▁독립	-8.79123
▁대통령과	-8.79188
▁만에	-8.79287
추	-8.79303
었	-8.7934
▁바그다드	-8.7941
▁투	-8.79458
▁아이들	-8.79613
▁워싱턴	-8.79715
▁병력	-8.79753
▁남성	-8.79759
랜드	-8.79806
▁말했습니다	-8.79883
▁사진	-8.79913
▁이야기	-8.79998
▁속	-8.80087
본	-8.80091
받	-8.80203
▁특별	-8.803
▁자살	-8.80332
▁반면	-8.80521
en	-8.80608
▁년에	-8.80684
▁인용	-8.80718
퍼	-8.80764
▁것입니다	-8.80836
▁뉴스	-8.80955
졌	-8.81006
▁역할	-8.81078
입	-8.81121
긴	-8.81133
런	-8.81154
▁폐쇄	-8.81176
▁아버지	-8.81177
▁담	-8.81225
▁잠	-8.81273
▁고위	-8.81275
▁부토	-8.81312
▁과	-8.81383
▁딸	-8.81385
▁보안	-8.81411
표	-8.81416
▁참가	-8.81645
▁통과	-8.81692
▁회	-8.81812
▁주민들	-8.81871
되었	-8.81881
▁사망한	-8.81921
▁강화	-8.81965
▁직접	-8.82078
하면	-8.82101
자가	-8.82109
▁부족	-8.82112
▁여부	-8.82306
▁기업	-8.82417
락	-8.82525
시켰다	-8.82663
▁패	-8.82808
▁회의	-8.82826
▁예상	-8.82995
▁서비스	-8.83108
▁자신들	-8.83277
▁아들	-8.83414
▁일간	-8.83425
▁대해서	-8.8344
▁부인	-8.83658
on	-8.83815
▁와	-8.84028
겨	-8.84101
예	-8.84383
령	-8.84888
▁것이라는	-8.84987
▁지나	-8.84994
결	-8.85056
▁한나라당	-8.85128
▁불구하	-8.85223
있는	-8.85338
▁길	-8.85367
이라는	-8.85438
정부	-8.85438
▁높은	-8.85439
▁하마스	-8.85439
▁헤	-8.85496
▁국경	-8.8554
▁상원	-8.85708
▁기간	-8.8589
▁감소	-8.85908
▁위기	-8.85938
커	-8.85961
시킬	-8.86158
▁맥	-8.86342
▁의하면	-8.86445
주의	-8.86461
▁디	-8.86518
▁지난주	-8.8654
ic	-8.86542
사전	-8.86591
▁시도	-8.8661
▁재판	-8.8663
▁비행	-8.86676
▁항	-8.86946
▁의견	-8.87037
▁강력	-8.87108
▁가능성이	-8.87178
지역	-8.87358
▁요	-8.87497
▁별	-8.87518
▁확보	-8.8764
▁사업	-8.87757
하겠다고	-8.87774
후	-8.87854
쳐	-8.879
▁더욱	-8.87966
▁뜻	-8.87984
▁공항	-8.87984
▁전화	-8.88121
회의	-8.88167
합	-8.88258
▁변호사	-8.88513
▁전체	-8.88517
▁제작	-8.88739
하라	-8.88892
▁신문	-8.89123
른	-8.89175
▁알고	-8.89261
외	-8.89301
▁것이며	-8.89399
▁호텔	-8.89438
▁이제	-8.89668
▁죽	-8.898
▁베이징	-8.89803
▁아침	-8.90259
▁구조	-8.90355
▁캘리포니아	-8.90384
▁왔다	-8.90493
하던	-8.90713
▁지역에	-8.90717
레이	-8.90725
▁그것	-8.90908
▁이같	-8.91024
▁개인	-8.91037
▁제안	-8.91072
▁마련	-8.91217
▁주택	-8.91243
자인	-8.91268
▁각	-8.91319
하려	-8.91458
▁아니다	-8.91486
▁어제	-8.91714
▁필요한	-8.91735
▁크	-8.91801
▁핵무기	-8.91862
▁정상	-8.92076
갔다	-8.92206
▁추	-8.92433
▁korea	-8.92527
▁건설	-8.92561
▁철수	-8.92632
▁체포	-8.92865
▁갖	-8.93027
인들	-8.93047
▁전에	-8.9314
▁네	-8.93178
▁사르코지	-8.93197
렸다	-8.93274
▁j	-8.93279
▁내년	-8.93325
▁결혼	-8.93493
▁않는	-8.93554
목	-8.93633
▁티베트	-8.93872
▁마을	-8.93919
있다	-8.93938
▁이와	-8.93945
▁체	-8.93973
▁국회	-8.94014
▁받았	-8.94025
▁라이스	-8.94036
▁남편	-8.9423
▁석유	-8.94243
▁사람이	-8.94255
층	-8.94275
▁결국	-8.94286
ion	-8.94361
▁r	-8.94452
리는	-8.94566
▁만달러	-8.9457
었다고	-8.94599
▁취	-8.94804
▁아프가니스탄	-8.9483
▁폭탄테러	-8.94836
달	-8.94864
았	-8.95093
▁증거	-8.95277
▁해외	-8.95286
▁관련된	-8.95318
▁이유	-8.95334
매	-8.95441
▁기자회견에서	-8.95533
▁콜롬비아	-8.95578
▁시작했다	-8.95619
▁되는	-8.95741
▁선택	-8.95935
▁국방부	-8.95943
▁t	-8.95971
▁시신	-8.9616
평	-8.96322
▁교육	-8.96455
▁보였다	-8.96558
▁년대	-8.96588
▁생활	-8.96611
▁협력	-8.96616
▁도로	-8.96745
▁누	-8.96794
▁올라	-8.96835
▁아니라	-8.96886
▁키	-8.96962
▁브라운	-8.96966
▁인권	-8.97104
▁이동	-8.97241
케	-8.97269
▁노무현	-8.97314
등	-8.97372
re	-8.97386
▁폴	-8.97607
▁수행	-8.97645
▁and	-8.97704
▁작전	-8.97914
독	-8.97949
태	-8.9803
▁eu	-8.9812
▁억원	-8.98265
▁받을	-8.98272
▁에너지	-8.98371
이자	-8.98513
▁있고	-8.98529
▁재개	-8.9855
▁도착	-8.9862
▁타고	-8.99012
배	-8.99124
▁위해서	-8.99154
▁개최	-8.99184
▁거부	-8.99208
장을	-8.99215
▁소식통	-8.99467
▁연설	-8.99469
▁주변	-8.99527
▁시설	-8.99631
되	-8.99715
▁연합	-8.99741
렸	-8.99746
▁친구	-8.9975
리아	-8.99756
맨	-8.99795
▁아니	-9.00148
▁co	-9.00258
망	-9.00404
▁왕	-9.00407
▁목표	-9.00423
▁역시	-9.00599
ri	-9.00651
했을	-9.00733
단체	-9.00822
▁un	-9.00911
▁삼	-9.00925
▁대화	-9.01011
▁힘	-9.01036
▁동물	-9.01111
th	-9.01194
▁어떻게	-9.01243
▁측	-9.01351
장관	-9.01528
▁경쟁	-9.01606
기로	-9.01842
▁의장	-9.01843
링	-9.01974
자들이	-9.01985
▁년까지	-9.01998
▁수준	-9.02076
▁눈	-9.02194
de	-9.02298
▁음악	-9.02315
▁산업	-9.02437
▁열리는	-9.02465
▁위원회	-9.02472
▁직원	-9.02528
▁이유로	-9.02635
▁참석	-9.02975
기도	-9.03096
▁곧	-9.03168
▁못하	-9.03233
▁출전	-9.03412
▁판사	-9.03437
ation	-9.03439
▁아프리카	-9.03715
편	-9.0376
▁인도네시아	-9.03827
▁화요일	-9.03827
▁국무부	-9.03844
▁시스템	-9.04041
왔다	-9.04317
▁사건에	-9.04407
▁숨졌다	-9.04554
▁용	-9.04574
▁타임즈	-9.04578
▁쿠	-9.04713
살	-9.04717
▁스타	-9.04796
▁알리	-9.04816
▁참여	-9.04939
▁멕시코	-9.04954
▁훈련	-9.04954
▁데이비드	-9.04954
▁태국	-9.05044
▁잡	-9.05216
▁레바논	-9.05227
습	-9.05233
▁지명	-9.05258
▁대사	-9.05277
il	-9.05296
▁한국인	-9.05336
▁경선	-9.05439
축	-9.05537
▁문제에	-9.05591
갈	-9.05642
▁국	-9.05671
▁회복	-9.05741
▁경고	-9.05775
▁be	-9.05966
▁해안	-9.06101
족	-9.06175
▁여객기	-9.06478
하려는	-9.0653
▁대회	-9.06604
▁있게	-9.06693
▁기회	-9.06698
로서	-9.06729
▁대선후보	-9.06869
▁복	-9.06889
▁방안	-9.07029
in	-9.07366
▁악	-9.0741
▁배우	-9.0743
▁과학자들	-9.07633
▁말하는	-9.07658
▁성장	-9.07708
▁인구	-9.07807
▁승인	-9.07871
▁같다	-9.07892
▁테	-9.07971
▁원인	-9.08024
센터	-9.08155
▁행	-9.08157
례	-9.08195
▁대신	-9.08313
▁샤	-9.08475
▁수술	-9.08488
▁양국	-9.08506
▁사임	-9.08561
▁지도자들	-9.08576
▁있기	-9.08588
▁어린이	-9.08662
▁운영	-9.08748
▁전세계	-9.08759
폭	-9.08945
▁너무	-9.09035
▁만나	-9.09062
▁임무	-9.09221
▁대규모	-9.09222
▁정권	-9.09406
▁바로	-9.09478
▁폭력	-9.09639
▁무장	-9.09659
별	-9.09682
▁포기	-9.09805
▁허	-9.09822
율	-9.09864
되기	-9.10011
▁기대	-9.10031
현	-9.10112
▁생각한다	-9.10258
▁us	-9.10379
▁격	-9.10387
▁제품	-9.10496
▁주말	-9.10505
▁st	-9.10557
▁게	-9.1057
▁질	-9.1062
▁받아	-9.10662
▁월에	-9.10707
▁캐	-9.10709
▁중심	-9.10709
▁추락	-9.10811
▁사과	-9.10932
▁약속	-9.11066
▁갈	-9.11073
▁구성	-9.1117
▁북	-9.11185
▁파괴	-9.11206
▁비디오	-9.11215
▁요구했다	-9.11237
▁부분	-9.11321
▁학생	-9.11364
▁일정	-9.11444
▁저장	-9.11461
se	-9.11783
▁만원	-9.11864
▁화재	-9.11916
사를	-9.11944
▁여자	-9.1206
▁나타났다	-9.12079
탈	-9.12131
초	-9.12192
▁자리	-9.1223
▁빈	-9.12285
▁전투	-9.12364
▁약어표	-9.12409
▁앞두고	-9.12409
▁발견했다	-9.12434
▁대사관	-9.12464
▁비롯	-9.12824
▁민간인	-9.12827
▁정당	-9.13006
▁포함한	-9.13095
▁지수	-9.13145
▁몰	-9.13197
▁작업	-9.13236
▁책임	-9.13284
항	-9.13396
▁처	-9.13416
▁도움	-9.13479
잡	-9.13482
▁인간	-9.13494
▁감시	-9.13568
턴	-9.13593
▁심각한	-9.13617
▁로버트	-9.13652
▁행정부	-9.13685
▁국내	-9.13714
▁항공	-9.13782
사는	-9.13988
▁거리	-9.1403
▁억달러	-9.14061
▁것이라	-9.1409
말	-9.14148
ch	-9.14194
▁관할	-9.14196
승	-9.14228
▁극	-9.14273
▁칼	-9.14326
ro	-9.14439
▁아닌	-9.14498
기구	-9.14527
▁당신	-9.14753
플	-9.14754
▁작품	-9.14901
▁만들어	-9.14928
▁앤	-9.14939
▁넘	-9.14968
▁최	-9.15022
▁여전	-9.15121
▁위원장	-9.15449
으로써	-9.15462
▁선고	-9.15507
▁수단	-9.15688
▁콜	-9.15715
▁u	-9.1578
▁즉	-9.15805
▁태	-9.15872
▁그런	-9.15925
▁청	-9.16197
us	-9.16198
업체	-9.16208
▁주도	-9.16265
▁가자지구	-9.16567
▁온라인	-9.16569
▁라디오	-9.16584
▁수치	-9.16631
▁국가들	-9.16688
▁예정이라	-9.16706
▁실시	-9.16876
▁총격	-9.16933
▁총선	-9.16958
▁부부	-9.17051
▁퍼	-9.17064
▁의원들	-9.17102
▁경기에서	-9.17153
틀	-9.17299
▁부통령	-9.1742
▁홍콩	-9.1742
▁독	-9.17755
▁관리들	-9.17779
▁계약	-9.17866
▁수입	-9.17907
▁촉구했다	-9.1791
킨	-9.17996
록	-9.18031
▁얼마	-9.18202
▁찾아	-9.18238
▁면	-9.18252
▁가지고	-9.18267
▁퍼센트	-9.1828
▁무장세력	-9.18284
▁밝혀졌다	-9.18294
시켜	-9.18322
▁연료	-9.18332
스타	-9.18387
▁살고	-9.18457
▁내려	-9.18483
▁선정	-9.18488
▁명과	-9.18625
▁작은	-9.18713
▁그들의	-9.18873
▁벌	-9.18971
▁담당	-9.19012
▁암	-9.19052
환	-9.19142
▁마이클	-9.19149
▁헬기	-9.19448
액	-9.19567
엔	-9.19572
▁붕괴	-9.19585
▁규정	-9.19587
▁푸틴	-9.19589
▁최종	-9.19613
▁안보	-9.19622
▁파업	-9.19649
▁열차	-9.19678
▁과거	-9.19757
▁쓰	-9.19833
▁웹사이트	-9.19906
▁책	-9.19989
it	-9.20026
리스	-9.20094
▁안에	-9.20156
▁이상이	-9.20186
▁제재	-9.20214
▁주민	-9.20287
am	-9.20325
▁설치	-9.20521
▁근	-9.20524
▁인기	-9.20537
천	-9.20618
한다는	-9.20626
냈다	-9.20675
▁백	-9.20701
규	-9.20816
센	-9.20872
▁시험	-9.20954
빌	-9.20994
▁노동	-9.20996
▁서부	-9.21146
▁순	-9.21242
해왔다	-9.21265
근	-9.21271
▁국민들	-9.21387
백	-9.21465
▁문화	-9.21476
대로	-9.21524
▁기소	-9.21608
▁아기	-9.21637
▁입은	-9.21658
▁미국에서	-9.21693
▁참	-9.21794
▁브라질	-9.21798
▁개선	-9.21809
▁프로	-9.21824
▁증시	-9.21896
장이	-9.22044
▁광고	-9.2206
▁입었다	-9.22061
▁글	-9.22264
▁세금	-9.22519
▁농	-9.22618
▁캐나다	-9.22697
▁메시지	-9.22697
▁중동	-9.22748
▁말한다	-9.22761
▁주식	-9.2277
돌	-9.22828
▁미국인	-9.23043
남	-9.23172
▁엘	-9.23198
▁커	-9.23199
광	-9.23214
▁이것	-9.23345
시키는	-9.23346
▁플로리다	-9.23405
x	-9.23451
▁이라크에서	-9.23482
▁밝힌	-9.23603
▁어머니	-9.23603
▁차지	-9.2371
▁대의원	-9.23791
▁환자	-9.23954
▁통제	-9.24018
▁기념	-9.24057
▁부대	-9.24082
올	-9.24169
▁금	-9.24201
▁힐	-9.24224
▁만약	-9.24236
▁경고했다	-9.24284
술	-9.24293
▁외국인	-9.24351
튼	-9.24464
▁암살	-9.24531
▁가치	-9.24543
▁필요하다	-9.24565
▁다양	-9.24617
▁인수	-9.24651
▁석	-9.24653
▁대만	-9.24675
쿠	-9.24723
▁그들이	-9.24906
▁자회담	-9.25002
하겠다	-9.25034
▁외국	-9.25086
▁일반	-9.25099
▁단계	-9.25101
ra	-9.25233
혈	-9.25387
▁움직임	-9.25448
▁반응	-9.25457
▁나오	-9.25471
▁식량	-9.25482
사건	-9.25615
▁프리	-9.25795
▁동부	-9.2581
▁임명	-9.25944
자는	-9.25954
▁서로	-9.25954
▁파리	-9.25966
▁울	-9.26051
ce	-9.26114
앙	-9.26222
변	-9.26287
▁했다고	-9.26349
▁케냐	-9.2638
▁on	-9.2639
관계	-9.2644
▁밝히	-9.26462
▁지지자들	-9.26497
▁밝혔	-9.26556
▁벌였다	-9.26649
▁발표한	-9.26696
▁섬	-9.26698
▁관계자가	-9.26828
▁국무장관	-9.26847
▁중인	-9.26929
▁비해	-9.2696
▁사랑	-9.27371
▁나이	-9.27429
향	-9.27437
▁탄	-9.27464
▁강제	-9.27545
줄	-9.27553
창	-9.27615
들에	-9.27641
▁없을	-9.27715
li	-9.27775
▁스미스	-9.27791
▁소송	-9.27817
▁지불	-9.27841
▁de	-9.27854
능	-9.27981
▁장소	-9.28023
▁선언	-9.28077
▁식	-9.2815
un	-9.28153
▁여명	-9.28173
▁시즌	-9.28249
▁쇼	-9.28265
▁짐바브웨	-9.28266
▁실험	-9.28283
▁병	-9.28289
하다고	-9.28357
▁진압	-9.28478
랜	-9.28482
▁수출	-9.28519
▁같이	-9.28742
la	-9.28785
클	-9.28809
▁국영	-9.28879
▁공연	-9.28895
▁전달	-9.28974
▁돌아	-9.29029
▁위성	-9.29039
시키기	-9.29122
▁기관	-9.29199
▁사무총장	-9.29225
▁취소	-9.29333
▁위반	-9.29358
▁하원	-9.29363
▁머리	-9.29384
▁폭	-9.29388
▁살인	-9.29485
북	-9.295
▁내렸다	-9.29543
▁시아파	-9.2971
▁관광	-9.29721
슬	-9.29736
▁여름	-9.29743
▁가스	-9.29789
▁비용	-9.29868
▁명령	-9.29928
▁밖에	-9.30086
엄	-9.30191
칭	-9.30194
▁추진	-9.30295
▁상당	-9.30302
▁목적	-9.30312
▁기록했다	-9.30313
▁제한	-9.30483
겼다	-9.30551
시키	-9.30765
▁감염	-9.30832
때	-9.30837
▁귀	-9.30851
▁위치	-9.30904
▁창	-9.31045
▁여론조사	-9.31097
샤	-9.31098
ut	-9.31153
▁접근	-9.31181
▁평균	-9.31183
▁각각	-9.31195
▁선출	-9.3124
▁제기	-9.31266
▁탈	-9.31349
▁권리	-9.31417
장에서	-9.31478
▁년부터	-9.31511
이어	-9.31575
▁음식	-9.31692
▁무역	-9.31799
▁해군	-9.3193
검	-9.32126
힌	-9.32159
▁신고	-9.32466
▁텍사스	-9.32471
적이	-9.32534
협회	-9.32624
쉬	-9.32626
▁전국	-9.32646
폐	-9.32647
▁교황	-9.32669
▁이수지	-9.32679
▁않아	-9.32724
▁일본의	-9.32746
▁인상	-9.32753
거리	-9.32842
▁다리	-9.32883
▁향	-9.32935
▁사원	-9.33004
▁외교	-9.3312
▁헌법	-9.33172
니다	-9.33174
▁소녀	-9.33184
▁승	-9.33248
책	-9.33337
▁숨	-9.33339
▁버스	-9.33373
▁광	-9.33415
▁처리	-9.33422
ta	-9.33471
▁학생들	-9.33476
▁출	-9.33505
▁배치	-9.3357
글	-9.33597
애	-9.33613
▁수상	-9.33699
▁구속	-9.33766
▁나온	-9.33796
밀	-9.3392
ne	-9.33952
흐	-9.34161
▁파병	-9.34273
▁과정에서	-9.34291
▁사형	-9.34358
▁제시	-9.34493
▁축구	-9.34548
▁사이에	-9.34634
째	-9.34634
페	-9.34655
시간	-9.34659
▁내무부	-9.34672
▁결의안	-9.34677
▁걸쳐	-9.34697
▁사건이	-9.34743
▁시리아	-9.34792
까	-9.34845
블	-9.3487
▁목	-9.34907
시키고	-9.34917
▁의미	-9.35144
▁상황이	-9.35147
누	-9.35193
▁제조	-9.35211
허	-9.3523
▁희망	-9.35325
▁부모	-9.35392
▁절	-9.35507
▁설명	-9.35577
▁완전	-9.35596
▁슬	-9.35632
▁설립	-9.35708
앞서	-9.35773
▁차이	-9.35778
▁터	-9.35952
▁아내	-9.3606
▁미래	-9.36104
▁항공사	-9.36173
▁발견됐다	-9.36219
슈	-9.36299
▁집중	-9.36304
▁자료	-9.36376
▁이곳	-9.36389
▁긴장	-9.36445
▁것과	-9.36459
▁평가	-9.36523
몬	-9.36529
원들	-9.3654
▁센터	-9.36593
염	-9.36633
▁파견	-9.36761
el	-9.36862
익	-9.36883
▁합의했다	-9.36902
▁교회	-9.36954
▁발전	-9.3698
▁안정	-9.37136
▁북핵	-9.37251
▁유일	-9.37287
▁허용	-9.37309
▁빨	-9.37322
is	-9.37383
▁고려	-9.37487
▁대상으로	-9.375
▁대비	-9.37523
▁주재	-9.3763
▁온몸	-9.37773
▁개혁	-9.37774
▁논쟁	-9.37775
▁후세인	-9.37776
▁죽음	-9.37805
▁수요일	-9.37814
▁사퇴	-9.37829
▁그룹	-9.37832
▁인물	-9.38198
▁항의	-9.38217
▁이집트	-9.38301
▁시카고	-9.38303
▁학	-9.38305
있	-9.38307
▁혼란	-9.38327
ti	-9.38357
▁기사	-9.38439
빈	-9.38443
▁촬영	-9.38456
▁대가	-9.38496
▁개국	-9.38673
▁당선	-9.38777
▁증	-9.38782
번	-9.3881
▁바란다	-9.38832
▁바이러스	-9.38832
▁l	-9.38857
▁수감	-9.38901
▁마약	-9.38949
엘	-9.38961
중인	-9.39019
▁소유	-9.3906
▁뇌	-9.39066
▁권	-9.39112
▁베네수엘라	-9.39361
▁성폭행	-9.39361
▁익명	-9.39362
▁환영	-9.39373
었습니다	-9.3938
▁알려진	-9.39389
▁야후	-9.39391
▁대응	-9.39392
▁압력	-9.39397
▁구매	-9.39426
▁홀	-9.39541
하였다	-9.39563
▁되어	-9.3966
▁정신	-9.39663
▁불만	-9.3967
▁역	-9.39931
▁공습	-9.39957
▁집회	-9.40043
▁교통	-9.40099
시아	-9.40158
▁주간	-9.40238
lo	-9.40359
▁기상캐스터	-9.40433
▁발견된	-9.40436
▁질문	-9.40476
▁상대로	-9.40515
담	-9.40695
▁곳에서	-9.40747
▁형	-9.4087
▁주가	-9.40931
동안	-9.40934
▁로마	-9.40938
▁차베스	-9.40974
▁결정했다	-9.41017
▁관해	-9.41027
스터	-9.41075
▁마치	-9.41083
▁집단	-9.41127
▁기지	-9.41193
착	-9.41327
쳤다	-9.4135
▁일까지	-9.41459
낼	-9.41471
▁심장	-9.41515
▁민주주의	-9.41527
▁끝	-9.41533
▁표현	-9.41546
▁여론	-9.41622
▁교전	-9.41752
▁해리	-9.41795
▁팬들	-9.41861
et	-9.41866
▁받는	-9.41936
▁슈	-9.41954
▁계	-9.42124
▁나가	-9.4213
▁남한	-9.42133
ent	-9.42169
▁임시	-9.42173
랑	-9.42286
▁이래	-9.42396
▁크게	-9.42834
▁신원	-9.42854
▁왕자	-9.42866
▁is	-9.42905
▁받지	-9.42974
▁대변인이	-9.43036
움	-9.43101
냐	-9.43155
▁일어나	-9.43178
▁밝혔습니다	-9.432
▁유명	-9.43234
▁예상된다	-9.43341
▁요청했다	-9.43471
▁사이트	-9.43526
▁되었다	-9.43636
지도	-9.43636
▁보여주	-9.43682
▁보수	-9.43698
▁복귀	-9.43729
▁철	-9.43748
▁깊	-9.43835
▁사령관	-9.43902
▁때까지	-9.43914
▁변호사는	-9.44003
▁판	-9.44077
me	-9.44123
ss	-9.44166
▁폭력사태	-9.44284
po	-9.44285
▁누구	-9.44349
기관	-9.4435
하기도	-9.44443
▁접	-9.44483
▁자체	-9.44539
▁유권자들	-9.44558
na	-9.44649
▁탑승	-9.44683
▁인터뷰	-9.44687
▁업체	-9.44691
▁이해	-9.447
▁실패	-9.44701
▁시민	-9.4471
▁십	-9.44715
▁비밀	-9.44732
▁부상했다	-9.44767
▁고통	-9.44784
▁목요일	-9.44841
▁분쟁	-9.44872
▁모델	-9.44877
▁쿠바	-9.44926
▁허가	-9.44934
▁휴	-9.44936
▁사실이	-9.44984
▁경찰에	-9.45086
칠	-9.45105
▁유로	-9.45107
름	-9.4529
▁선수들	-9.45333
▁교도소	-9.45407
▁한반도	-9.45408
▁최악	-9.45414
▁무장단체	-9.45424
▁가정	-9.45441
▁권력	-9.4548
▁브	-9.45687
으로서	-9.45689
드는	-9.45707
▁내리	-9.45754
▁있지	-9.45784
▁고용	-9.45901
▁마크	-9.45914
욕	-9.4593
▁따른	-9.45988
시장	-9.46051
▁의료	-9.4607
▁아니라고	-9.46192
당국	-9.46202
▁su	-9.46345
▁일부터	-9.46347
되었습니다	-9.46459
▁남북	-9.46476
갔	-9.46498
ve	-9.4651
▁연결	-9.46597
▁따	-9.466
▁보건	-9.466
▁거대	-9.46601
▁강한	-9.46661
ly	-9.46747
▁바다	-9.46793
▁도움이	-9.4682
▁장면	-9.46929
▁ac	-9.46954
럼	-9.4705
▁한다는	-9.47084
▁검토	-9.47122
▁따라	-9.47148
▁세력	-9.47215
▁받게	-9.47223
▁완	-9.47371
▁임기	-9.47451
▁수색	-9.47471
채	-9.47514
▁상대	-9.47534
ol	-9.47561
▁칸	-9.47632
션	-9.47678
▁동료	-9.47681
▁높이	-9.47699
▁필리핀	-9.47699
▁흑인	-9.47699
이었	-9.47744
▁적어	-9.47751
▁과정	-9.47849
▁즐	-9.47892
▁비판	-9.4793
▁급	-9.48007
ca	-9.48063
▁전시	-9.48067
람	-9.48114
▁사라	-9.48155
텔	-9.48208
▁nasa	-9.4828
▁제임스	-9.48281
▁일요일	-9.48281
▁사무실	-9.48299
▁예측	-9.48342
▁분석	-9.48348
▁매년	-9.48356
▁월요일	-9.48382
사가	-9.48426
▁웨	-9.48454
▁어려	-9.48475
▁중국은	-9.48547
▁내부	-9.48678
침	-9.4869
벌	-9.4878
념	-9.48809
컵	-9.48861
▁소년	-9.48956
▁범인	-9.48964
▁있음	-9.4902
▁상원의원이	-9.49135
▁시행	-9.49144
▁두고	-9.49164
▁정부와	-9.49262
델	-9.49335
▁가능한	-9.49378
▁분야	-9.49384
▁벤	-9.49386
펠	-9.49445
▁사우디	-9.49453
▁선박	-9.49552
▁못한	-9.49577
▁여사	-9.49596
▁들어가	-9.49651
되면서	-9.4972
▁대중	-9.49839
▁밝혀	-9.49868
▁황	-9.49931
▁라이	-9.49961
리자	-9.49985
▁가졌다	-9.50021
총	-9.50047
▁긴급	-9.50062
▁어느	-9.50064
▁거주	-9.50086
▁지진	-9.50097
▁진출	-9.50099
▁항공기	-9.50151
▁시간이	-9.50309
▁나왔다	-9.50336
▁입원	-9.50346
▁사람들을	-9.50407
▁병사	-9.50498
▁자세	-9.50519
손	-9.50573
▁언급했다	-9.50632
▁오른	-9.50734
▁오르	-9.50805
▁떠나	-9.50806
▁달리	-9.50903
은행	-9.51045
▁화	-9.51106
▁밝히지	-9.51127
▁사항	-9.51164
▁공격으로	-9.5117
▁폐	-9.51204
찬	-9.51217
다면	-9.51223
▁보여	-9.5123
▁작년	-9.5126
▁플	-9.51262
▁선두	-9.51328
▁적이	-9.51339
▁넣	-9.51456
id	-9.51529
자금	-9.51542
▁보냈다	-9.51575
▁수익	-9.51632
▁되고	-9.51643
퇴	-9.5171
▁시기	-9.51737
낸	-9.51839
▁나머지	-9.51842
▁떠	-9.51843
▁이끄는	-9.51848
학자	-9.51883
▁희생자	-9.51903
수가	-9.51953
▁확인했다	-9.51988
▁인질들	-9.52101
자로	-9.52119
▁종교	-9.52149
▁영어	-9.52207
겠다	-9.52258
▁ba	-9.52386
스톤	-9.52412
▁구체적	-9.52475
▁순간	-9.52534
만이	-9.52597
레스	-9.5262
▁사람들에게	-9.52633
▁중앙	-9.52634
▁명으로	-9.5266
▁향해	-9.52686
sa	-9.52719
▁넘어	-9.5278
▁육	-9.52954
스가	-9.5299
▁이라크전	-9.53066
▁진행되	-9.53078
▁국립	-9.53088
▁북한에	-9.53117
킹	-9.53123
▁약물	-9.53166
▁심리	-9.53236
▁부상자	-9.53288
▁올랐다	-9.53294
▁작	-9.53319
찰	-9.53347
▁관광객	-9.53482
폰	-9.53638
▁제거	-9.53667
▁비슷	-9.53671
▁빠져	-9.53671
▁전력	-9.5368
▁군대	-9.53751
▁정말	-9.53752
기가	-9.53806
▁전기	-9.53818
▁바라	-9.53823
자와	-9.53824
▁대피	-9.53887
▁노조	-9.53889
거래	-9.53902
▁일자리	-9.53948
좌	-9.54275
성이	-9.54281
▁싶다	-9.54288
▁잘못	-9.54294
▁충격	-9.54302
▁맺	-9.54317
볼	-9.54364
▁소재	-9.54427
▁가져	-9.54668
▁사는	-9.54709
로운	-9.54748
▁현대	-9.54753
▁과학	-9.54828
▁직원들	-9.54906
▁도쿄	-9.54909
딘	-9.54909
▁다음달	-9.54945
▁양측	-9.55025
▁작가	-9.55038
▁소리	-9.55089
것	-9.55285
▁감사	-9.55366
▁막기	-9.55443
셔	-9.55533
▁목숨	-9.55535
▁정상회담	-9.55541
문제	-9.55551
▁후에	-9.55592
▁혼	-9.55617
충	-9.55679
▁착륙	-9.55719
▁수십	-9.55748
송	-9.55804
▁제출	-9.55842
▁만든	-9.5586
ment	-9.55974
▁계획이	-9.55988
불	-9.56079
▁만큼	-9.56151
랄	-9.56157
▁숨지고	-9.56166
헌	-9.56296
▁하기	-9.56311
▁올리	-9.5654
조사	-9.56613
▁총기	-9.56729
▁주장하고	-9.56767
▁허리케인	-9.56796
▁국방장관	-9.56801
▁수천명	-9.56846
tal	-9.56908
ers	-9.56956
릭	-9.56957
▁자연	-9.57073
▁유권자	-9.5712
벨	-9.57229
▁직	-9.57256
▁미군이	-9.57341
▁소말리아	-9.57433
▁어떠한	-9.57433
▁질문에	-9.57445
스크	-9.57458
▁집행	-9.57562
▁합	-9.57667
▁악화	-9.57669
▁저지	-9.57679
▁장기	-9.57691
▁id	-9.57869
마다	-9.57973
▁경찰관	-9.57982
인들이	-9.58037
▁동의	-9.58079
▁왜	-9.58119
▁근무	-9.58121
봉	-9.58193
▁여기	-9.582
▁제외	-9.58216
▁마음	-9.58237
▁부정	-9.5824
섬	-9.58274
▁소비자	-9.58406
행위	-9.58439
▁분기	-9.58467
▁o	-9.58499
▁푸	-9.58531
▁군부	-9.58588
왔	-9.58655
곤	-9.58676
한다면	-9.58692
▁자국	-9.58709
▁확대	-9.58719
▁출발	-9.58752
골	-9.588
▁물론	-9.58835
기간	-9.5885
▁공공	-9.58907
▁법정	-9.58909
▁위로	-9.59239
▁붙	-9.59253
▁끝에	-9.59276
da	-9.5928
▁외무부	-9.59368
▁패배	-9.59395
▁뛰어	-9.59417
▁보낸	-9.59417
▁당선인	-9.59636
ts	-9.5968
▁보장	-9.59726
이라	-9.5973
▁불안	-9.59854
▁뿐	-9.59992
스러운	-9.60003
▁폭풍	-9.60029
녀	-9.6012
인한	-9.60137
리고	-9.60238
▁여당	-9.60356
▁공장	-9.60384
국가	-9.60578
▁작업을	-9.60614
▁가까	-9.60672
▁접촉	-9.60683
▁바이	-9.60699
▁증언	-9.60703
▁넘는	-9.60707
쳤	-9.60715
▁곳에	-9.60751
▁사장	-9.60761
▁an	-9.60803
패	-9.60853
▁뉴	-9.60885
▁그린	-9.60941
이지만	-9.61037
되며	-9.61074
▁여성이	-9.6109
▁수천	-9.61138
▁달러에	-9.61147
▁존스	-9.61216
ia	-9.61277
지에	-9.61301
▁끌어	-9.61342
▁홍보	-9.61346
▁베컴	-9.61351
▁로켓	-9.61368
▁의혹	-9.61378
▁동결	-9.61429
▁지배	-9.61469
▁찰스	-9.61472
▁유명한	-9.61479
견	-9.6149
▁묻	-9.6156
▁전자	-9.61637
om	-9.61735
op	-9.61824
▁민	-9.61864
겠다고	-9.61964
▁프로젝트	-9.62009
▁모른다	-9.62009
▁fbi	-9.62016
▁압박	-9.62025
▁유죄	-9.62038
▁중에	-9.62217
▁되지	-9.6222
▁이달	-9.6239
▁준	-9.62419
▁지속	-9.62437
▁발생해	-9.62541
▁엔	-9.62545
▁확신	-9.62635
▁mo	-9.62642
▁입고	-9.62669
씩	-9.6268
▁목소리	-9.6268
▁신뢰	-9.62682
▁능력	-9.62684
▁어려움	-9.62689
▁i	-9.6269
▁고문	-9.62729
▁출마	-9.62762
▁자녀	-9.62764
▁전문가	-9.62839
▁아베	-9.62871
▁법적	-9.63024
▁이란이	-9.63202
▁듯	-9.63278
▁관련해	-9.63293
롭	-9.63314
▁티	-9.63335
▁외무장관	-9.63356
▁휴대폰	-9.63358
▁경매	-9.63408
▁완화	-9.63437
▁사상	-9.63443
▁바람	-9.63451
비아	-9.63464
▁작성	-9.63467
▁승객	-9.63494
▁아마	-9.63634
▁타이	-9.63673
▁세기	-9.63723
▁모르	-9.6378
▁유세	-9.63846
▁아주	-9.63855
▁연구소	-9.63924
▁방문한	-9.6402
▁korean	-9.64035
ir	-9.6406
▁인사	-9.64192
▁구호	-9.64198
▁사진을	-9.64233
▁피해자	-9.64295
▁as	-9.64304
▁크리스	-9.64304
▁지도자인	-9.64319
▁con	-9.64418
서는	-9.64497
▁레이	-9.64629
▁연장	-9.64688
춘	-9.6469
▁시상식	-9.64721
▁취임	-9.64727
▁국제사회	-9.64749
▁여왕	-9.64751
▁최고의	-9.64869
▁경험	-9.65009
▁동원	-9.65056
▁주의	-9.65106
▁병원에	-9.65253
▁필	-9.65299
▁왔	-9.65317
▁망명	-9.65444
▁평양	-9.65458
▁총재	-9.65537
▁오래	-9.65611
▁끝나	-9.65623
▁진정	-9.6563
▁서명	-9.65641
취	-9.65745
▁사기	-9.65809
▁대법원	-9.65871
▁여명이	-9.65874
▁해야	-9.65926
▁주민들이	-9.65928
▁가족들	-9.66026
▁지하	-9.66031
▁걱정	-9.66105
▁게이츠	-9.66106
▁기억	-9.66126
▁절차	-9.66155
기에	-9.66226
▁경제적	-9.66236
▁존재	-9.66251
▁것인지	-9.66289
▁적용	-9.66306
▁술	-9.66486
▁공군	-9.66505
해졌다	-9.66521
▁카메라	-9.66552
▁현장	-9.66679
▁젊은	-9.66728
닝	-9.66804
▁청와대	-9.66805
▁pro	-9.66842
▁머물	-9.66855
▁가질	-9.66864
▁심각	-9.66899
▁전문	-9.66971
▁백만	-9.66978
▁촉구	-9.66995
▁없었	-9.67091
▁군인	-9.67109
z	-9.67203
▁그리스	-9.67401
▁정부에	-9.6744
빙	-9.67453
▁이라크에	-9.67456
▁받	-9.67499
▁말레이시아	-9.67508
▁소비	-9.67509
▁트럭	-9.67514
▁애플	-9.67537
▁불리	-9.6756
▁월부터	-9.67577
▁카운티	-9.67584
▁등록	-9.67644
▁목표로	-9.67715
▁효과	-9.67761
▁없어	-9.67775
▁머	-9.67886
당한	-9.67919
ter	-9.67974
헤	-9.6804
j	-9.68044
▁체포됐다	-9.68167
희	-9.68186
▁힐튼	-9.68233
▁아랍	-9.68252
▁ma	-9.68289
▁해제	-9.68301
▁숨진	-9.68314
ll	-9.6836
▁옷	-9.68429
▁선거에서	-9.68499
▁반대하는	-9.68543
▁이전에	-9.686
통신	-9.68787
방송	-9.68792
관리	-9.6883
싼	-9.68932
▁느끼	-9.68936
▁투입	-9.6897
▁연속	-9.69031
인지	-9.69096
at	-9.69117
▁수석	-9.69222
▁at	-9.69223
압	-9.69336
▁추정	-9.69347
▁한미	-9.69442
제도	-9.69504
했는데	-9.69516
as	-9.6956
▁마드리드	-9.69651
▁코소보	-9.69651
▁법률	-9.69685
▁상징	-9.69695
▁케	-9.69765
▁만들	-9.698
▁le	-9.69907
▁전략	-9.69916
▁자주	-9.69934
▁운전	-9.69948
▁부문	-9.69992
▁비상	-9.70223
ver	-9.70231
톤	-9.70255
아니라	-9.70263
▁스포츠	-9.70376
▁크리스마스	-9.70376
▁나타나	-9.70377
▁스위스	-9.70377
드로	-9.70385
▁오픈	-9.70406
▁단지	-9.70428
▁최신	-9.70441
pe	-9.7047
▁기자들	-9.70502
▁수용	-9.70589
▁세트	-9.70735
▁박물관	-9.70774
니스	-9.70781
순	-9.70817
▁보기	-9.70824
트리	-9.7083
▁bo	-9.70832
▁해당	-9.709
안에	-9.709
▁구제	-9.7094
활동	-9.71028
균	-9.71088
▁잉글랜드	-9.71106
웰	-9.71106
▁몇몇	-9.71106
▁신화통신	-9.71108
럽	-9.7111
스와	-9.71159
▁약간	-9.71233
▁피터	-9.71299
tp	-9.71347
▁fa	-9.71444
▁굴	-9.71461
▁가량	-9.7149
▁매일	-9.71537
▁보이는	-9.71539
▁그러	-9.71546
킬	-9.71617
▁맡	-9.71706
▁고래	-9.7174
철	-9.71761
▁챔피언	-9.71841
▁수니파	-9.71843
▁함	-9.71876
▁부패	-9.71907
도시	-9.71909
▁판단	-9.71915
▁마무리	-9.71937
▁신청	-9.72006
해주	-9.7207
▁소장	-9.72084
▁확산	-9.72108
▁도중	-9.72115
▁수백	-9.72252
▁영상	-9.72263
▁윌리엄	-9.72279
▁들고	-9.7231
하였	-9.72332
▁동시	-9.72371
숙	-9.72527
팅	-9.72582
▁세르비아	-9.72582
▁ms	-9.72583
▁밝혀지지	-9.72583
▁bbc	-9.72588
▁운행	-9.72594
▁고양이	-9.72606
▁피트	-9.72622
▁마일	-9.72666
▁도전	-9.72683
▁비자	-9.72772
▁연합군	-9.72774
▁본부	-9.72883
▁차기	-9.7295
▁대형	-9.72976
시설	-9.73092
▁버지니아	-9.73127
ma	-9.73158
▁헬	-9.73179
▁강조	-9.73187
▁회담에서	-9.73225
▁다이애나	-9.73251
징	-9.73254
▁정부군	-9.7327
컨	-9.73328
싱	-9.73328
▁블레어	-9.73328
▁얼굴	-9.73329
▁시작된	-9.7338
▁찬성	-9.73432
해진	-9.73469
▁집계	-9.73527
▁물질	-9.73555
▁나토	-9.7357
▁조건	-9.73653
▁기상	-9.73656
전에	-9.73714
▁임	-9.73833
▁가수	-9.73867
▁new	-9.73953
드리	-9.73964
▁pa	-9.74022
쇼	-9.74077
▁올메르트	-9.7408
젠	-9.7408
▁스스로	-9.74088
연합	-9.74105
▁벌금	-9.74133
▁휴전	-9.74197
▁집권	-9.74199
▁데이	-9.74209
▁노래	-9.7421
▁억류	-9.74222
▁베이	-9.7423
▁시대	-9.74273
▁무사	-9.74317
▁대처	-9.74337
▁분노	-9.74394
▁전통	-9.74421
▁전까지	-9.746
갑	-9.74737
▁위에	-9.74766
닐	-9.74837
▁오랫동안	-9.74838
▁협정	-9.74838
▁할리우드	-9.74838
▁탁신	-9.74838
▁비상사태	-9.74841
▁임신	-9.7488
▁연설에서	-9.74898
▁트	-9.74922
▁구입	-9.74945
▁외교부	-9.74967
▁핵심	-9.75022
▁수정	-9.75038
로써	-9.75075
틴	-9.75156
▁수반	-9.75326
▁난민	-9.75387
▁가능	-9.75397
존	-9.75446
▁실수	-9.75455
▁여성들	-9.7549
▁빠른	-9.75601
▁아파트	-9.75602
▁이와같	-9.75611
궁	-9.75642
▁확실히	-9.75706
▁나무	-9.75708
▁축하	-9.75847
▁se	-9.7585
▁클	-9.75851
시킨	-9.75921
▁병원에서	-9.7598
▁사상자	-9.7601
났	-9.7609
악	-9.76304
▁전반	-9.76319
대한	-9.76329
▁겪고	-9.7637
▁그렇게	-9.7637
▁클럽	-9.76377
▁직후	-9.7639
ational	-9.76421
▁쥐	-9.76454
주의자	-9.76519
베이	-9.7653
▁경계	-9.76592
▁영국의	-9.7674
국장	-9.76754
지르	-9.76772
▁마감	-9.76783
▁문서	-9.76802
▁프레	-9.76854
극	-9.76987
▁있는지	-9.76998
▁찬	-9.77065
▁성인	-9.77108
▁놀	-9.77121
▁cat	-9.77131
▁협의	-9.77145
픽	-9.77145
놓	-9.7715
▁담배	-9.77178
▁수백명	-9.77201
▁늘	-9.77212
▁개봉	-9.77236
으려	-9.77294
▁마르	-9.77319
▁동맹	-9.77336
▁깨	-9.77352
▁모여	-9.77356
▁ch	-9.77499
▁놀라	-9.77534
▁돌아가	-9.77564
▁실제	-9.77571
험	-9.77644
▁블	-9.77683
운동	-9.77728
스키	-9.77729
십	-9.77766
황	-9.77781
젤	-9.77927
▁크리스토퍼	-9.77927
▁이르	-9.77937
▁산불	-9.77958
▁감축	-9.77975
불어	-9.78009
▁오랜	-9.78026
▁수백만	-9.78029
접	-9.78035
▁풀	-9.78089
▁화성	-9.78098
▁조작	-9.78149
▁원조	-9.78241
지수	-9.78273
▁선포	-9.78286
▁체포했다	-9.78409
웠다	-9.78412
ld	-9.78484
ight	-9.78603
▁맞아	-9.78626
롤	-9.78702
▁아카데미	-9.78714
▁이밖에	-9.78714
▁샤리프	-9.78714
▁업무	-9.78717
▁처벌	-9.78729
▁원자로	-9.78775
▁확실	-9.78837
▁나와	-9.78904
▁주일	-9.78927
▁조금	-9.79005
▁군인들	-9.79015
▁의심	-9.79019
했는지	-9.79051
▁장군	-9.79084
제를	-9.79094
▁유사	-9.79111
만한	-9.79134
산업	-9.79157
들도	-9.79176
▁대책	-9.79184
득	-9.79323
▁알게	-9.79353
▁요원	-9.79422
럴	-9.7947
▁민병대	-9.79508
▁스피어스	-9.79508
▁우크라이나	-9.79508
▁떨어져	-9.79508
▁빠르	-9.79509
▁팬	-9.79541
▁지지율	-9.79562
man	-9.79567
▁결론	-9.79576
▁현상	-9.79611
▁노출	-9.79637
▁이틀	-9.79657
▁견	-9.79737
▁알려지	-9.79738
▁내각	-9.7975
공격	-9.79782
▁윌리엄스	-9.79833
▁분명	-9.7988
▁북한과	-9.79914
만에	-9.79961
▁실시된	-9.80005
▁송	-9.80113
▁보안관	-9.80121
▁납	-9.80145
▁프	-9.80194
▁차지했다	-9.80234
겐	-9.80308
▁iaea	-9.80308
▁보이고	-9.80318
▁절반	-9.80343
▁소지	-9.80349
▁사망하	-9.80354
▁개정	-9.80358
▁나타냈다	-9.80389
▁민간	-9.80575
하길	-9.8061
▁죄	-9.80625
▁초기	-9.80706
▁주년	-9.80713
▁설	-9.80721
▁지도	-9.80754
▁당했다	-9.80775
▁충	-9.80861
▁보좌관	-9.8096
▁됐	-9.80989
▁조정	-9.80995
▁만명이	-9.81041
장에	-9.81073
▁높다	-9.81114
▁무가베	-9.81116
▁실종	-9.81116
▁일어난	-9.81117
▁월드컵	-9.81119
▁cia	-9.81147
▁배럴	-9.81153
▁블로그에	-9.81174
치는	-9.81179
▁날씨	-9.81208
▁성적	-9.81247
▁목사	-9.81249
▁고속도로	-9.81294
▁개입	-9.81318
▁기반	-9.81331
ies	-9.81333
▁집에서	-9.81349
▁둔	-9.81386
으면	-9.81454
▁강타	-9.81471
▁받기	-9.81488
▁부인했다	-9.8149
▁이혼	-9.81498
▁위기에	-9.81589
▁힘들	-9.8164
▁발생할	-9.81693
▁의원이	-9.81719
▁공원	-9.81733
fi	-9.81809
▁무엇	-9.81895
텐	-9.81923
▁네덜란드	-9.81927
▁찾기	-9.81927
▁그래	-9.81927
▁예산	-9.82042
곡	-9.82095
▁상황에서	-9.82122
▁치안	-9.82204
▁중이다	-9.8221
▁지키	-9.82304
▁그에게	-9.82317
▁잔	-9.8234
▁한국은	-9.82382
▁월까지	-9.82454
ist	-9.82483
어진	-9.82514
▁이미지	-9.82553
력이	-9.82571
ac	-9.82582
▁부르	-9.82707
렉	-9.82747
▁펜실베이니아	-9.82747
꺼	-9.82747
▁스티브	-9.82748
▁먼저	-9.82749
다른	-9.82797
스카	-9.82838
▁보상	-9.82899
▁그중	-9.82935
▁말하고	-9.83111
▁속에	-9.83314
▁벨	-9.83333
▁않겠다	-9.8338
▁희생	-9.83487
▁거주하	-9.835
▁구성된	-9.83517
▁경찰과	-9.83534
었고	-9.83554
▁ho	-9.83557
▁쿠르드	-9.83562
▁하워드	-9.83574
▁엄마	-9.83576
▁프라이머리	-9.83605
▁보유	-9.8364
▁kg	-9.83666
▁기자회견	-9.83691
▁ht	-9.83714
▁기후	-9.8372
▁대북	-9.83726
▁외교관	-9.83784
▁위험한	-9.83854
▁후반	-9.83899
▁손상	-9.84003
▁휘	-9.84133
률	-9.84182
▁약속했다	-9.84186
▁이용해	-9.84232
▁보이지	-9.84356
▁궁	-9.84362
▁방해	-9.84365
▁후보에	-9.84374
혜	-9.84406
▁north	-9.84407
▁나섰다	-9.84407
▁조종사	-9.84408
▁블랙	-9.84409
▁네팔	-9.84414
▁규제	-9.84414
▁미국인들	-9.84426
▁파악	-9.84452
▁장애	-9.84454
▁보험	-9.84456
▁asp	-9.84456
▁고든	-9.84472
▁대표팀	-9.84482
▁증명	-9.84495
▁추방	-9.84511
▁사례	-9.84545
▁연루	-9.84563
▁삼성	-9.84642
▁진전	-9.84686
▁지급	-9.847
▁어린	-9.84715
▁원유	-9.84725
▁빅	-9.84734
해지	-9.849
▁재정	-9.84909
하려고	-9.84933
▁사용하는	-9.8513
▁찾는	-9.85247
▁확정	-9.85247
▁센트	-9.85254
▁태풍	-9.85257
▁마이크	-9.85257
▁노대통령	-9.85268
▁숙	-9.85307
▁다쳤다	-9.85326
▁이행	-9.85334
▁척	-9.85389
▁생명	-9.85392
▁휴가	-9.85414
▁대표단	-9.85487
암	-9.85613
▁증가했다	-9.85656
▁알아	-9.85671
▁표시	-9.8569
▁금리	-9.85701
▁시점	-9.85804
▁대체	-9.85821
▁다수	-9.8584
법원	-9.85881
▁남성이	-9.85903
▁주에서	-9.85933
▁진술	-9.85997
▁쉬	-9.86047
▁대통령에게	-9.86073
덕	-9.86091
▁캠프	-9.86094
▁스티븐	-9.86094
▁침체	-9.86096
▁흔들	-9.86103
▁알려져	-9.86107
▁대단	-9.8612
▁철회	-9.86151
▁진입	-9.86153
스코	-9.86156
▁현장에	-9.86161
▁교체	-9.86221
▁못할	-9.86234
▁충분	-9.86305
▁재산	-9.86396
▁영향력	-9.86404
줬다	-9.86411
▁홍수	-9.86467
▁인식	-9.86495
▁윤	-9.86507
▁크기	-9.86555
▁최소한	-9.86567
▁연구진	-9.86568
▁후보로	-9.86604
▁않기	-9.8662
▁참석한	-9.8663
웨이	-9.8667
사회	-9.86751
옥	-9.86798
▁모하메드	-9.86949
▁아바스	-9.86951
어야	-9.86978
▁대답	-9.86996
라도	-9.87008
▁시민들	-9.87093
▁웹사이트에	-9.87179
버그	-9.87187
막	-9.87232
쪽	-9.87282
▁신용	-9.87322
▁실시한	-9.8734
귀	-9.87361
▁있는데	-9.87421
▁기타	-9.87456
▁긴	-9.87459
▁콘	-9.87528
▁공정	-9.87533
뉴스	-9.87638
대표	-9.87644
▁니	-9.87687
▁태도	-9.87714
촌	-9.87805
▁장난감	-9.87811
▁부동산	-9.87812
▁시리즈	-9.87813
▁분위기	-9.87813
▁시작됐다	-9.8788
▁구글	-9.87884
▁해변	-9.879
ci	-9.8791
▁예방	-9.87944
상태	-9.87994
▁보이	-9.88059
사인	-9.88092
▁토니	-9.88103
▁요구한	-9.88118
▁중국이	-9.88122
▁아부	-9.88202
▁만드는	-9.88233
▁니콜라	-9.88269
▁명단	-9.88347
▁의한	-9.8839
탕	-9.88562
자들에게	-9.88628
▁정확한	-9.88681
렛	-9.88681
▁farc	-9.88681
필드	-9.88682
▁자살폭탄테러	-9.88684
▁테러로	-9.88733
▁질병	-9.88736
났다	-9.88762
▁점령	-9.88764
▁지도부	-9.88782
▁없습니다	-9.88786
▁손실	-9.88826
슨은	-9.88851
▁얻었다	-9.88858
▁며칠	-9.88887
▁소방	-9.88913
▁벌인	-9.88927
▁환	-9.89087
ate	-9.89161
▁실제로	-9.89362
학교	-9.89409
▁킹	-9.89414
▁응	-9.89443
▁파타	-9.8951
▁저녁	-9.89558
쯤	-9.89558
▁쉽게	-9.8956
▁국왕	-9.89571
ea	-9.89689
▁이웃	-9.89697
▁무시	-9.89723
월	-9.89832
co	-9.89853
▁추정되	-9.89868
▁들었다	-9.89888
▁수가	-9.89895
둔	-9.89909
▁무력	-9.89952
▁봉	-9.89999
▁의문	-9.90017
▁당선자	-9.90054
▁방어	-9.90076
끼	-9.90088
치를	-9.90384
est	-9.90393
▁south	-9.90443
▁아르헨티나	-9.90443
▁김정일	-9.90443
▁테이프	-9.90445
▁형태	-9.90466
▁인정했다	-9.90482
짜리	-9.90573
▁말라	-9.9058
▁남북한	-9.9059
▁특사	-9.90678
▁하락했다	-9.90796
택	-9.9093
▁통치	-9.90941
힐	-9.90994
국인	-9.90996
▁경찰서	-9.91068
려고	-9.91084
▁자신들이	-9.91212
뤄	-9.91331
▁토요일	-9.91336
▁말리키	-9.91337
▁줄어들	-9.91338
▁콘돌	-9.91346
들로	-9.91364
▁부활	-9.91366
▁선거운동	-9.91376
▁실망	-9.91404
▁시청	-9.91442
▁직면	-9.91458
타임	-9.9148
경기	-9.91498
▁민주	-9.9151
원이	-9.9165
▁중요하다	-9.91687
▁가격이	-9.91799
▁떨어졌다	-9.9182
항공	-9.9183
쓰	-9.919
▁세대	-9.91948
▁워	-9.91964
▁말한	-9.92054
▁층	-9.92066
켓	-9.92155
씬	-9.92237
▁나타내	-9.92237
▁with	-9.92237
▁활용	-9.92237
▁침해	-9.92246
▁예술	-9.9227
▁색	-9.92315
▁사용할	-9.92328
▁타격	-9.92358
▁한번	-9.9237
▁총장	-9.92376
▁근처	-9.92428
▁신속	-9.92435
▁반발	-9.92471
▁강도	-9.92559
진다	-9.92576
▁입국	-9.92579
te	-9.92652
▁만들었다	-9.92737
▁살해한	-9.92745
▁문제로	-9.92852
▁오하이오	-9.92925
▁곡	-9.9294
정책	-9.92973
클리	-9.93106
▁지휘	-9.93109
▁징역	-9.9312
멘	-9.93129
딩	-9.93129
몽	-9.93146
▁상황에	-9.93176
조치	-9.93178
▁장악	-9.93179
▁폭격	-9.93181
▁대상	-9.93215
▁화산	-9.93219
▁추측	-9.93225
▁연락	-9.93229
▁웹	-9.93359
▁통화	-9.93399
▁어린이들	-9.93417
▁지출	-9.93427
▁우주선	-9.93471
▁끼	-9.9348
▁없다는	-9.93483
▁시위자들	-9.93498
▁역사적	-9.93528
▁so	-9.9359
▁한국과	-9.93626
▁싸	-9.93637
몰	-9.93763
▁주로	-9.93785
물이	-9.93824
▁꾸	-9.93885
▁승무원	-9.93914
tor	-9.93934
▁도착했다	-9.9394
▁않으면	-9.93956
▁엘리자베스	-9.94063
▁드라마	-9.94066
이션	-9.94071
▁순찰	-9.94078
▁이곳에서	-9.94092
겠	-9.94115
▁육군	-9.94116
▁축제	-9.94155
▁검색어	-9.9416
▁결혼식	-9.94187
▁기준	-9.94256
▁영국군	-9.94258
▁짐	-9.94298
냈	-9.94346
▁연관	-9.94349
▁신경	-9.9435
달하는	-9.9435
▁관광객들	-9.9436
▁우선	-9.94399
사의	-9.94431
혔다	-9.94434
▁자산	-9.94528
지역에서	-9.94693
왕	-9.94695
▁살아	-9.94822
▁근거	-9.9483
베리	-9.94921
▁음	-9.94933
▁내린	-9.94969
▁긍정적	-9.94989
▁페르베	-9.94989
▁협조	-9.94989
▁페일린	-9.94989
▁토론	-9.94994
▁장치	-9.95001
▁유럽연합	-9.9503
▁fta	-9.95034
우스	-9.95072
▁복용	-9.95101
▁매장	-9.95111
▁감행	-9.95115
▁형성	-9.95157
린다	-9.95175
▁등이	-9.95214
▁상품	-9.95221
▁만족	-9.95226
웠	-9.95236
업자	-9.95262
age	-9.95285
▁복제	-9.95331
대회	-9.95515
된다고	-9.95562
대사	-9.95629
▁방식	-9.95696
니아	-9.95747
▁당한	-9.95754
봤	-9.95885
▁기독교	-9.95924
▁소프트웨어	-9.95924
▁열린우리당	-9.95924
▁탈출	-9.95963
▁ha	-9.95964
▁끝난	-9.95968
▁하며	-9.9597
객	-9.95973
ke	-9.96064
▁다이	-9.96091
▁몰아	-9.96136
▁요구하는	-9.96159
▁의도	-9.9619
▁늘어	-9.96233
▁대출	-9.96302
되면	-9.9635
▁경기에	-9.96362
▁혹	-9.96371
▁지적	-9.96377
▁ex	-9.96399
▁스테	-9.96547
im	-9.96605
풍	-9.96612
선수	-9.96695
▁속에서	-9.96726
▁언제	-9.96849
▁iraq	-9.96867
▁싱가포르	-9.96867
▁잭슨	-9.96867
▁매들린	-9.96867
▁리버풀	-9.96868
▁공화당의	-9.96877
ig	-9.96891
▁갖추	-9.9691
▁일환	-9.96995
▁귀국	-9.96999
ial	-9.97034
▁현장에서	-9.97153
▁영국에서	-9.97193
▁해고	-9.97239
▁체포된	-9.97379
▁걸어	-9.97484
▁지지자	-9.975
▁기구	-9.97594
척	-9.97639
▁웃	-9.97704
▁포함되어	-9.97715
▁돼	-9.97742
▁트레	-9.97818
▁핵실험	-9.97819
▁사이클론	-9.9783
▁go	-9.97879
▁변경	-9.97926
쟁	-9.97949
▁보석	-9.98001
▁조각	-9.98001
▁동물원	-9.98041
▁자격	-9.98054
▁지켜	-9.98276
▁국장	-9.98438
▁느	-9.98638
▁총선에서	-9.98639
▁유리	-9.98688
잉	-9.98735
▁뉴질랜드	-9.98781
▁맨체스터	-9.98781
▁우라늄	-9.98781
▁케네디	-9.98781
램	-9.98781
▁cbs	-9.98781
▁베트남	-9.98781
▁론스타	-9.98783
▁루이스	-9.98797
▁ceo	-9.98812
▁통합	-9.98835
▁내놓	-9.9889
▁의료진	-9.98895
포트	-9.9894
▁나달	-9.98956
▁공식적으로	-9.98958
▁주고	-9.99041
▁받아들이	-9.99059
▁이것이	-9.99201
▁sh	-9.9923
▁지연	-9.99256
드라	-9.99297
▁성화	-9.99347
ard	-9.99442
▁국제적	-9.99457
들어	-9.99576
▁투자자들	-9.99582
그룹	-9.9965
▁조사하고	-9.99702
▁되면	-9.99726
▁캠페인	-9.99752
▁헤럴드	-9.99752
틸	-9.99752
▁사드르	-9.99753
▁에이즈	-9.99771
▁했	-9.99774
▁수용소	-9.99857
▁압둘라	-9.99866
▁실행	-9.99907
▁대기	-10.0008
▁터키군	-10.0009
▁상점	-10.0011
▁아래	-10.0011
리오	-10.0018
▁빛	-10.0019
▁심슨	-10.002
▁지지하는	-10.0023
ant	-10.0039
▁헌	-10.0045
▁명에	-10.005
홍	-10.0072
▁포르투갈	-10.0073
▁일으키	-10.0073
▁패션	-10.0076
▁웨스트	-10.0077
▁힘든	-10.008
▁관여	-10.0087
▁상업	-10.0089
▁행진	-10.0091
▁비교	-10.0094
▁일본은	-10.0097
ba	-10.0098
▁강경	-10.0102
보호	-10.0105
▁이민	-10.0109
▁중이라고	-10.0114
▁길이	-10.0128
▁해결하기	-10.013
▁중요	-10.013
und	-10.0133
개발	-10.0141
▁지진으로	-10.0144
▁안보리	-10.0147
▁지시	-10.0152
▁이르는	-10.0157
▁tr	-10.0157
▁te	-10.0158
▁인하	-10.0158
윈	-10.0162
▁곳으로	-10.0166
▁드러났다	-10.0172
▁외곽	-10.0172
▁이끌어	-10.0172
▁휘발유	-10.0172
▁반기문	-10.0172
▁태양	-10.0175
▁올렸다	-10.0178
▁lo	-10.0179
▁민주화	-10.018
어스	-10.018
▁벗어나	-10.0182
▁좋아	-10.0211
▁해산	-10.0212
▁사법	-10.0218
▁당선인은	-10.0231
대학	-10.0241
▁총리와	-10.0244
▁달성	-10.0251
프레	-10.0252
▁영화제	-10.0259
▁남아	-10.0261
▁이사	-10.0264
닌	-10.0265
훈	-10.0272
▁믿고	-10.0272
▁좋지	-10.0272
켄	-10.0272
▁첼시	-10.0273
▁로봇	-10.0273
▁나쁜	-10.0274
▁ppp	-10.0274
▁학살	-10.0275
▁향후	-10.0275
▁주인공	-10.0275
▁차관보	-10.0277
▁폭행	-10.0278
▁리비아	-10.0282
▁소개	-10.0287
▁화학	-10.0288
브라	-10.029
▁기본	-10.0295
▁한국군	-10.0303
▁감정	-10.0309
▁중국과	-10.0311
▁즐기	-10.0313
▁학대	-10.0314
▁가입	-10.0315
▁의무	-10.0319
▁주석	-10.0321
▁테러가	-10.033
주에서	-10.0338
▁프라	-10.0345
▁워싱턴에서	-10.0367
▁병사들	-10.0372
닉	-10.0373
▁얘기	-10.0373
▁답변	-10.0374
생활	-10.0375
만큼	-10.0376
▁음반	-10.0376
▁포드	-10.0378
▁경선에서	-10.0382
end	-10.0382
▁크리스티	-10.0384
▁입양	-10.0386
▁sp	-10.0398
▁중에는	-10.0399
▁개월간	-10.0404
▁용의자들	-10.0405
▁성공했다	-10.041
주는	-10.0416
▁포함해	-10.0422
▁외부	-10.0428
▁등장	-10.0432
▁무대	-10.0436
▁목격자들	-10.0439
▁경기장	-10.044
▁가르	-10.0446
슬리	-10.0451
바르	-10.0452
ff	-10.046
참	-10.0468
▁압	-10.0469
▁해리포터	-10.0475
훨	-10.0475
▁희생자들	-10.0475
▁착용	-10.0476
▁국제유가	-10.0476
▁벌어진	-10.0477
▁불참	-10.048
▁음모	-10.048
걸	-10.0481
▁노벨	-10.0481
▁미국에	-10.0483
▁초대	-10.0485
▁목격	-10.0488
▁반정부	-10.0491
▁시드	-10.0492
▁잔해	-10.0501
▁학생들이	-10.0505
▁예비	-10.0505
▁장식	-10.0505
▁회담에	-10.0521
▁수영	-10.0522
▁장비	-10.0525
▁고객	-10.0528
▁거절	-10.0532
▁맞서	-10.0533
▁이들이	-10.0544
▁덮	-10.0554
▁전면	-10.0562
▁하이	-10.0567
필	-10.0569
▁샌프란시스코	-10.0578
▁랭킹	-10.0578
▁콘서트	-10.0578
니는	-10.0579
▁운항	-10.0579
▁앨범	-10.058
▁풍	-10.0581
▁노동자	-10.0581
▁질환	-10.0581
▁내용이	-10.0582
▁dna	-10.0582
▁방침	-10.0582
▁행복	-10.0584
계획	-10.0589
▁가득	-10.0595
리그	-10.0597
한영	-10.0599
▁소니	-10.0604
겼	-10.0606
▁체니	-10.0609
네스	-10.0609
▁신체	-10.0613
▁전해	-10.0616
▁잡지	-10.0616
▁선물	-10.062
▁편지	-10.0625
▁이하	-10.0627
▁존슨	-10.064
▁폐지	-10.0643
▁충분한	-10.066
웨	-10.0681
육	-10.0682
룰	-10.0683
죠	-10.0683
▁얼음	-10.0684
▁광장	-10.0685
▁성향	-10.0691
▁소환	-10.0691
얼	-10.0694
듯	-10.0695
칸	-10.0695
▁영토	-10.07
▁추적	-10.071
▁회사들	-10.0716
▁하다	-10.0719
um	-10.072
▁공개했다	-10.0721
원들이	-10.0724
▁레이스	-10.0733
▁집에	-10.075
▁회담이	-10.0753
▁유치	-10.0754
▁요구하고	-10.0755
▁입수	-10.0757
▁언급하지	-10.0775
▁속도	-10.0776
▁중부	-10.0779
▁중재	-10.0783
▁방법으로	-10.0784
▁붉은	-10.0788
▁페더러	-10.0788
▁코미디	-10.0788
▁맨유	-10.0788
▁묘사	-10.0788
▁who	-10.0791
▁빚	-10.0793
위원	-10.0793
▁토론회	-10.0793
▁탐	-10.0795
▁협회	-10.0795
푸	-10.0796
▁야생	-10.0796
▁회원국	-10.0798
느	-10.0799
완	-10.08
▁기능	-10.08
▁밀란	-10.08
▁것보다	-10.0807
▁녹	-10.0808
▁지목	-10.0809
▁조사에서	-10.081
ive	-10.0813
▁수집	-10.0813
군이	-10.0815
조직	-10.0816
▁특정	-10.082
▁시절	-10.0823
검사	-10.0827
▁주인	-10.083
ine	-10.0838
▁주장하는	-10.0842
어질	-10.0845
▁솔	-10.0846
▁진행된	-10.0849
▁중국에서	-10.0849
▁지정	-10.0872
▁멜	-10.0873
▁분리	-10.0882
▁전개	-10.089
▁바그다드에서	-10.0892
켈	-10.0893
▁획득	-10.0894
▁모스크바	-10.0894
▁다르푸르	-10.0894
▁이메일	-10.0894
▁특파원	-10.0894
▁대다수	-10.0895
▁접속	-10.0899
▁이익	-10.0899
▁작동	-10.09
▁일반적	-10.0907
▁밑	-10.0909
잔	-10.0913
트라	-10.0923
▁대결	-10.0925
▁행성	-10.0932
▁친구들	-10.094
▁치르	-10.0948
▁방문할	-10.0956
▁철도	-10.0965
으	-10.097
▁방지	-10.0975
탁	-10.0986
▁이스라엘과	-10.0993
▁생존	-10.0998
롬	-10.1001
▁president	-10.1002
▁다이아몬드	-10.1002
▁밖으로	-10.1002
▁태평양	-10.1002
▁헤즈볼라	-10.1002
▁세계대전	-10.1002
▁주식시장	-10.1004
▁리콜	-10.1004
▁측근	-10.1005
▁메이	-10.1005
▁둘러	-10.1006
▁영변	-10.1007
▁편집	-10.1008
▁유가	-10.1008
▁클라	-10.1009
▁윌	-10.1012
▁폭우	-10.1015
포드	-10.1034
▁공중	-10.1036
▁적절한	-10.1042
▁사살	-10.1044
▁생존자	-10.1044
▁잃었다	-10.1045
▁어디	-10.1046
▁다니	-10.105
▁에어	-10.1051
므로	-10.1051
▁니콜	-10.1053
ns	-10.1064
▁도달	-10.1082
▁성과	-10.1084
▁생각하고	-10.1089
▁주문	-10.1102
▁알래스카	-10.111
▁금요일	-10.111
▁온난화	-10.111
▁아일랜드	-10.111
▁멸종	-10.111
▁plan	-10.1111
장치	-10.1111
▁will	-10.1113
▁린	-10.1114
▁허락	-10.1115
▁마틴	-10.1119
▁저항	-10.1119
▁흉	-10.1119
▁모습이	-10.112
더라	-10.1121
▁소비자들	-10.1121
▁모양	-10.1128
▁남쪽	-10.1128
▁진실	-10.1129
▁원하는	-10.1134
▁밖에서	-10.1135
▁기업들	-10.1136
▁출시	-10.1136
영화	-10.1142
▁주목	-10.1148
▁잠시	-10.1151
▁후임	-10.1162
전에서	-10.1171
려는	-10.1171
▁폭발물	-10.1179
▁아이들이	-10.1191
▁이스라엘군	-10.1193
▁no	-10.1195
▁자기	-10.12
▁교사	-10.1202
▁다우	-10.1209
대에	-10.121
부대	-10.1212
▁취할	-10.1214
둥	-10.122
▁현지시각	-10.122
▁아이오와	-10.122
▁nbc	-10.1221
▁카페	-10.1229
▁식당	-10.1235
▁심문	-10.1242
▁상어	-10.1248
▁경찰서장	-10.1248
▁버마	-10.1253
▁평화적	-10.1256
▁발표된	-10.1257
▁말합니다	-10.1259
▁목격자	-10.1263
라이브	-10.1264
▁부근	-10.127
▁논란	-10.1272
▁협상이	-10.1276
카르	-10.1279
▁vi	-10.1282
사항	-10.1284
▁올랐	-10.1288
▁나서	-10.1306
▁에드	-10.1307
ong	-10.1309
▁보였	-10.1313
▁여러분	-10.1315
▁시작한	-10.132
▁마시	-10.1322
덴	-10.1326
▁전투기	-10.1326
▁이번주	-10.1329
▁옮겨	-10.1331
▁유나이티드	-10.1331
▁쿠데타	-10.1331
▁갑자	-10.1332
▁봄	-10.1333
▁바라고	-10.1334
▁우주비행사	-10.1339
▁체결	-10.134
▁내전	-10.1351
▁보면	-10.1357
▁서방	-10.136
▁계획에	-10.1363
콘	-10.1367
▁세상	-10.1371
▁펜	-10.1379
결과	-10.1383
one	-10.1386
▁경보	-10.1388
▁예상했다	-10.1394
▁아르	-10.14
▁방문했다	-10.14
▁사건과	-10.1402
▁장관이	-10.1414
없이	-10.1417
▁차드	-10.143
련	-10.1441
넬	-10.1443
롱	-10.1444
컬	-10.1444
핀	-10.1444
▁여자친구	-10.1444
▁찾고	-10.1444
밍	-10.1444
첸	-10.1444
▁일주일	-10.1445
▁바꾸	-10.1446
▁핵시설	-10.1449
▁물건	-10.1465
ni	-10.1466
▁사건으로	-10.1469
▁보통	-10.1469
작업	-10.1472
▁사무	-10.1474
▁파티	-10.1492
▁중독	-10.1493
ang	-10.15
▁절대	-10.1503
pa	-10.1508
조차	-10.1518
▁의식	-10.1519
▁취하	-10.1542
우드	-10.1546
▁현재까지	-10.1548
같	-10.1552
▁유대인	-10.1554
▁달라이라마	-10.1557
▁떨어지	-10.1557
▁이렇게	-10.1557
▁장례식	-10.1557
▁훌륭	-10.1557
▁파운드	-10.1558
▁겨울	-10.1558
▁북극	-10.1559
▁사실상	-10.1562
▁윈	-10.1563
▁가까이	-10.1563
▁커피	-10.1566
▁격차	-10.1568
▁복구	-10.157
▁행정	-10.1571
▁일리노이주	-10.1571
▁사용되	-10.1574
았던	-10.1582
▁둘	-10.1586
▁자치	-10.1586
▁기분	-10.1591
알	-10.1593
▁만날	-10.1598
▁cm	-10.1604
▁명예	-10.1609
▁답	-10.161
▁원제	-10.1612
▁대부분이	-10.1624
러스	-10.1628
▁수요	-10.1631
▁트리	-10.1643
▁담당자	-10.1643
▁케이	-10.1647
혼	-10.1648
▁불과	-10.165
들로부터	-10.1657
▁달라	-10.1665
했기	-10.1665
사와	-10.1667
뜨	-10.1671
럭	-10.1671
탑	-10.1672
▁흡연	-10.1672
▁나이지리아	-10.1672
▁카르자이	-10.1672
▁교환	-10.1678
▁수감자	-10.1678
▁걸릴	-10.1682
▁증권	-10.1682
타르	-10.1683
▁추산	-10.1686
▁나누	-10.1686
▁치러진	-10.1688
▁동반	-10.1689
▁최선	-10.169
▁보고했다	-10.1691
▁배출	-10.1692
▁물러	-10.17
▁신임	-10.1702
▁신호	-10.1707
스티	-10.1708
▁열리	-10.1709
▁파산	-10.1712
▁do	-10.1713
▁낙	-10.1715
량이	-10.1715
싸	-10.1717
특	-10.1719
▁업계	-10.1722
▁투어	-10.1722
폭탄	-10.1723
▁벽	-10.1728
▁가자	-10.1729
▁기도	-10.174
국들	-10.1763
시키려	-10.1771
국으로	-10.1776
▁검색	-10.1777
▁못했	-10.1781
▁대통령에	-10.1783
▁얻어	-10.1789
▁다우존스	-10.1789
▁스리랑카	-10.1789
▁아메리칸	-10.1789
▁에드워즈	-10.1789
콤	-10.1789
▁라운드	-10.1789
▁쇼핑	-10.1789
▁재무장관	-10.1789
▁설득	-10.179
로스	-10.1792
▁폭락	-10.1792
▁합동	-10.1795
▁폭동	-10.1797
▁오염	-10.1802
▁구조대	-10.1804
▁탐사	-10.1805
▁각국	-10.181
▁재건	-10.1816
▁인류	-10.1816
▁가구	-10.1819
정보	-10.1823
되어야	-10.1828
▁의회의	-10.1835
▁광산	-10.1841
▁예상되	-10.185
▁클레	-10.185
▁세워	-10.1854
▁있어서	-10.186
▁된다고	-10.1883
장으로	-10.1883
▁제안했다	-10.1884
▁외교적	-10.1885
▁이송	-10.1889
▁지점	-10.1891
해왔	-10.1902
섭	-10.1904
▁노스캐롤라이나	-10.1906
▁덴마크	-10.1906
▁오스트리아	-10.1906
퀴	-10.1906
▁발굴	-10.1908
▁복잡	-10.191
▁단순	-10.191
▁데이터	-10.1912
▁사인	-10.1923
▁통계	-10.1929
▁해양	-10.1931
▁강요	-10.1931
▁톤	-10.1933
▁항소	-10.1936
▁인종	-10.1939
▁명백	-10.1943
▁오브	-10.1947
했음	-10.1948
▁폐기	-10.1952
▁he	-10.1954
▁호세	-10.1958
라스	-10.1959
▁내에	-10.1961
▁노력하고	-10.1971
▁수상자	-10.1977
▁요인	-10.1985
▁노동자들	-10.1989
▁지상	-10.1998
▁차전	-10.2
▁결승	-10.2006
▁소수	-10.2012
▁제도	-10.2014
ry	-10.2017
▁목적으로	-10.2023
묘	-10.2023
덩	-10.2025
▁앉아	-10.2025
▁누군가	-10.2025
▁혁명	-10.2025
닷컴	-10.2026
▁출석	-10.203
ain	-10.2031
▁식품	-10.2032
▁시장에서	-10.2033
▁북측	-10.2034
▁기존	-10.2034
▁성관계	-10.2035
아야	-10.2036
▁방영	-10.2036
▁매각	-10.2038
▁부담	-10.2039
▁ro	-10.2039
▁스키	-10.204
▁비율	-10.2046
▁자본	-10.205
▁소설	-10.2051
▁지진이	-10.2052
▁셀	-10.2062
혹	-10.2065
▁움직이	-10.2066
▁본사	-10.2068
▁선보	-10.2075
ot	-10.2079
▁환자들	-10.208
▁이루	-10.2082
▁차관	-10.2084
▁천만	-10.2086
경찰	-10.2089
▁아동	-10.2089
▁청소년	-10.209
▁골드	-10.209
▁잇	-10.2095
▁그것이	-10.2097
▁이루어	-10.21
▁연주	-10.2101
▁대의	-10.2102
▁공격이	-10.2103
mb	-10.2116
▁일본에서	-10.2117
▁실시되	-10.2126
▁계속되고	-10.2126
ag	-10.2131
▁국회의원	-10.2134
▁야기	-10.2138
▁테러리스트	-10.2144
작전	-10.2145
▁됩니다	-10.2146
▁방글라데시	-10.2146
▁주한미군	-10.2146
▁훼손	-10.2146
떼	-10.2146
렐	-10.2146
쇠	-10.2146
▁japan	-10.2146
▁고등학교	-10.2146
▁마카오	-10.2146
▁공산당	-10.2146
▁엄청	-10.2146
▁칠레	-10.2146
▁넓	-10.2148
▁하늘	-10.2149
▁농축	-10.2149
▁새끼	-10.2149
▁합류	-10.215
▁조합	-10.2153
▁시드니	-10.2155
▁취재	-10.2156
▁의존	-10.2156
▁도입	-10.2167
▁거두	-10.217
▁측정	-10.2171
▁피난	-10.2173
▁망	-10.2174
빠진	-10.2185
후드	-10.2187
▁홈	-10.2192
▁내릴	-10.2202
놀	-10.2209
법안	-10.221
회담	-10.221
▁수송	-10.2212
▁시위에	-10.2216
▁당신이	-10.2217
자리	-10.2223
▁부근에서	-10.223
▁그와	-10.2248
▁생물	-10.2258
닥	-10.2259
▁회원	-10.226
레나	-10.2265
님	-10.2266
▁네트워크	-10.2268
▁스웨덴	-10.2268
▁인디애나	-10.2268
튜	-10.2268
▁검거	-10.2268
ft	-10.227
▁남아공	-10.2271
▁건축	-10.2273
▁해병대	-10.2275
▁서울에서	-10.2277
▁베르	-10.2277
▁순방	-10.2279
▁화물	-10.2281
▁사담	-10.2282
연맹	-10.2285
▁발병	-10.2288
▁원한다	-10.2289
▁현실	-10.2289
▁묵	-10.2289
▁따라서	-10.229
▁상처	-10.229
▁점차	-10.2296
▁로비	-10.2299
▁되기	-10.2302
▁나아	-10.2303
▁카드	-10.2307
▁모인	-10.2316
▁부여	-10.2321
▁후원	-10.2322
▁체제	-10.2328
▁만화	-10.2328
▁벌였	-10.2338
▁북쪽	-10.235
▁그림	-10.2359
▁책임자	-10.2363
요원	-10.2367
▁얼	-10.2369
하고자	-10.2371
▁전날	-10.2372
▁플레이	-10.2382
▁의학	-10.2383
▁왕세자	-10.2384
▁로한	-10.2384
▁일본이	-10.2387
룩	-10.2391
멸	-10.2391
▁봉쇄	-10.2391
▁혜택	-10.2391
▁카스트로	-10.2391
▁습격	-10.2391
▁이뤄지	-10.2392
▁다니엘	-10.2392
▁콩고	-10.2393
▁극복	-10.2398
▁조성	-10.2403
▁사용한	-10.2406
▁그래서	-10.2406
▁세우	-10.2407
▁분명히	-10.2409
▁나갈	-10.2412
▁말까지	-10.2415
▁알려	-10.2416
▁보복	-10.2418
▁대항	-10.2419
▁증가하고	-10.2425
▁방화	-10.2432
▁입었	-10.2434
ha	-10.2438
▁주는	-10.2442
▁유감	-10.2443
▁기다리고	-10.245
새	-10.2461
▁nu	-10.2461
▁이주	-10.2462
▁보관	-10.2462
펜	-10.2463
▁본선	-10.2468
▁털	-10.2471
▁공항에서	-10.2475
▁개방	-10.2475
tu	-10.2484
▁시내	-10.2488
▁낸	-10.2495
▁자리에서	-10.2499
▁피랍	-10.2501
▁상승했다	-10.2501
▁그리	-10.2502
▁의지	-10.2514
끄	-10.2515
▁맞이	-10.2515
흘	-10.2516
▁ioc	-10.2516
▁uefa	-10.2516
▁얻기	-10.2516
▁예루살렘	-10.2516
▁챔피언스리그	-10.2516
▁펼치	-10.2516
▁디즈니	-10.2516
▁이재민	-10.2516
▁스파이	-10.2517
▁목록	-10.2519
▁록	-10.2519
▁출판	-10.2522
▁가옥	-10.2535
▁페루	-10.2536
▁모색	-10.2538
▁즉각적	-10.2539
▁구출	-10.254
▁많다	-10.254
▁무료	-10.2543
ity	-10.2549
브레	-10.2564
▁대량	-10.2567
▁올린	-10.2575
▁향하	-10.2577
죄	-10.258
▁전통적	-10.2585
▁조사에	-10.2589
삼	-10.2591
▁경쟁자	-10.261
▁국경지역	-10.2613
▁그동안	-10.262
▁부과	-10.2626
▁원문기사	-10.2643
첨	-10.2643
랭	-10.2643
▁그렇지	-10.2643
▁외교통상부	-10.2643
▁정확히	-10.2643
릿	-10.2643
▁북동부	-10.2643
▁파예드	-10.2643
▁완벽	-10.2643
▁운송	-10.2643
▁경영	-10.2644
▁주제	-10.2644
▁의회에	-10.2649
▁승리했다	-10.2649
▁출동	-10.2651
해줄	-10.2656
▁고발	-10.2657
▁노예	-10.2658
▁봉사	-10.2667
▁초점	-10.2682
▁건의	-10.2692
▁수감자들	-10.2694
▁열대	-10.2703
▁불러	-10.2704
▁못하는	-10.2713
▁앨	-10.2713
▁반군이	-10.2722
▁예수	-10.2722
▁동성애자	-10.2724
되자	-10.2725
▁고소	-10.2728
▁의회에서	-10.2739
월드	-10.275
드시	-10.2756
위원장	-10.2763
▁이중	-10.2767
▁활주로	-10.2771
▁거뒀다	-10.2771
▁크루즈	-10.2771
▁숫자	-10.2771
▁심지어	-10.2771
▁페이지	-10.2775
▁철저	-10.2776
▁조원	-10.2776
▁합병	-10.2776
▁민감	-10.2778
▁주최	-10.2779
▁자극	-10.2781
▁사전	-10.2785
▁과격	-10.2786
▁남아있	-10.279
▁체계	-10.2791
데이	-10.2792
▁권한	-10.2797
세력	-10.28
▁소식이	-10.2803
▁골프	-10.2807
▁베이징에서	-10.2807
경제	-10.2808
▁풀어	-10.2811
▁진화	-10.2812
▁후보들	-10.2813
▁달려	-10.2822
▁유력	-10.2826
▁기차	-10.2828
▁선언했다	-10.2838
▁세포	-10.2843
▁유전자	-10.2847
▁가졌	-10.2849
져야	-10.2849
맥	-10.2856
홀	-10.2857
▁인사들	-10.2874
▁승객들	-10.2876
▁고향	-10.2878
▁만일	-10.2887
▁노인	-10.2897
▁마찬가지	-10.2901
▁frb	-10.2901
▁nato	-10.2901
▁폴란드	-10.2901
▁연구원	-10.2903
▁레알	-10.2904
▁커플	-10.2904
▁응급	-10.2904
▁철군	-10.291
▁빙하	-10.2911
▁소매	-10.2915
▁입증	-10.2916
▁현금	-10.2926
▁분열	-10.2927
▁제공하는	-10.293
ho	-10.2932
▁있다면	-10.2934
▁공화국	-10.294
▁주기	-10.2948
▁내정	-10.2949
께	-10.2954
▁돼지	-10.2964
ction	-10.2973
셀	-10.2976
달라고	-10.2977
our	-10.2979
▁크레	-10.2981
▁경호원	-10.2981
▁it	-10.2983
농	-10.2992
둘	-10.2993
짐	-10.2993
▁방향	-10.2995
q	-10.3022
▁보인다고	-10.3025
핑	-10.3026
흥	-10.3032
꾼	-10.3032
▁사우디아라비아	-10.3032
▁성화봉송	-10.3032
▁청문회	-10.3032
웬	-10.3032
▁에어버스	-10.3033
▁보여줬다	-10.3034
▁싸움	-10.3034
▁pc	-10.3035
▁민족	-10.3035
▁군정	-10.3035
▁무죄	-10.3038
▁임금	-10.3038
▁보잉	-10.3039
▁장착	-10.3039
▁기부	-10.3041
min	-10.3047
적이고	-10.3052
▁수퍼	-10.3052
▁선발	-10.3055
▁소요	-10.3056
비치	-10.306
▁서신	-10.3064
▁견해	-10.3067
▁공포	-10.3068
▁배경	-10.3068
▁실패했다	-10.3071
ure	-10.3072
▁거부했다	-10.3077
▁보안군	-10.3077
▁보고서에서	-10.308
▁생각하는	-10.3086
▁공유	-10.3087
시티	-10.3088
▁제조업체	-10.3093
▁캘리포니아주	-10.3097
됐었다	-10.3102
▁만난	-10.3108
▁위조	-10.3108
값	-10.313
업체들	-10.3131
▁대선에서	-10.3135
▁뼈	-10.3139
▁이곳에	-10.3144
▁멀	-10.3164
넷	-10.3166
▁크라이슬러	-10.3166
▁남동부	-10.3166
▁아이디어	-10.3166
▁토마스	-10.3166
▁코커스	-10.3168
입어	-10.3169
▁관찰	-10.317
▁납치된	-10.3174
nd	-10.3174
▁출산	-10.3176
▁델	-10.3179
▁압수	-10.318
▁연행	-10.3187
▁따르	-10.3188
지역에	-10.3191
▁실종된	-10.3196
▁신발	-10.3198
▁고대	-10.3198
▁폭탄이	-10.3204
▁이양	-10.3208
▁fir	-10.3211
마리	-10.3213
▁축	-10.3217
rm	-10.3221
▁발간	-10.3226
스틴	-10.3233
▁달간	-10.3238
▁gm	-10.3245
▁의사들	-10.3246
바이	-10.3253
뿐	-10.3257
▁기대하고	-10.3264
▁공격에	-10.327
▁영장	-10.3272
▁뉴욕에서	-10.3281
효	-10.3285
흔	-10.3297
시위	-10.33
▁동티모르	-10.3301
▁라스베이거스	-10.3301
▁협박	-10.3301
덜	-10.3301
▁쓰나미	-10.3301
▁리조트	-10.3301
▁삭제	-10.3301
▁타이틀	-10.3303
▁빈곤	-10.3303
▁필립	-10.3304
▁생긴	-10.3309
디아	-10.3312
▁대회에서	-10.3314
▁테러범	-10.3315
수록	-10.3315
▁세계은행	-10.3315
▁청구	-10.3316
▁형제	-10.3321
▁받아야	-10.3322
전문	-10.3325
▁발생하지	-10.3329
▁인생	-10.3329
▁중순	-10.333
▁수업	-10.333
▁주한	-10.3333
▁런던에서	-10.3333
▁피해가	-10.335
▁듀	-10.3354
▁방송국	-10.3358
▁고립	-10.3367
▁재단	-10.3369
▁부서	-10.3371
시대	-10.3386
▁dis	-10.3387
▁하면	-10.3388
tv	-10.3389
▁무선	-10.3392
▁다가	-10.3394
▁x	-10.3396
최	-10.3397
▁분간	-10.3401
▁이사회	-10.3406
연구소	-10.3415
▁수상했다	-10.342
▁일리노이	-10.3421
쉽	-10.3423
기지	-10.3426
괴	-10.3426
pr	-10.3428
디오	-10.3429
▁주지	-10.3429
▁or	-10.3431
ga	-10.3434
▁라이트	-10.3434
웅	-10.3436
▁바르셀로나	-10.3438
▁첫번째	-10.3438
댄	-10.3438
▁김대중	-10.3438
▁파트너	-10.3438
▁엄격	-10.3438
▁안전한	-10.3438
느냐	-10.3439
▁논평	-10.3439
▁ad	-10.344
▁빼	-10.344
▁하원의원	-10.3441
▁모기지	-10.3443
▁봤다	-10.3444
행사	-10.3444
▁매춘	-10.3444
어져	-10.3447
▁두바이	-10.3447
▁관영	-10.3449
▁은퇴	-10.345
▁보낼	-10.345
▁복무	-10.345
▁돌아오	-10.3452
▁회동	-10.3453
▁불구	-10.3454
▁di	-10.3455
▁중간	-10.3459
▁북미	-10.3461
▁예전	-10.3472
▁총격전	-10.3474
▁값	-10.3475
▁높아지	-10.3476
▁구금	-10.3477
▁시각	-10.3478
▁것이고	-10.3479
▁상공	-10.3479
▁알라	-10.3484
▁갖게	-10.3486
▁기금	-10.3489
▁한때	-10.349
▁명에게	-10.3494
▁배제	-10.3499
▁케리	-10.3501
▁이루어지	-10.3501
▁ra	-10.3511
▁me	-10.3518
가격	-10.3519
▁기계	-10.3521
mar	-10.353
▁난사	-10.3532
▁신부	-10.3554
▁실적	-10.3558
▁주차	-10.3565
▁누리	-10.3569
캔	-10.3575
▁쏟아	-10.3577
▁태어난	-10.3577
▁베를린	-10.3577
▁외환은행	-10.3577
▁헨리	-10.3577
▁중지	-10.3578
▁우리나라	-10.3578
▁케이블	-10.3578
▁채택	-10.3582
▁디자인	-10.3584
▁하와이	-10.3585
▁카불	-10.3586
air	-10.3586
ance	-10.3589
▁불편	-10.3593
▁단속	-10.3594
▁거쳐	-10.3596
▁항구	-10.3596
▁전반적	-10.3601
▁공약	-10.3601
▁지역으로	-10.3612
원인	-10.3614
▁말해	-10.3618
▁불길	-10.3618
▁과학자	-10.362
▁보유하고	-10.3626
▁치러	-10.3629
▁대학교	-10.3636
▁만들어진	-10.3638
▁서울시	-10.3638
스타인	-10.3649
다시	-10.365
to	-10.3657
▁전역	-10.3659
▁회의에서	-10.3659
▁코트	-10.3659
▁결정에	-10.366
▁선거에	-10.3679
▁승리한	-10.3679
짜	-10.3682
▁감독이	-10.3683
▁시장에	-10.3685
디스	-10.3685
▁밴	-10.3689
폴	-10.3697
앤	-10.3699
▁지시했다	-10.3702
선거	-10.3709
뿐만	-10.3711
▁요르단	-10.3716
▁스코틀랜드	-10.3718
▁앓고	-10.3718
▁애리조나	-10.3718
▁휴대전화	-10.3718
▁흥분	-10.3718
▁섹스	-10.3718
▁바스라	-10.3719
▁책임이	-10.3719
▁시에	-10.372
▁면담	-10.3721
▁처해	-10.3722
▁실질적	-10.3722
▁의미한다	-10.3723
▁해결책	-10.3723
▁abc	-10.3725
▁작용	-10.3729
▁오늘날	-10.373
▁표했다	-10.373
▁연예	-10.373
▁마쳤다	-10.3733
▁시티	-10.3734
▁맛	-10.3738
▁대학생	-10.3742
▁초래	-10.3744
▁이라크와	-10.3748
▁유출	-10.3753
▁재난	-10.3753
▁개표	-10.3753
▁보트	-10.3754
▁의석	-10.3756
▁유발	-10.376
▁한국에서	-10.3762
▁신중	-10.3763
▁뿐만	-10.3764
▁간단	-10.3771
▁유전	-10.3771
▁여권	-10.3772
▁앞에	-10.3772
▁호텔에서	-10.3782
▁안에서	-10.3788
금지	-10.3792
▁지켜보	-10.3798
▁응답자	-10.3801
뉴	-10.3804
▁공간	-10.3806
▁같	-10.3809
▁부정적	-10.3812
▁사회적	-10.3818
타운	-10.3827
대통령	-10.3842
▁발생했	-10.3844
▁이스라엘이	-10.3845
카운티	-10.3845
▁요리	-10.3849
픈	-10.3854
▁클린턴이	-10.3855
룬	-10.3855
▁달러로	-10.3857
곰	-10.386
담당	-10.386
끈	-10.386
▁불능화	-10.3861
▁콜로라도	-10.3861
▁펼쳐	-10.3861
춤	-10.3861
▁천주교	-10.3861
▁격렬	-10.3861
▁over	-10.3862
▁급등	-10.3864
▁미국측	-10.3867
▁his	-10.3867
▁경영진	-10.3868
▁종류	-10.3874
▁고객들	-10.3881
▁리그	-10.3881
▁발전소	-10.3882
▁발생하는	-10.3883
▁월드	-10.3885
▁중심부	-10.3891
di	-10.3895
▁존중	-10.3896
▁추정된다	-10.3902
▁상호	-10.3906
▁칼리	-10.3918
▁상태에	-10.3921
받았다	-10.3923
▁국민들에게	-10.3924
▁특수	-10.3926
▁도시에서	-10.3935
▁논란이	-10.3941
▁엘리	-10.3952
ap	-10.3955
▁사망했	-10.3961
▁표명	-10.3963
더스	-10.3964
▁간주	-10.3967
▁백인	-10.3977
혁	-10.3996
▁우리당	-10.3997
컴	-10.4003
짝	-10.4005
▁구제금융	-10.4005
▁두번째	-10.4005
▁펼쳤다	-10.4005
큐	-10.4005
▁일으킨	-10.4005
▁와인하우스	-10.4006
▁송환	-10.4007
▁저지른	-10.4009
해준	-10.4009
▁여학생	-10.4009
▁슈퍼	-10.4009
▁바닥	-10.4015
상황	-10.4016
▁낸시	-10.4019
▁비용이	-10.402
▁기밀	-10.4022
▁순위	-10.4023
▁나올	-10.4025
▁벗	-10.4033
▁싶어	-10.4034
▁요소	-10.4043
▁과도	-10.4047
▁중대	-10.4055
▁당수	-10.4063
▁만개	-10.4065
▁자문	-10.4076
과정	-10.4079
▁하던	-10.4084
▁것이었다	-10.4085
▁참석했다	-10.4086
▁폭스	-10.4087
▁성공적	-10.4088
▁자원	-10.4094
▁불가능	-10.4097
리스트	-10.4102
자료	-10.4107
▁법원에	-10.4108
▁프로그램에	-10.4111
▁전쟁에	-10.4116
▁못한다	-10.4133
▁운영하	-10.4137
칼	-10.4143
▁리처드	-10.4144
▁국방	-10.4147
▁이후로	-10.4148
콩	-10.415
▁레스토랑	-10.4152
▁곤잘레스	-10.4152
▁블라고예비치	-10.4152
▁블라디미	-10.4152
▁오사마빈라덴	-10.4152
▁벌어지	-10.4153
▁이루어졌다	-10.4155
▁고위관리	-10.4156
▁자유롭	-10.4156
▁대륙	-10.4157
▁출입	-10.4157
▁테스트	-10.4162
▁스턴	-10.4166
▁운전자	-10.4167
▁검은	-10.4168
▁체중	-10.4168
▁쓴	-10.4173
안보	-10.4179
▁돌파	-10.4181
▁못해	-10.4181
본부	-10.4189
사태	-10.4191
▁회견	-10.42
▁사망자수	-10.4201
▁생일	-10.4205
돼있다	-10.4209
▁답했다	-10.4211
▁마비	-10.4214
▁메일	-10.4215
▁혐의에	-10.4231
▁지질	-10.424
▁ab	-10.4242
없는	-10.4252
▁높아	-10.4259
▁프레스	-10.4259
▁이라크군	-10.4268
▁시사	-10.4276
▁제기했다	-10.4278
▁시기에	-10.428
▁즉각	-10.428
▁마감했다	-10.4286
보기	-10.4287
▁정전	-10.4299
촉	-10.4301
▁휩싸	-10.4302
꽃	-10.4302
▁government	-10.4302
▁선거캠프	-10.4302
▁월스트리트	-10.4302
렘	-10.4302
▁북서부	-10.4302
▁탄핵	-10.4302
▁방콕	-10.4302
▁숀	-10.4304
▁화장실	-10.4304
▁부총리	-10.4307
▁블루	-10.4308
▁계속되	-10.4311
▁사막	-10.4313
▁미니	-10.4314
▁산림	-10.4317
▁노동당	-10.4321
▁도망	-10.4323
▁죽은	-10.4324
▁성격	-10.4325
▁신분	-10.4337
▁분석가	-10.4341
▁다루	-10.4353
▁사용자	-10.4354
▁만났다	-10.436
▁파손	-10.4363
▁화해	-10.4367
▁전환	-10.4382
기록	-10.4388
마르	-10.4389
▁보호하기	-10.4397
▁독도	-10.4434
▁압둘	-10.4436
응	-10.4439
버렸다	-10.4443
▁비판했다	-10.4446
콜	-10.4451
딜	-10.4452
▁from	-10.4453
▁샤라포바	-10.4453
틱	-10.4453
▁미시시피	-10.4453
▁나스닥	-10.4453
▁리히터	-10.4453
▁리차드	-10.4453
▁침입	-10.4453
▁촉진	-10.4453
▁스탠	-10.4454
▁패트릭	-10.4454
▁핵프로그램	-10.4455
▁언어	-10.4455
▁직업	-10.4458
▁강풍	-10.446
▁들어갔다	-10.4461
▁다윈	-10.4461
▁맞추	-10.4465
▁진영	-10.4467
▁이내	-10.4467
▁뇌물	-10.4468
▁왕실	-10.4469
▁구축	-10.447
▁전세계적으로	-10.4473
▁화면	-10.4478
▁돌려	-10.448
▁주장에	-10.4481
▁아프가니스탄에서	-10.4481
▁연금	-10.4482
▁스타일	-10.449
▁직전	-10.4494
▁해임	-10.4496
히려	-10.4501
▁미술	-10.4509
▁개장	-10.451
▁시민들이	-10.4521
▁선전	-10.453
▁아니었다	-10.4533
▁차단	-10.4538
▁적극적	-10.4539
해질	-10.4544
▁단어	-10.4547
▁구역	-10.4551
▁발언에	-10.457
▁짓	-10.4572
ice	-10.4591
으면서	-10.4596
▁백악관에서	-10.4606
첩	-10.4607
▁캄보디아	-10.4607
clear	-10.4607
▁받아들일	-10.4607
▁남서부	-10.4607
▁촉발	-10.4607
▁둘러싸	-10.4608
▁성직자	-10.4608
▁케빈	-10.4609
▁state	-10.4609
▁원칙	-10.461
▁영웅	-10.461
▁붙잡	-10.461
ress	-10.4611
▁전역에	-10.4612
▁법무부	-10.4613
▁소득	-10.4614
▁축소	-10.4617
스탄	-10.4618
▁보지	-10.4618
▁끝내	-10.4619
▁수십명	-10.462
▁추모	-10.4626
▁리드	-10.4626
▁자랑	-10.4636
▁올려	-10.4639
▁공개적으로	-10.4639
스럽게	-10.4639
▁논	-10.4646
▁천명	-10.4647
▁산타	-10.4649
▁해적	-10.465
로우	-10.4652
▁완전한	-10.4654
▁거리에	-10.4655
▁농장	-10.4657
▁공모	-10.4665
pp	-10.4669
▁레드	-10.4681
▁일어났	-10.4685
▁논의하기	-10.4686
▁자제	-10.4687
▁sc	-10.4688
▁걸리	-10.4689
▁자신에게	-10.4689
▁가능하다	-10.4691
▁단체들	-10.4691
▁대상이	-10.4724
▁개시	-10.474
▁숨졌	-10.474
▁포로	-10.4747
▁생각했다	-10.4749
랍	-10.4752
▁법안이	-10.4753
▁조기	-10.4759
옹	-10.4763
▁가택연금	-10.4763
▁궤도	-10.4763
▁유튜브	-10.4763
▁이끌었	-10.4763
됨	-10.4763
▁디지털	-10.4763
▁마이애미	-10.4763
▁알코올	-10.4763
룸	-10.4763
▁중앙일보	-10.4763
▁비타민	-10.4763
한글뉴스	-10.4763
▁활약	-10.4763
▁호랑이	-10.4764
▁거듭	-10.4764
▁다우지수	-10.4764
▁상하이	-10.4765
▁봉송	-10.4765
▁떠났다	-10.4765
▁새벽	-10.4765
▁자치정부	-10.4765
▁라이벌	-10.4766
▁산사태	-10.4766
▁채널	-10.4766
▁타임스	-10.4767
▁급증	-10.4769
▁환호	-10.4769
▁근로자	-10.477
휴	-10.4771
▁황금	-10.4771
▁취임식	-10.4774
납	-10.4775
▁벌여	-10.4775
▁게재	-10.4778
▁오바마와	-10.4778
▁만들고	-10.478
▁열어	-10.4782
▁천재	-10.4785
▁들여	-10.4787
▁감금	-10.4788
▁진술했다	-10.4788
▁쌀	-10.4791
▁공개된	-10.4795
▁조류	-10.4807
▁약화	-10.4808
▁우리에게	-10.4808
▁맡은	-10.4808
▁소문	-10.4809
▁애도	-10.4821
▁리치	-10.4821
▁맥주	-10.483
▁자사	-10.4832
▁날아	-10.4836
▁전부터	-10.4848
▁연안	-10.4853
▁지내	-10.4865
▁공항에	-10.4875
▁감염된	-10.488
해야만	-10.4894
▁경비	-10.4894
▁주연	-10.4896
▁직장	-10.4899
▁평가했다	-10.4899
▁감지	-10.49
▁비치	-10.491
겁	-10.4922
▁minister	-10.4922
▁천연가스	-10.4922
▁토네이도	-10.4922
엠	-10.4922
▁쌍둥이	-10.4922
▁뉴저지	-10.4922
▁겨냥	-10.4922
▁아름다	-10.4922
▁롤링	-10.4922
▁위안부	-10.4922
▁치열한	-10.4922
▁졸업	-10.4922
▁화이트	-10.4923
▁법무장관	-10.4923
▁로이터	-10.4923
▁수석대표	-10.4923
▁근육	-10.4924
▁out	-10.4925
▁벨기에	-10.4929
▁무엇보다	-10.493
▁사생활	-10.4932
▁대치	-10.4936
▁정착	-10.4938
▁폭파	-10.494
▁결심	-10.494
벤	-10.494
▁몰려	-10.494
▁잡고	-10.4942
▁체코	-10.4942
▁연구팀	-10.4944
▁나토군	-10.4947
▁것인가	-10.4952
▁초반	-10.4952
▁up	-10.4956
▁향상	-10.4959
▁증상	-10.4959
조합	-10.4962
▁마무	-10.4966
제품	-10.4967
▁로스	-10.4972
레이크	-10.4973
▁주위	-10.4976
▁무리	-10.4989
▁형사	-10.5
스케	-10.5002
▁인원	-10.5005
▁매력	-10.5007
hi	-10.5008
▁들어있	-10.5016
▁증가한	-10.5021
▁다르	-10.5024
▁딕	-10.5026
▁나왔	-10.5047
▁이론	-10.5048
▁동쪽	-10.5053
▁분석가들	-10.5058
▁정신적	-10.5065
▁나에게	-10.5068
인데	-10.5075
▁사람에게	-10.5078
▁world	-10.5083
▁결선투표	-10.5083
▁뿌리	-10.5083
▁쓰촨성	-10.5083
▁아메리카	-10.5083
슐	-10.5083
턱	-10.5083
▁사찰단	-10.5083
▁은신처	-10.5083
▁원숭이	-10.5083
▁보스턴	-10.5083
▁침몰	-10.5083
▁가즈니	-10.5084
▁흥미	-10.5084
▁합법적	-10.5084
▁다섯	-10.5085
▁지하철	-10.5085
▁소련	-10.5089
▁재무부	-10.5089
▁상태로	-10.5089
▁키스	-10.509
▁종합	-10.5093
답	-10.5096
▁가족과	-10.5098
▁영양	-10.5099
▁부채	-10.51
▁엔진	-10.51
▁눈에	-10.5105
▁걸린	-10.5107
▁밴드	-10.5109
▁포함된	-10.5109
▁뛰	-10.5109
▁들어오	-10.5113
tra	-10.5114
안전	-10.5114
▁물품	-10.5115
▁하락세	-10.5117
▁상승세	-10.5124
▁국민들이	-10.5125
▁겸	-10.5127
▁가상	-10.5128
▁카터	-10.5129
▁미칠	-10.5131
써	-10.5132
부르크	-10.5134
▁악어	-10.5136
▁알카에다와	-10.5139
▁호수	-10.5146
▁서쪽	-10.5152
▁코스	-10.5157
돼야	-10.5158
▁떨어졌	-10.5159
객들	-10.5165
▁경력	-10.5167
▁던지	-10.5168
▁도착한	-10.5169
▁경호	-10.5177
▁경험이	-10.5184
▁공사	-10.5187
차량	-10.5187
▁조약	-10.5188
▁조명	-10.519
▁여행객	-10.5191
▁전원	-10.5195
▁변호인	-10.5198
▁결승전	-10.5207
▁햄	-10.5215
있었다	-10.5225
no	-10.5226
▁최저	-10.5231
ill	-10.5242
률이	-10.5247
▁늦게	-10.5247
넨	-10.5247
왓	-10.5247
▁마이크로소프트	-10.5247
▁브라이언	-10.5247
▁비핵화	-10.5247
▁알렉산더	-10.5247
▁왼쪽	-10.5247
▁이산화탄소	-10.5247
▁좋다	-10.5247
▁킬로미터	-10.5247
▁pkk	-10.5247
▁키바키	-10.5247
▁할머니	-10.5247
▁오딩가	-10.5247
▁time	-10.5247
▁득점	-10.5248
▁거짓말	-10.5248
▁날짜	-10.525
▁남극	-10.5252
▁급격	-10.5253
▁국가안보	-10.5253
▁아이폰	-10.5256
▁돌입	-10.5257
▁벗어	-10.5259
▁영업	-10.526
▁젊은이들	-10.5265
▁구조대원들	-10.5269
▁플라	-10.5271
밤	-10.5274
▁포경	-10.5275
베나	-10.5277
▁기각	-10.5279
▁초청	-10.528
▁주었다	-10.5281
범죄	-10.5282
▁살아있	-10.5283
▁분류	-10.529
▁밥	-10.5291
▁대립	-10.5304
▁한국인들	-10.5305
▁경찰청	-10.5316
▁노선	-10.533
티스	-10.5335
▁기다리	-10.5338
▁정치인	-10.5347
▁가해	-10.5348
▁간부	-10.535
▁원화	-10.5351
▁투표에서	-10.5352
▁동기	-10.5369
▁총상	-10.5374
▁장면이	-10.5381
▁세계적	-10.5384
▁유대	-10.539
▁가동	-10.5396
▁보일	-10.5396
▁미국인들이	-10.5407
▁근로자들	-10.5409
▁아프간에서	-10.5411
낭	-10.5414
쁘	-10.5414
▁뉴햄프셔	-10.5414
▁인플레이션	-10.5414
▁필라델피아	-10.5414
놈	-10.5414
▁이뤄졌다	-10.5414
▁통일부	-10.5414
▁스캔들	-10.5414
▁미디어	-10.5414
▁택시	-10.5415
▁탄압	-10.5416
▁투쟁	-10.5417
▁테니스	-10.5417
▁사냥	-10.5418
▁라이언	-10.5419
▁그대로	-10.542
쪽으로	-10.5421
▁각료	-10.5424
▁다음날	-10.5426
한번	-10.5431
▁소집	-10.5436
▁와인	-10.5438
▁신문사	-10.544
▁양국간	-10.5441
▁이란과	-10.5442
▁상상	-10.5445
▁에릭	-10.5446
캐	-10.5447
▁피고인	-10.5447
햄	-10.5447
팔	-10.5448
멜	-10.5448
▁반영	-10.5448
▁만남	-10.545
▁반복	-10.5452
▁참여한	-10.5456
기업	-10.5458
달러	-10.5459
▁화재로	-10.546
▁호소	-10.5461
▁테러와	-10.5461
▁셰	-10.5465
▁인공	-10.5465
▁전용	-10.5465
▁공기	-10.5477
렌스	-10.5481
▁소위	-10.5484
▁방식으로	-10.5492
▁입법	-10.5505
▁홍수로	-10.551
ger	-10.5518
▁급속	-10.5518
ell	-10.552
▁나오지	-10.5523
▁만들기	-10.5525
▁것임	-10.5538
▁피해자들	-10.5544
맹	-10.555
▁월요일에	-10.5554
▁au	-10.5555
▁수위	-10.5563
얀	-10.5579
헨	-10.5583
▁골키퍼	-10.5583
▁무슬림	-10.5583
▁에베레스트	-10.5583
▁이슬라마바드	-10.5583
톱	-10.5583
▁남자친구	-10.5583
쌍	-10.5583
▁china	-10.5585
▁구멍	-10.5585
▁주최측	-10.5587
▁소탕	-10.559
▁포럼	-10.5592
▁지휘관	-10.5593
▁폭설	-10.5593
▁단어장	-10.5595
▁전복	-10.5596
▁날개	-10.5599
▁브랜드	-10.5603
▁관중	-10.5607
▁음주	-10.5607
▁물러나	-10.5608
▁기록한	-10.5609
후보	-10.561
▁여론조사에서	-10.5612
▁예를들	-10.5618
짓	-10.5619
▁소형	-10.562
▁후보자	-10.5621
▁들어간	-10.5622
▁문제들	-10.5622
▁진단	-10.5624
▁수상한	-10.5624
시킨다	-10.5625
▁재임	-10.5626
▁권고	-10.5628
▁비행사	-10.563
슬러	-10.5636
▁정치인들	-10.5637
감독	-10.5641
▁로저	-10.5642
▁쓸	-10.5645
▁qu	-10.5647
▁브리	-10.5653
▁not	-10.5654
▁극장	-10.5662
▁일간지	-10.5664
▁가족들이	-10.5664
▁부산	-10.5668
▁수사관들	-10.5668
▁표명했다	-10.5676
속도로	-10.5684
▁구간	-10.5686
▁군사적	-10.5691
▁기대한다	-10.5692
▁사람들과	-10.5698
ish	-10.5699
▁말했	-10.5704
▁분만	-10.5707
ary	-10.571
페이스	-10.5716
▁지속적	-10.5719
▁공대	-10.5721
be	-10.5723
▁제대	-10.5732
라이트	-10.5732
▁제작자	-10.5745
▁정지	-10.5747
▁해병	-10.5749
▁세력이	-10.5755
▁후진타오	-10.5756
▁사우스캐롤라이나	-10.5756
▁코끼리	-10.5756
▁보여준다	-10.5756
▁균형	-10.5756
▁펀드	-10.5756
▁hiv	-10.5756
비용	-10.5756
▁괴한	-10.5758
▁감옥	-10.5761
▁징역형	-10.5761
립니다	-10.5762
▁출생	-10.5763
▁라덴	-10.5764
▁사육	-10.5767
▁종결	-10.5767
▁결함	-10.5773
▁하게	-10.5773
▁배후	-10.5777
▁성장률	-10.5785
▁기온	-10.5798
▁비교적	-10.5798
논	-10.5799
pt	-10.5799
▁부상으로	-10.58
ml	-10.5805
동맹	-10.5806
▁제공할	-10.5806
▁카라	-10.581
투표	-10.5811
▁day	-10.5814
▁게시	-10.5819
축구	-10.5825
▁받는다	-10.5832
▁아난	-10.5834
▁기소됐다	-10.5834
▁이에따라	-10.5843
기술	-10.5844
▁마리아	-10.5848
널	-10.5853
▁정식	-10.5854
▁시체	-10.5867
사업	-10.587
▁자신과	-10.588
▁내일	-10.5882
▁토지	-10.5891
▁하나로	-10.5892
활	-10.5905
▁용기	-10.5919
▁중이었다	-10.5928
랙	-10.5931
▁show	-10.5931
▁국제공항	-10.5931
▁뭄바이	-10.5931
▁쿠웨이트	-10.5931
▁줄리아니	-10.5931
▁테일러	-10.5931
▁섭취	-10.5931
▁선관위	-10.5931
▁쓰레기	-10.5931
▁옹호	-10.5931
▁스트레스	-10.5932
병원	-10.5932
▁불가피	-10.5932
▁승려들	-10.5932
▁계좌	-10.5934
▁인권단체	-10.5938
▁플래	-10.5938
▁국무	-10.5938
▁소방관	-10.5942
▁맡고	-10.5942
▁케이트	-10.5951
▁관측	-10.5952
▁초안	-10.5958
ock	-10.5962
▁종식	-10.5966
▁제목	-10.5969
▁일으켰다	-10.5972
▁가담	-10.5973
재판소	-10.5975
▁화상	-10.5976
▁인민	-10.5979
규모	-10.5987
저널	-10.5988
▁제작한	-10.6004
나무	-10.6011
▁많아	-10.6018
▁일어났다	-10.6021
▁생기	-10.6025
wi	-10.6029
▁필요성	-10.6032
▁진행자	-10.6043
커스	-10.6046
▁자택	-10.605
▁피부	-10.6063
▁적절	-10.6064
ted	-10.6068
▁근처에서	-10.6079
▁산악	-10.6089
첼	-10.6092
▁신사	-10.6104
▁광범위	-10.611
▁다큐멘터리	-10.611
▁식료품	-10.611
▁에콰도르	-10.611
▁탱크	-10.611
안토니오	-10.611
▁재검토	-10.611
▁펠로시	-10.611
▁기쁘다	-10.611
▁마라톤	-10.611
▁전당대회	-10.611
▁돌고래	-10.611
▁탈북자	-10.611
▁감바리	-10.611
▁교통사고	-10.611
▁데일리	-10.611
▁범행	-10.6112
카드	-10.6112
▁가벼	-10.6112
▁천억	-10.6112
▁세인트	-10.6112
▁intern	-10.6112
▁캐롤	-10.6112
▁예멘	-10.6113
▁지붕	-10.6113
▁소규모	-10.6114
▁nba	-10.6114
ition	-10.6116
▁농업	-10.6116
▁테러리스트들	-10.6117
▁관계당국	-10.612
▁보존	-10.6121
겠습니다	-10.6124
▁화려	-10.6128
▁확인됐다	-10.613
▁갑작스	-10.6132
▁동생	-10.6134
▁치명적인	-10.6134
▁가방	-10.6136
▁적발	-10.6138
▁재판관	-10.6139
▁착수	-10.614
버스	-10.6144
▁모아	-10.6148
▁하나인	-10.6156
▁탑승객	-10.6161
억	-10.6161
▁가게	-10.6167
▁투르	-10.617
▁자행	-10.6173
▁방송사	-10.6174
▁북쪽으로	-10.6174
▁비난하는	-10.6191
▁부실	-10.62
ting	-10.6203
▁총회	-10.6205
▁발생하고	-10.6206
bur	-10.621
▁조용	-10.621
베르	-10.623
▁사용해	-10.6231
학생	-10.6232
▁억제	-10.6238
▁선포했다	-10.6242
▁브로	-10.6245
▁you	-10.6252
▁실업	-10.6259
▁버리	-10.6262
▁내렸	-10.6264
켜	-10.6267
전쟁	-10.6268
▁참석할	-10.6269
▁세계적으로	-10.6277
즘	-10.629
융	-10.6291
▁회원국들	-10.6291
븐	-10.6292
week	-10.6292
▁국제원자력기구	-10.6292
▁돕기	-10.6292
▁샌디에이고	-10.6292
▁캐릭터	-10.6292
▁협약	-10.6292
헐	-10.6292
▁dvd	-10.6292
▁횡령	-10.6292
▁받아들여	-10.6292
▁과반수	-10.6292
▁원주민	-10.6292
▁파나마	-10.6292
way	-10.6292
▁침공	-10.6292
▁일어날	-10.6292
▁롬니	-10.6292
▁검문소	-10.6295
▁운명	-10.6298
▁레이건	-10.6299
▁설문	-10.6301
▁표준	-10.6306
▁금연	-10.6306
▁개정안	-10.6309
▁신규	-10.631
▁제정	-10.6311
▁숲	-10.6312
▁거부권	-10.6314
▁차별	-10.6314
▁판정	-10.6317
▁이용하는	-10.6323
▁서장	-10.6324
▁늘어나	-10.6325
▁모래	-10.6325
▁이륙	-10.6326
▁정상화	-10.633
▁마친	-10.6333
▁여성들이	-10.6336
▁반박	-10.6339
▁무게	-10.634
▁경관	-10.6347
▁수립	-10.6348
털	-10.6358
▁퀸	-10.6358
▁보여주고	-10.6367
▁일련	-10.6373
▁국적	-10.6377
▁성당	-10.6381
▁정상들	-10.6385
▁보냈	-10.6401
조건	-10.6402
▁차지하고	-10.641
▁근거로	-10.6413
▁부위	-10.6415
▁지점에서	-10.6416
국민	-10.6417
ber	-10.6429
▁실시할	-10.6433
▁주장한다	-10.6435
▁적십자	-10.6439
▁쓰고	-10.644
fc	-10.6442
▁당국자	-10.6463
▁수배	-10.6469
▁party	-10.6477
▁매사추세츠	-10.6477
▁메르켈	-10.6477
▁안전보장이사회	-10.6477
▁홈페이지	-10.6477
▁확장	-10.6477
슛	-10.6477
얄	-10.6477
▁영화배우	-10.6477
▁데이비스	-10.6477
▁발휘	-10.6478
▁용납	-10.6478
▁녹음	-10.648
축구연맹	-10.6481
▁불쾌	-10.6481
▁특징	-10.6482
▁래리	-10.6483
▁저희	-10.6485
▁출두	-10.6485
▁싸우	-10.6488
▁조지아주	-10.6491
▁연구원들	-10.6491
▁당초	-10.6492
▁건너	-10.6494
▁요금	-10.6495
▁신조	-10.6497
▁md	-10.6506
▁news	-10.6509
▁회계	-10.6509
총리	-10.6512
▁투명	-10.6512
▁상영	-10.6514
▁모건	-10.6514
코프	-10.6516
▁모임	-10.6517
▁조언	-10.6517
▁해안에서	-10.6521
▁오하이오주	-10.6522
tive	-10.6526
▁진보	-10.6528
▁미치는	-10.6528
▁운영하고	-10.6528
▁누르	-10.6529
▁나이트	-10.653
▁대피했다	-10.6531
▁are	-10.6531
▁war	-10.6536
▁있어야	-10.6539
▁생산량	-10.6542
▁지분	-10.6545
▁서안	-10.6559
▁혼자	-10.6563
▁제출했다	-10.6576
▁운전사	-10.6578
▁선원	-10.6581
▁세부	-10.6587
▁않았던	-10.6589
▁보조	-10.6601
▁시작했	-10.6604
▁수사관	-10.6608
▁계속될	-10.6611
▁하미	-10.6612
▁사용하지	-10.6623
▁달린	-10.6631
▁모리	-10.6647
▁달러화	-10.6647
파르	-10.665
▁실종자	-10.6656
닷	-10.6665
▁낮추	-10.6666
▁obama	-10.6666
▁마흐디	-10.6666
▁애완견	-10.6666
▁어렵다	-10.6666
▁줄기세포	-10.6666
▁프랭크	-10.6666
▁항공우주국	-10.6666
왈	-10.6666
▁불러일으	-10.6666
▁앤드류	-10.6666
▁매니저	-10.6666
▁퇴임	-10.6666
▁공산주의	-10.6666
▁난민촌	-10.6667
▁침대	-10.6667
▁축출	-10.6669
▁빌딩	-10.6669
▁친척	-10.667
▁귀환	-10.667
▁뉴욕시	-10.6672
▁완료	-10.6672
▁쿠퍼	-10.6673
▁추구하	-10.6674
▁탄생	-10.6674
▁리처드슨	-10.6677
▁확신한다	-10.6678
▁car	-10.668
▁쉽지	-10.6686
▁동맹국	-10.6687
▁스타디움에서	-10.6688
▁증세	-10.6688
▁음성	-10.6689
▁승무원들	-10.6696
▁밝혀진	-10.67
▁선임	-10.67
▁추세	-10.6701
▁원래	-10.6703
▁보게	-10.6704
▁매체	-10.671
공사	-10.6729
▁텍사스주	-10.6737
솔	-10.6746
풀	-10.6746
▁등급	-10.6747
시스템	-10.6747
▁다르다	-10.6748
▁없게	-10.6756
▁있으	-10.6785
▁최고치	-10.6811
▁중단할	-10.6815
▁외국인들	-10.6821
방위	-10.6821
ty	-10.6824
▁옆에	-10.6825
통제	-10.683
ese	-10.6842
봐	-10.6852
템	-10.6858
▁foreign	-10.6858
▁경기부양책	-10.6858
쿨	-10.6858
▁자카르타	-10.6858
▁침략	-10.6858
▁플라스틱	-10.6858
▁나타난	-10.6858
▁샘플	-10.6858
▁옐친	-10.6858
▁어깨	-10.6858
▁예비선거	-10.6858
▁득표율	-10.6859
▁헌법재판소	-10.6859
▁졸리	-10.6859
▁다국적군	-10.6863
▁급락	-10.6863
▁끝날	-10.6864
▁솔직	-10.6864
▁창출	-10.6866
▁당황	-10.6866
▁떠난	-10.6866
land	-10.687
▁복역	-10.6871
▁방출	-10.6877
▁주전	-10.6884
▁최저치	-10.6887
▁키우	-10.6891
▁발포	-10.6895
▁옆	-10.69
▁발견되었다	-10.6905
▁무어	-10.6921
▁정원	-10.6921
업자들	-10.6924
▁예정이었다	-10.6928
▁기여	-10.6937
▁창문	-10.6943
내내	-10.6945
않	-10.6947
▁조건으로	-10.6954
엑	-10.6967
줬	-10.6979
생산	-10.698
▁공개됐다	-10.6994
▁촬영한	-10.6995
▁인력	-10.7002
연방	-10.7004
▁치러지	-10.7005
▁뉴욕주	-10.7005
▁청사	-10.7023
▁년만	-10.7023
▁늘리	-10.7025
▁폴리	-10.7041
렬	-10.705
냉	-10.7054
▁뮤지컬	-10.7054
▁윔블던	-10.7054
▁프리미어리그	-10.7054
▁노르웨이	-10.7054
▁드러냈다	-10.7054
▁일으킬	-10.7054
▁중동평화	-10.7054
▁퍼거슨	-10.7054
▁외무성	-10.7054
▁알렉스	-10.7054
▁배터리	-10.7054
▁빠질	-10.7054
▁좌절	-10.7054
▁여겨지	-10.7054
▁검증	-10.7054
▁이뤄진	-10.7054
▁유혈사태	-10.7054
▁브리핑	-10.7054
▁데이빗	-10.7054
▁동일한	-10.7055
▁탐험	-10.7055
▁낙태	-10.7056
▁로딕	-10.7057
▁상륙	-10.7057
▁생방송	-10.7059
버린	-10.7061
▁실업률	-10.7062
▁오마르	-10.7062
▁american	-10.7067
▁남겨	-10.7068
▁포함돼	-10.7068
▁백신	-10.7071
▁매달	-10.7071
▁부모들	-10.7073
스테	-10.7075
▁서양	-10.7078
▁조항	-10.7081
▁본토	-10.7083
▁동료들	-10.7085
▁접전	-10.7085
▁번역	-10.7092
▁알렸다	-10.7095
▁발행	-10.7098
▁측면	-10.7098
▁분량	-10.71
니까	-10.7102
▁해상	-10.7104
▁잡아	-10.7106
▁식사	-10.7116
데스	-10.7129
▁자택에서	-10.7134
▁중단했다	-10.7142
넣	-10.7151
교육	-10.7155
▁사용된	-10.7167
▁거절했다	-10.7178
▁잡스	-10.7219
내용	-10.7223
▁생각하지	-10.7224
▁루이지애나	-10.7254
▁멤버	-10.7254
▁에티오피아	-10.7254
▁오토바이	-10.7254
▁파바로티	-10.7254
▁피라미드	-10.7254
넌	-10.7254
▁라파엘	-10.7254
▁휩쓸	-10.7254
쏘	-10.7254
▁카트리나	-10.7254
▁게릴라	-10.7254
▁느낄	-10.7254
▁보이콧	-10.7254
▁징계	-10.7254
▁암컷	-10.7254
▁시달리	-10.7254
▁정거장	-10.7255
▁여섯	-10.7255
▁포장	-10.7255
▁잠재적	-10.7256
▁빠지	-10.7256
▁손님	-10.7257
▁mbc	-10.7257
▁음료	-10.7259
▁오른쪽	-10.726
▁청년	-10.7264
▁포착	-10.7265
▁외환	-10.7266
▁표결	-10.7268
▁상대방	-10.7268
▁통증	-10.7269
▁히트	-10.7273
▁플레이어	-10.7274
▁처방	-10.7275
▁않는다면	-10.7282
▁멀리	-10.7285
▁이슬람교	-10.7285
▁동의했다	-10.7288
▁받으	-10.7296
리언	-10.7302
▁모금	-10.7304
▁레바논군	-10.7311
▁발표됐다	-10.7316
시오	-10.7321
▁이어지	-10.7329
▁사설	-10.7332
▁취해	-10.734
▁플로리다주	-10.7342
▁무장대원	-10.7343
▁유산	-10.7347
벽	-10.7352
굴	-10.7352
윤	-10.7359
▁소유하고	-10.7365
▁국기	-10.7371
▁촉구하	-10.7374
▁움직	-10.7387
▁sk	-10.7405
▁전해지	-10.7406
여행	-10.7406
▁전달했다	-10.7412
▁외치	-10.7414
▁기울이	-10.7418
▁참여할	-10.743
빠	-10.7435
ah	-10.7439
▁배심원	-10.7454
▁visit	-10.7458
▁관타나모	-10.7458
▁마돈나	-10.7458
▁펜실베니아	-10.7458
텍	-10.7458
툴	-10.7458
팩	-10.7458
펄	-10.7458
▁again	-10.7458
▁비틀즈	-10.7458
▁앤더슨	-10.7458
▁원자력	-10.7458
▁잇따	-10.7458
▁imf	-10.7458
▁객실	-10.7458
▁서식지	-10.7458
▁불가리아	-10.7458
▁의뢰	-10.7459
▁화합	-10.7464
▁fda	-10.7466
▁테러조직	-10.7466
▁내려졌다	-10.7467
▁산책	-10.7469
▁오스카	-10.7474
▁종료	-10.7475
▁약세	-10.7479
▁전국적으로	-10.7479
▁통행	-10.7479
▁유혈	-10.7482
사무소	-10.749
iz	-10.749
▁탄소	-10.7493
▁개편	-10.75
▁열렸다	-10.7502
▁보급	-10.7507
▁불행	-10.751
▁인터	-10.7523
▁막아	-10.7525
▁방향으로	-10.7526
▁all	-10.7527
▁도심	-10.7528
▁재직	-10.7529
▁자동	-10.7543
▁조지아	-10.7545
▁화장	-10.7545
▁지대	-10.7549
었는지	-10.7551
▁다음주	-10.7554
▁판다	-10.7556
늘	-10.756
빛	-10.7571
자동차	-10.7573
▁리비	-10.7586
졌습니다	-10.7614
수술	-10.762
▁해소	-10.7632
신문	-10.7633
▁관람	-10.764
▁노리	-10.7642
vs	-10.7653
▁프라이머리에서	-10.7658
엇	-10.7662
훔	-10.7666
▁talks	-10.7666
▁끔찍	-10.7666
▁자유무역협정	-10.7666
▁준결승	-10.7666
▁히틀러	-10.7666
붐	-10.7666
킴	-10.7666
▁work	-10.7666
▁경기침체	-10.7666
▁아테네	-10.7666
▁자선단체	-10.7666
▁중남미	-10.7666
▁take	-10.7666
▁에이커	-10.7667
▁공룡	-10.7668
▁벽돌	-10.7668
▁살아남	-10.7669
▁거짓	-10.7671
▁탄광	-10.7671
▁금액	-10.7672
▁탈락	-10.7673
▁점검	-10.7679
▁실시했다	-10.7679
▁이틀간	-10.7683
▁아마디	-10.7683
▁커지	-10.7686
▁피살	-10.7688
▁제시했다	-10.7688
▁세웠다	-10.7691
▁중요성	-10.7693
▁자신감	-10.7694
▁매출	-10.7695
▁아프	-10.7696
▁미터	-10.7696
▁nk	-10.7696
▁포함하여	-10.7701
▁한국은행	-10.7702
▁야구	-10.7702
▁접수	-10.7707
▁남용	-10.7711
▁강행	-10.7717
▁존경	-10.7717
▁실린	-10.7718
▁군함	-10.7718
▁좋아하는	-10.7718
▁인형	-10.7725
▁제출한	-10.773
▁우즈	-10.7736
▁양자	-10.7736
▁계기	-10.7753
▁밀어	-10.7759
tt	-10.7763
▁지지한다	-10.7766
않게	-10.7782
▁강세	-10.7783
▁동물들	-10.7785
▁br	-10.7788
서비스	-10.7791
▁분리주의	-10.7791
▁잃었	-10.7793
혔	-10.7793
업계	-10.7799
진압	-10.7809
때까지	-10.7821
▁각자	-10.7822
대책	-10.7822
조약	-10.7826
노동	-10.7843
▁클로	-10.7852
▁손해	-10.7856
▁기소된	-10.7866
▁제보	-10.7868
덤	-10.7874
▁opec	-10.7879
▁seoul	-10.7879
▁루아얄	-10.7879
▁우주왕복선	-10.7879
▁울포위츠	-10.7879
딴	-10.7879
펴	-10.7879
▁지지선언	-10.7879
▁드러내	-10.7879
▁테네시	-10.7879
▁허커비	-10.7879
▁소행성	-10.7879
▁center	-10.7879
▁징후	-10.7879
▁시라크	-10.788
▁벌써	-10.7881
▁범위	-10.7881
▁재미있	-10.7881
▁본격적	-10.7882
tri	-10.7884
▁막대한	-10.7884
▁술집	-10.7884
▁디스크	-10.7885
▁떠날	-10.7885
▁사이클	-10.7887
▁넘겨	-10.7887
▁새롭	-10.7887
▁통과시켰다	-10.789
▁풀려	-10.7892
▁함유	-10.7893
▁암호	-10.7895
▁집권당	-10.7895
▁매매	-10.7898
▁국방성	-10.7899
▁형식	-10.7899
▁메리	-10.7903
▁놓여	-10.7905
▁운동가들	-10.7905
▁아담	-10.791
▁서류	-10.791
▁기아	-10.7911
▁준수	-10.7915
▁승부	-10.7917
▁벌어졌다	-10.7918
▁남자들	-10.7919
▁실무	-10.7922
▁실직	-10.7927
▁갈라	-10.7928
▁얼마전	-10.7929
▁도청	-10.7935
돼있	-10.7943
▁연계	-10.7944
▁호소했다	-10.7944
▁있었습니다	-10.7945
▁정기적	-10.7955
▁표면	-10.7956
▁로브	-10.796
▁여행객들	-10.796
▁연간	-10.7964
two	-10.7973
▁기울	-10.7974
구역	-10.798
▁대표들	-10.7984
▁내려진	-10.7995
▁동성	-10.8004
분께	-10.8007
▁ai	-10.8007
▁정계	-10.8008
▁전역에서	-10.8028
▁당국자들	-10.8037
▁포함됐다	-10.8038
▁대통령직	-10.8042
va	-10.8051
하우스	-10.8058
▁나선	-10.8066
쾌	-10.8092
뒀	-10.8097
▁베네딕	-10.8097
▁우울증	-10.8097
▁조승희	-10.8097
랩	-10.8097
셜	-10.8097
셨	-10.8097
톨	-10.8097
▁고이즈미	-10.8097
▁디자이너	-10.8097
▁글로벌	-10.8097
▁쇠고기	-10.8097
▁포르노	-10.8097
▁흘러	-10.8097
▁스크린	-10.8097
▁품목	-10.8097
▁저항세력	-10.8097
▁퇴원	-10.8097
▁교섭	-10.81
▁cdc	-10.8101
▁more	-10.8101
▁부족하다	-10.8103
▁다룬	-10.8104
▁핵개발	-10.8105
베르토	-10.8105
▁강전에서	-10.8106
▁양곤	-10.8107
▁경향	-10.8109
▁왕세자비	-10.811
▁지역사회	-10.8112
▁계산	-10.8114
▁상담	-10.8115
▁제압	-10.8118
했었	-10.8126
▁도살	-10.8126
▁뿐이다	-10.813
▁탈레반측	-10.8134
▁장교	-10.8138
▁참가자들	-10.8138
▁공판	-10.8146
▁조절	-10.8146
▁통보	-10.815
▁대대적	-10.8151
▁소동	-10.8152
▁물체	-10.8156
▁두려워	-10.8182
▁점거	-10.8188
▁만년	-10.819
▁본다	-10.8194
▁결승전에서	-10.8194
▁대법원장	-10.8194
▁임원	-10.8196
▁경비원	-10.8204
▁사체	-10.8205
▁고려하고	-10.8222
▁정보부	-10.8226
▁양성	-10.8228
▁게리	-10.8233
▁pre	-10.8237
▁서서	-10.8244
▁지식	-10.8251
▁희망한다	-10.8256
▁승인했다	-10.8259
스런	-10.8259
▁가족들과	-10.8262
▁농민들	-10.827
▁지위	-10.8271
▁탄도	-10.8275
▁경사	-10.8295
▁바위	-10.8306
▁덧붙	-10.8315
졸	-10.8317
▁high	-10.8319
▁금메달	-10.8319
▁뉴올리언스	-10.8319
▁비서실장	-10.8319
▁아닙니다	-10.8319
▁온실가스	-10.8319
▁최첨단	-10.8319
▁톰슨	-10.8319
▁두려움	-10.8319
▁알바니아	-10.8319
▁노트북	-10.8319
▁심장마비	-10.8319
▁멈추	-10.8319
▁압바스	-10.8319
head	-10.8319
▁대서양	-10.8319
▁윈도우	-10.8319
▁open	-10.8319
▁우간다	-10.8319
▁무너지	-10.8319
▁오프라	-10.8319
▁이자율	-10.832
▁부사장	-10.832
▁곳곳	-10.8321
▁공안	-10.8322
▁win	-10.8323
▁구호단체	-10.8323
▁흔적	-10.8323
▁받아왔다	-10.8325
▁갈등	-10.8326
▁워터	-10.8328
▁고유가	-10.8329
▁파월	-10.8329
▁붙여	-10.833
▁금속	-10.8331
▁경비대	-10.8332
▁타밀	-10.8334
▁개막	-10.8334
▁러드	-10.8334
▁연례	-10.8335
▁구름	-10.8336
▁풍부	-10.8338
▁가짜	-10.8339
▁미첼	-10.834
▁테러단체	-10.8343
▁남측	-10.8348
▁보건부	-10.8352
▁발급	-10.8355
▁휴대	-10.8357
▁발발	-10.8357
▁문구	-10.8358
▁열심	-10.836
▁by	-10.8361
폴리스	-10.8363
▁무슨	-10.8367
ok	-10.8368
▁기증	-10.8371
▁모터	-10.8377
▁참석하지	-10.8379
▁has	-10.8384
▁스토	-10.8385
bc	-10.8392
▁my	-10.8396
▁확산되고	-10.8396
▁동성애	-10.8403
몬드	-10.8406
▁주립	-10.842
▁테리	-10.8469
▁신화	-10.847
사령관	-10.8473
day	-10.8489
기위해	-10.8495
▁악화되	-10.8502
테러	-10.8507
▁점수	-10.8512
▁감소했다	-10.8524
▁공무원	-10.8524
▁체포됐	-10.8526
▁선고받	-10.8536
버트	-10.8537
▁troop	-10.8546
▁그렇다	-10.8546
▁로드리게스	-10.8546
▁빅토리아	-10.8546
▁아마디네자드	-10.8546
▁오클라호마	-10.8546
▁이브라힘	-10.8546
▁펼친	-10.8546
▁평화유지군	-10.8546
▁플루토늄	-10.8546
뚫	-10.8546
▁브래드	-10.8546
▁야생동물	-10.8546
▁위스콘신	-10.8546
▁잃어버	-10.8546
▁house	-10.8546
▁의약품	-10.8546
▁도요타	-10.8546
▁허드슨	-10.8546
▁빠졌다	-10.8546
▁적합한	-10.8546
▁빼앗	-10.8546
▁해수면	-10.8546
▁금융위기	-10.8546
▁인터폴	-10.8546
▁교착상태	-10.8547
▁남아프리카	-10.8547
▁터널	-10.8547
▁남학생	-10.8549
▁무덤	-10.8551
▁박탈	-10.8556
▁들어갈	-10.8556
▁머무	-10.8557
▁채취	-10.8558
▁압도적	-10.8558
▁부탁	-10.8559
able	-10.856
▁모욕	-10.8561
▁취급	-10.8561
▁예약	-10.8562
▁고위급	-10.8564
▁모술	-10.8565
▁세탁	-10.8566
널리	-10.8567
▁법무	-10.8567
▁이루어진	-10.8569
▁양쪽	-10.8574
▁단행	-10.8579
▁시인했다	-10.8584
▁밀려	-10.8584
▁변호	-10.8585
어요	-10.8585
bar	-10.8585
▁완성	-10.8587
▁파키스탄군	-10.8587
▁신도들	-10.8588
▁군사력	-10.8589
▁포터	-10.8592
▁임대	-10.8592
▁예정이었	-10.8595
▁구류	-10.8595
▁거론	-10.8596
▁선거법	-10.8604
▁유통	-10.8609
▁경쟁력	-10.8613
▁부당	-10.8619
▁유행	-10.8619
▁해체	-10.8631
bi	-10.8636
▁양보	-10.8638
▁너무나	-10.8645
▁회수	-10.8654
roh	-10.8659
ick	-10.8688
▁제작사	-10.8703
▁반전	-10.8703
▁암시	-10.8705
셰	-10.8708
공화국	-10.8708
착륙	-10.871
▁해적들	-10.8733
▁나타났	-10.8734
▁du	-10.8737
▁위험성	-10.8745
▁불확실	-10.8751
ical	-10.8759
▁살았	-10.8762
▁넘기	-10.8771
뷰	-10.8778
깃	-10.8779
▁washington	-10.8779
▁york	-10.8779
▁나눴다	-10.8779
▁메릴랜드	-10.8779
▁스타벅스	-10.8779
▁자르다리	-10.8779
▁저질렀다	-10.8779
▁친환경	-10.8779
▁토크쇼	-10.8779
▁파파라치	-10.8779
▁확률	-10.8779
샬	-10.8779
찌	-10.8779
칩	-10.8779
▁망원경	-10.8779
▁성추행	-10.8779
▁에드워드	-10.8779
▁무승부	-10.8779
▁최우선	-10.8779
▁시나리오	-10.8779
▁기숙사	-10.8779
▁아라비아	-10.8779
bush	-10.8779
▁국정원	-10.8779
▁수류탄	-10.8779
▁삭감	-10.8779
▁활발	-10.8779
▁태어났	-10.8779
▁당부했다	-10.878
▁하원의장	-10.878
▁맥캔	-10.8781
▁남자아이	-10.8781
▁긴밀	-10.8781
구조	-10.8783
▁머레이	-10.8784
▁물고기	-10.8784
▁워너	-10.8786
▁사라졌다	-10.8786
▁델타	-10.8787
▁송금	-10.8788
▁추격	-10.8792
▁코치	-10.8792
▁인접	-10.8792
▁교외	-10.8793
▁실현	-10.8795
▁밝혀내	-10.8795
▁체류	-10.8796
▁정찰	-10.88
▁바탕	-10.8801
▁정밀	-10.8805
▁총통	-10.8813
▁포스트	-10.8815
▁개인적으로	-10.8815
▁맡았다	-10.8819
관련	-10.8827
▁해저	-10.8832
▁살해했다	-10.8839
▁관객들	-10.8843
ner	-10.885
▁상금	-10.8851
▁우세	-10.8861
달라	-10.8865
▁위하여	-10.8872
▁차질	-10.8876
확실한	-10.8883
▁독재	-10.8892
ny	-10.8896
▁회전	-10.8904
▁상세	-10.8922
▁부검	-10.8931
해달라	-10.894
탐	-10.8953
돈	-10.8954
▁따뜻	-10.8959
스럽다	-10.8962
▁사용자들	-10.8965
블리	-10.8977
▁착수했다	-10.8978
연구	-10.8998
▁뿐이라	-10.9003
▁취했다	-10.9011
▁실종됐다	-10.9014
샘	-10.9017
▁year	-10.9017
▁갤런	-10.9017
▁국가비상사태	-10.9017
▁똑같	-10.9017
▁메드베데프	-10.9017
▁미성년자	-10.9017
▁서브프라임	-10.9017
▁아웅산수치	-10.9017
▁유죄판결	-10.9017
▁자원봉사	-10.9017
▁출구조사	-10.9017
▁활성화	-10.9017
▁국립공원	-10.9017
▁뉴델리	-10.9017
▁세속주의	-10.9017
▁카를로스	-10.9017
▁첩보	-10.9017
▁say	-10.9017
▁염려	-10.9017
▁가난한	-10.9018
▁수색작업	-10.9018
▁데뷔	-10.9019
▁포셋	-10.9019
▁중앙은행	-10.902
▁환율	-10.902
▁재활용	-10.902
▁권총	-10.9021
▁힘들다	-10.9023
▁증강	-10.9024
▁연구결과	-10.9025
▁여러번	-10.9027
▁연패	-10.9027
▁대리인	-10.9027
▁예배	-10.9028
▁경영자	-10.903
▁aig	-10.903
▁단독	-10.9034
▁체포되었다	-10.9037
▁its	-10.9045
▁업적	-10.9046
▁연출	-10.9047
▁후송	-10.9048
▁고조되	-10.9062
▁복원	-10.9071
▁부처	-10.9075
▁불교	-10.9086
▁실려	-10.9087
ian	-10.9093
▁부품	-10.9095
프랑	-10.9104
▁응답	-10.9118
▁정체	-10.9119
▁안내	-10.9132
▁도구	-10.9134
▁상당수	-10.9146
▁루니	-10.9153
rate	-10.9154
▁남부지역	-10.916
▁남아있다	-10.916
▁종교적	-10.9166
▁성전	-10.9185
▁관객	-10.9202
호프	-10.9208
line	-10.9234
▁fifa	-10.9261
▁ibm	-10.9261
▁선거관리위원회	-10.9261
▁앞섰다	-10.9261
▁최루탄	-10.9261
▁하이브리드	-10.9261
눌	-10.9261
▁국세청	-10.9261
▁무장괴한	-10.9261
▁부양책	-10.9261
▁윈프리	-10.9261
▁이뤄질	-10.9261
▁섹시	-10.9261
▁자전거	-10.9261
▁주유소	-10.9261
▁좌석	-10.9261
▁티벳	-10.9261
▁개체수	-10.9261
▁유명인사	-10.9261
▁바꿀	-10.9261
▁켈리	-10.9262
▁아마존	-10.9263
▁앨런	-10.9264
▁개막식	-10.9266
▁메이저	-10.9266
▁급습	-10.9266
▁돌아갈	-10.9267
▁mdc	-10.9267
▁bda	-10.9268
▁교착	-10.9269
▁줄이기	-10.927
▁드레스	-10.9271
▁은행들	-10.9271
▁재배치	-10.9273
▁호송	-10.9274
▁서식하	-10.9277
▁설계	-10.9278
▁데리고	-10.9279
▁독감	-10.9281
▁aid	-10.9282
▁둔화	-10.9282
▁열었다	-10.9284
벨리	-10.9285
번호	-10.9285
됐는지	-10.9287
▁심판	-10.9292
▁않았습니다	-10.9294
▁증진	-10.9294
▁던진	-10.9296
▁윌슨	-10.9296
▁가택	-10.9296
▁휴일	-10.9299
▁보증	-10.9308
▁해석	-10.931
▁전형적	-10.9311
▁발견됐	-10.9317
▁서브	-10.9324
▁cd	-10.9327
▁장려	-10.9334
▁도난	-10.9334
▁구경	-10.9335
ung	-10.9339
▁산하	-10.9359
▁공개하지	-10.9362
imp	-10.9362
▁권고했다	-10.9373
▁여파	-10.9374
▁남성들	-10.9375
▁달한다	-10.9384
곳	-10.9401
ence	-10.9406
▁출장	-10.9407
▁발견되지	-10.9415
ney	-10.9427
▁인정받	-10.9432
▁판매량	-10.9437
▁얻었	-10.9459
aw	-10.946
▁리버	-10.9474
▁목격했다	-10.948
▁thi	-10.9487
▁네바다	-10.9494
▁재정적	-10.9496
own	-10.9497
▁김치	-10.95
▁수감된	-10.9502
분야	-10.9502
▁대변	-10.9504
칙	-10.9506
삭	-10.9508
빗	-10.951
▁military	-10.9511
▁국제우주정거장	-10.9511
▁맨해튼	-10.9511
▁호나우두	-10.9511
굿	-10.9511
닛	-10.9511
둑	-10.9511
▁바티칸	-10.9511
▁아랍에미리트	-10.9511
닭	-10.9511
팜	-10.9511
▁스탈린	-10.9511
▁유람선	-10.9511
▁깨끗	-10.9511
▁아스날	-10.9511
▁언덕	-10.9511
▁국무총리	-10.9511
▁퇴진	-10.9511
▁시티그룹	-10.9511
▁치솟	-10.9511
▁행렬	-10.9512
▁미주리	-10.9513
▁요즘	-10.9513
▁왜곡	-10.9513
▁국민투표	-10.9513
▁자동차업계	-10.9513
▁보조금	-10.9515
▁존스턴	-10.9515
▁군중들	-10.9517
▁가끔	-10.9517
▁동참	-10.9518
▁자발적	-10.9519
▁연극	-10.952
▁절약	-10.952
▁유괴	-10.9521
▁카라치	-10.9524
▁역임	-10.9524
▁창설	-10.9525
▁연승	-10.9528
▁수컷	-10.9528
▁연방정부	-10.9529
▁약혼	-10.9529
▁발매	-10.9534
▁불안정	-10.9538
▁시골	-10.9543
▁모집	-10.9545
▁코너	-10.9547
▁피랍된	-10.9547
▁연임	-10.9551
▁ev	-10.9561
▁만능	-10.9563
▁합의문	-10.9563
▁영구	-10.9564
▁종파	-10.9566
lin	-10.9571
▁상병	-10.9571
▁눈물	-10.9573
▁위생	-10.9577
▁재무	-10.9578
▁출전하지	-10.9579
▁지원금	-10.9583
▁부속	-10.9587
▁학생들에게	-10.9601
라데	-10.9602
▁준장	-10.9603
▁스카이	-10.9605
▁불가능하다	-10.9606
물리학	-10.9659
▁비극	-10.969
que	-10.9691
▁맡았	-10.9708
못	-10.972
보좌관	-10.9723
힘	-10.9723
김	-10.9723
▁광부	-10.9739
셉	-10.9761
꼬	-10.9766
멈	-10.9767
툼	-10.9767
▁people	-10.9767
▁가즈프롬	-10.9767
▁개발도상국	-10.9767
▁디트로이트	-10.9767
▁러닝메이트	-10.9767
▁럼스펠드	-10.9767
▁마이스페이스	-10.9767
▁믿는다	-10.9767
▁박격포	-10.9767
▁억만장자	-10.9767
▁인명피해	-10.9767
▁창기라이	-10.9767
▁켄터키	-10.9767
▁피츠버그	-10.9767
▁후지모리	-10.9767
렁	-10.9767
뤘	-10.9767
쉐	-10.9767
▁버몬트	-10.9767
▁음주운전	-10.9767
▁내무장관	-10.9767
▁apec	-10.9767
▁모니터	-10.9767
▁비공식	-10.9767
space	-10.9767
▁개헌안	-10.9767
▁라호르	-10.9767
▁하버드	-10.9767
▁코카인	-10.9767
▁국방위원장	-10.9768
▁알제리	-10.9768
▁have	-10.9769
▁구조작업	-10.977
▁가져올	-10.9771
▁던졌다	-10.9771
▁안드레	-10.9772
▁산맥	-10.9772
▁돌아올	-10.9772
▁워렌	-10.9773
▁press	-10.9773
▁미셸	-10.9773
▁돌아왔다	-10.9773
▁참배	-10.9774
▁없애	-10.9776
▁아빠	-10.9777
▁로켓포	-10.9778
▁의심되는	-10.9779
▁걸렸다	-10.9779
▁lg	-10.9781
▁테러범들	-10.9783
▁투표율	-10.9784
▁클라크	-10.9784
▁연말	-10.9784
▁치매	-10.9785
▁우편	-10.9786
▁시민권	-10.9787
▁연령	-10.979
▁찾아내	-10.9792
▁매입	-10.9794
▁발령	-10.9794
▁않습니다	-10.9802
▁유입	-10.9816
▁부결	-10.9817
푸르	-10.982
▁약탈	-10.9821
▁의제	-10.9834
▁진행될	-10.9835
▁확산되	-10.9845
▁스노	-10.9847
▁공직	-10.9858
▁파커	-10.9859
▁석방됐다	-10.9867
레오	-10.9891
▁불과하다	-10.9894
트릭	-10.9912
ash	-10.9923
▁아기들	-10.9927
하겠	-10.994
▁진행중	-10.9959
▁토대	-10.9977
빨	-10.9993
까요	-11.0014
▁기본적	-11.0021
대학교	-11.0023
냥	-11.0024
▁associat	-11.003
▁leader	-11.003
▁secretary	-11.003
▁괜찮	-11.003
▁뒷받침	-11.003
▁엘리베이터	-11.003
▁찾았다	-11.003
▁최고경영자	-11.003
껏	-11.003
섞	-11.003
캄	-11.003
캘	-11.003
▁떠오르	-11.003
▁남아프리카공화국	-11.003
▁라모스	-11.003
▁돌아다니	-11.0031
▁북극곰	-11.0031
▁넬슨	-11.0031
▁포획	-11.0032
▁터뜨	-11.0032
▁기획	-11.0034
▁시민단체	-11.0036
▁배심원단	-11.0037
▁inter	-11.0037
▁포경선	-11.004
▁대테러	-11.0041
▁그곳에서	-11.0041
city	-11.0042
▁다가오	-11.0042
▁결합	-11.0044
놨다	-11.0045
▁처형	-11.0048
되었는데	-11.0048
▁재배	-11.0049
▁응원	-11.0053
▁진료	-11.0054
▁마찰	-11.0055
▁설정	-11.0057
▁가혹	-11.0058
▁파편	-11.006
▁쉬운	-11.0062
▁예선	-11.0062
▁미셀	-11.0064
▁던져	-11.0066
▁맞았다	-11.0067
▁반등	-11.0067
극적으로	-11.0067
▁사이버	-11.007
▁넣었다	-11.0071
▁전시회	-11.0071
▁필수	-11.0071
▁환수	-11.0074
▁거친	-11.0075
▁밀러	-11.0077
▁청소	-11.0081
▁배급	-11.0083
▁성분	-11.0085
▁사회당	-11.0087
생물학	-11.0088
▁배포	-11.0092
▁버지니아주	-11.0102
▁소유주	-11.0104
▁걸려	-11.0116
▁보좌관들	-11.0127
▁사라진	-11.0133
▁독재자	-11.0189
emi	-11.0201
▁만났	-11.0261
▁usa	-11.0262
쥐	-11.0271
▁부상자들	-11.028
ite	-11.0291
겔	-11.03
펙	-11.03
▁human	-11.03
▁느낀다	-11.03
▁시애틀	-11.03
▁애완동물	-11.03
▁엉덩이	-11.03
킥	-11.03
풋	-11.03
▁해수욕장	-11.03
▁고등법원	-11.03
▁브루니	-11.03
▁근본주의	-11.03
▁그린피스	-11.03
▁무소속	-11.03
▁크레이그	-11.03
▁다행히	-11.0301
▁메모리	-11.0301
▁대한민국	-11.0301
▁바하마	-11.0301
▁느껴	-11.0301
▁덴버	-11.0301
▁카지노	-11.0301
▁기다려	-11.0301
▁기뻐	-11.0301
▁낭비	-11.0301
▁소방대원	-11.0301
▁좌파	-11.0301
▁스콧	-11.0302
▁텐트	-11.0302
▁슈퍼볼	-11.0302
▁침수	-11.0302
▁브레이크	-11.0302
▁투데이	-11.0304
▁장벽	-11.0304
▁동굴	-11.0304
▁오늘밤	-11.0304
▁면접	-11.0305
▁밝혀냈다	-11.0305
▁추천	-11.0309
▁복합	-11.0311
▁돌아온	-11.0311
▁생명체	-11.0312
▁통근	-11.0312
▁외쳤다	-11.0315
▁불황	-11.0316
▁생겨	-11.0317
▁소총	-11.0317
▁네바다주	-11.0318
▁헤어	-11.0319
▁절감	-11.0319
▁승점	-11.0321
▁치른	-11.0321
▁휴식	-11.0323
▁유골	-11.0324
▁이어졌다	-11.0324
▁창조	-11.0326
▁케이시	-11.0327
▁기름	-11.0328
▁기념식	-11.0328
▁보수당	-11.0329
▁반환	-11.0331
▁김씨	-11.0331
▁대원들	-11.0338
▁인도분	-11.0342
▁위축	-11.0342
▁교내	-11.0351
▁당연	-11.0367
▁단식	-11.037
az	-11.0374
▁시청자들	-11.0384
▁좋아한다	-11.0401
▁화제	-11.0404
▁난민들	-11.0407
▁def	-11.0411
▁때문이라	-11.0427
아웃	-11.0434
▁일시적	-11.0448
tter	-11.0458
▁효과적	-11.0481
ease	-11.0496
▁이민자들	-11.0507
▁민간인들	-11.0508
▁제공하기	-11.0519
▁철수시키	-11.055
▁지속되	-11.0559
▁브랜	-11.0561
▁england	-11.0578
▁내셔널	-11.0578
▁머리카락	-11.0578
▁버냉키	-11.0578
▁스튜디오	-11.0578
▁원자바오	-11.0578
▁침묵	-11.0578
▁크로아티아	-11.0578
▁텔레비전	-11.0578
▁트라볼타	-11.0578
▁헬리콥터	-11.0578
인플루엔자	-11.0578
잎	-11.0578
헴	-11.0578
▁호날두	-11.0578
▁휴스턴	-11.0578
▁기준금리	-11.0578
뚜	-11.0578
▁규칙	-11.0578
▁멸종위기	-11.0578
▁반체제	-11.0578
▁유수프	-11.0578
▁딜러	-11.0578
▁나눠	-11.0579
▁election	-11.0579
▁바바라	-11.0579
▁신용카드	-11.0579
▁얼룩	-11.0579
연구원	-11.0579
▁놀랄	-11.0581
▁확인되	-11.0581
▁끝났다	-11.0581
▁요르단강	-11.0581
▁회원들	-11.0582
▁이른다	-11.0583
▁화염	-11.0583
▁해당하	-11.0584
▁대선주자	-11.0585
▁논문	-11.0585
▁숨겨	-11.0586
봐야	-11.0587
▁남녀	-11.0587
▁레이저	-11.0588
▁구호품	-11.0588
▁금융시장	-11.0589
▁도핑	-11.0589
▁화석	-11.059
▁모험	-11.0592
▁탐사선	-11.0593
▁대기업	-11.0598
▁첫날	-11.0608
▁출국	-11.0614
▁급진	-11.0614
ext	-11.0616
▁역대	-11.0624
▁여개	-11.0626
▁폴슨	-11.0628
▁농민	-11.0656
포르	-11.0664
▁유명하다	-11.0667
▁여기서	-11.0683
벨트	-11.0694
사이트	-11.072
▁사살했다	-11.0802
▁순례	-11.0804
▁적극	-11.0832
▁그곳에	-11.0853
▁자녀들	-11.0855
전략	-11.0856
브리지	-11.0862
스러워	-11.0864
숭	-11.0864
▁몸값	-11.0864
▁산타클로스	-11.0864
▁애니메이션	-11.0864
빵	-11.0864
▁court	-11.0864
▁뮌헨	-11.0864
▁애틀랜타	-11.0864
▁엔지니어	-11.0864
▁칸다하르	-11.0864
▁받아들였다	-11.0864
▁식민지	-11.0864
▁맥케인	-11.0864
▁브루스	-11.0864
▁태우고	-11.0864
▁관점에서	-11.0864
▁상관없	-11.0864
▁인도주의적	-11.0865
▁히드로	-11.0865
▁마사지	-11.0866
▁군사작전	-11.0868
▁적응	-11.0869
▁집필	-11.0871
▁방문객들	-11.0871
▁무효	-11.0874
▁가죽	-11.0875
▁금년	-11.0878
▁경제학자	-11.0878
▁하더라	-11.0879
▁장거리	-11.0881
▁녹화	-11.0883
▁나와즈	-11.0885
▁소유권	-11.0887
▁정치범	-11.0888
▁새겨	-11.0888
▁공무원들	-11.0892
▁마침	-11.0893
▁다이애나비	-11.0894
▁베스트	-11.0896
▁추문	-11.0896
▁권위	-11.0897
▁예선전	-11.0897
▁장기간	-11.0906
▁있겠	-11.0909
▁선원들	-11.0918
▁항의하	-11.092
▁주주들	-11.0929
시키는데	-11.0952
▁레이더	-11.097
▁발달	-11.0975
▁모으	-11.0989
회견에서	-11.1067
륙	-11.1089
없	-11.1115
▁사진들	-11.1131
▁열렸	-11.1142
▁들어왔	-11.1154
▁이송됐다	-11.1156
펀	-11.1158
홉	-11.1158
▁securit	-11.1158
▁끊임없	-11.1158
▁느꼈다	-11.1158
▁떨어질	-11.1158
▁마케팅	-11.1158
▁맥도날드	-11.1158
▁베어스턴스	-11.1158
▁베탕쿠르	-11.1158
▁에르도간	-11.1158
▁에스토니아	-11.1158
▁오케스트라	-11.1158
▁캔자스	-11.1158
▁테러지원국	-11.1158
▁펭귄	-11.1158
긋	-11.1158
뚱	-11.1158
맘	-11.1158
셈	-11.1158
▁되돌아	-11.1158
▁브리트니	-11.1158
▁비즈니스	-11.1158
▁아칸소	-11.1158
▁부적절	-11.1158
▁만여명	-11.1158
스프링스	-11.1158
▁오렌지	-11.1158
▁간호사	-11.1158
▁퇴역	-11.1158
▁소탕작전	-11.1159
▁풀려났다	-11.1159
▁수만명	-11.1159
▁고릴라	-11.116
▁meet	-11.1161
▁prim	-11.1161
▁bank	-11.1161
▁재활	-11.1161
▁kill	-11.1161
▁미치지	-11.1163
▁녹색	-11.1164
▁코스피	-11.1164
▁저택	-11.1168
▁조짐	-11.1171
▁경제학자들	-11.1172
▁영광	-11.1173
▁버튼	-11.1173
▁잔디	-11.1178
▁들어온	-11.1179
▁잡았다	-11.1179
▁사우스	-11.1179
▁당사자	-11.1181
▁타결	-11.119
▁서약	-11.1192
▁관람객	-11.1205
▁제조업	-11.1208
▁적십자사	-11.1218
▁ban	-11.1247
▁싶어한다	-11.1269
▁생존자들	-11.1357
여금	-11.1375
▁벌어졌	-11.1407
▁파손됐다	-11.1417
셋	-11.1458
▁득표	-11.146
뮤	-11.1461
썩	-11.1461
▁골든글로브	-11.1461
▁다운로드	-11.1461
▁덕분에	-11.1461
▁모가디슈	-11.1461
▁슈퍼대의원	-11.1461
▁야스쿠니	-11.1461
▁유니세프	-11.1461
▁일으켜	-11.1461
▁침팬지	-11.1461
▁티셔츠	-11.1461
▁포괄적	-11.1461
륜	-11.1461
쉴	-11.1461
쩌	-11.1461
톡	-11.1461
▁구호물품	-11.1461
▁동유럽	-11.1461
▁미끄러	-11.1461
▁실업수당	-11.1461
▁황우석	-11.1461
▁뉴욕타임스	-11.1461
▁항생제	-11.1461
▁어두운	-11.1461
▁니케이	-11.1461
▁크로커	-11.1461
▁유조선	-11.1461
▁착취	-11.1461
▁트로피	-11.1461
▁혈액	-11.1461
▁상반기	-11.1461
▁양키스	-11.1461
▁모로코	-11.1462
▁바꿔	-11.1462
사령부	-11.1462
▁유적지	-11.1462
▁제프리	-11.1462
▁묘지	-11.1465
▁요새	-11.1465
▁운반	-11.1465
▁현지경찰	-11.1466
눈	-11.1467
▁kim	-11.1467
▁발효	-11.1468
▁wto	-11.1469
▁대략	-11.1469
▁폭등	-11.147
▁하얀	-11.147
▁패리스	-11.1472
▁출범	-11.1474
▁볼튼	-11.1475
▁거둔	-11.1476
▁풍선	-11.148
▁스텔	-11.1481
▁아이돌	-11.1482
▁근교	-11.1482
▁참모	-11.1488
▁국회의원들	-11.1494
▁복권	-11.1496
light	-11.1505
▁알려주	-11.1507
▁모르겠다	-11.1511
▁동맹국들	-11.1582
▁효율적	-11.1638
form	-11.1645
▁나빠	-11.1691
▁피닉스	-11.177
▁기후변화	-11.1774
▁london	-11.1774
▁lpga	-11.1774
▁국회의사당	-11.1774
▁로스앤젤레스	-11.1774
▁불렀다	-11.1774
▁수퍼대의원	-11.1774
▁스튜어트	-11.1774
▁평화협상	-11.1774
돋	-11.1774
핏	-11.1774
▁nfl	-11.1774
▁그라운드	-11.1774
▁베이루트	-11.1774
▁클루니	-11.1774
▁afp	-11.1774
▁wfp	-11.1774
▁마라도나	-11.1774
▁페이스북	-11.1774
▁되풀이	-11.1774
▁제니퍼	-11.1774
▁모바일	-11.1774
▁가속화	-11.1774
▁칭찬	-11.1774
▁흐름	-11.1774
▁셰이크	-11.1774
▁린제이	-11.1774
▁닉슨	-11.1774
▁침범	-11.1774
▁교과서	-11.1774
▁정해지지	-11.1774
▁여자아이	-11.1775
▁잔혹	-11.1775
▁진흙	-11.1775
▁도와주	-11.1776
▁bill	-11.1777
▁충족	-11.1778
▁취득	-11.1779
▁같습니다	-11.1781
▁극단주의자들	-11.1785
▁학년	-11.1787
밴	-11.1788
▁담겨	-11.1788
▁호킹	-11.1791
▁병역	-11.1792
▁점프하	-11.1792
보고서	-11.1793
miss	-11.1793
개혁	-11.1793
former	-11.1793
▁추출	-11.1794
시즌	-11.1795
▁줄이고	-11.18
▁광부들	-11.1864
▁효율	-11.1911
▁싶어하	-11.1912
▁무장대원들	-11.1954
▁전략적	-11.2014
▁파손되	-11.2032
▁민주적	-11.2038
▁protest	-11.2096
▁글래스고	-11.2096
▁뉴캐슬	-11.2096
▁몸무게	-11.2096
▁이르렀다	-11.2096
▁카자흐스탄	-11.2096
▁할아버지	-11.2096
믹	-11.2096
쯔	-11.2096
퓨	-11.2096
▁url	-11.2096
▁광우병	-11.2096
▁왕복선	-11.2096
▁당나귀	-11.2096
▁동북아	-11.2096
▁무너져	-11.2096
▁앵커	-11.2096
▁집무실	-11.2096
▁계열사	-11.2096
▁브리티시	-11.2096
▁매머드	-11.2096
▁중산층	-11.2096
▁국가주석	-11.2096
마누엘	-11.2096
▁김선일	-11.2096
▁무너진	-11.2096
▁대주교	-11.2096
▁세비야	-11.2096
▁예언자	-11.2096
▁냉전	-11.2096
▁지중해	-11.2096
▁축구팬	-11.2097
ious	-11.2097
▁영부인	-11.2097
▁수십억	-11.2097
▁쇼핑몰	-11.2098
▁효력	-11.2098
▁힌두교	-11.2098
▁공군기지	-11.2098
▁맞붙	-11.2098
▁퇴치	-11.2098
▁벌어들	-11.2099
▁프린스	-11.2099
▁둘째	-11.2099
▁피닉스호	-11.2099
▁높아졌다	-11.21
▁밤새	-11.21
▁레논	-11.2101
▁연휴	-11.2102
▁농담	-11.2102
▁허블	-11.2104
▁선데이	-11.2105
죽	-11.2108
book	-11.2109
▁헌신	-11.2109
▁유효	-11.211
▁천문학자들	-11.211
▁정상회의	-11.2111
▁취약	-11.2113
▁몰래	-11.2114
▁폐기물	-11.2119
▁장기적	-11.2123
▁있었는지	-11.213
음악	-11.2131
said	-11.2147
▁이례적	-11.2156
▁전설적	-11.2162
▁엑스	-11.2243
▁청소년들	-11.2252
ator	-11.2327
▁발견되	-11.2353
▁일상적	-11.238
략	-11.2387
▁피의자	-11.2394
ncy	-11.2403
▁group	-11.2429
▁도미니카	-11.2429
▁마흐무드	-11.2429
▁미네소타	-11.2429
▁상파울루	-11.2429
▁세계보건기구	-11.2429
▁양육권	-11.2429
▁인종차별	-11.2429
▁커뮤니티	-11.2429
돔	-11.2429
랫	-11.2429
엽	-11.2429
윗	-11.2429
▁attack	-11.2429
▁그루지아	-11.2429
▁도널드	-11.2429
▁우주정거장	-11.2429
▁촛불	-11.2429
▁control	-11.2429
▁빠뜨	-11.2429
▁여배우	-11.2429
▁인디아나	-11.2429
▁호르몬	-11.2429
▁벤자민	-11.243
▁부작용	-11.243
▁피아노	-11.243
▁지연되	-11.243
▁블로거	-11.243
▁안락사	-11.243
▁닥터	-11.243
▁office	-11.243
▁침투	-11.243
▁첨단	-11.243
▁물리치	-11.243
▁퇴직	-11.243
▁자서전	-11.243
▁페트로	-11.2431
▁수하물	-11.2431
▁지뢰	-11.2431
▁수비수	-11.2432
▁타이완	-11.2432
▁활기	-11.2432
▁일축했다	-11.2432
▁퇴장	-11.2432
▁홈런	-11.2434
▁두뇌	-11.2434
▁쿠르드족	-11.2434
▁필리스	-11.2435
줘야	-11.2435
▁조셉	-11.2437
urge	-11.2438
▁언제든	-11.2438
▁연방법원	-11.2438
▁당혹	-11.2439
▁풍경	-11.244
▁임박	-11.2442
▁토론토	-11.2442
▁get	-11.2442
side	-11.2453
붙	-11.2465
▁확실하다	-11.256
웃	-11.2593
▁개최되	-11.2692
붕	-11.2767
줘	-11.2768
탔	-11.2772
쿼	-11.2774
팽	-11.2774
▁death	-11.2774
▁police	-11.2774
▁research	-11.2774
▁service	-11.2774
▁그루지야	-11.2774
▁냄새	-11.2774
▁동계올림픽	-11.2774
▁매코맥	-11.2774
▁맥코맥	-11.2774
▁메사추세츠	-11.2774
▁무하메드	-11.2774
▁미드필더	-11.2774
▁박테리아	-11.2774
▁블룸버그	-11.2774
▁수하르토	-11.2774
▁슈워제네거	-11.2774
▁악영향	-11.2774
▁알자와히리	-11.2774
▁암스트롱	-11.2774
▁오키나와	-11.2774
▁재정경제부	-11.2774
▁친선경기	-11.2774
▁케르비엘	-11.2774
▁프로듀서	-11.2774
넥	-11.2774
팟	-11.2774
▁이스탄불	-11.2774
놔	-11.2774
둬	-11.2774
▁방사능	-11.2774
▁스피처	-11.2774
▁종신형	-11.2774
▁아스널	-11.2774
▁총기난사	-11.2774
▁오징어	-11.2774
▁바쿠바	-11.2774
▁고고학자들	-11.2774
▁침착	-11.2774
▁흥행	-11.2775
▁맹세	-11.2775
▁속옷	-11.2775
▁심사위원	-11.2775
▁꼬리	-11.2775
▁도덕적	-11.2775
▁중서부	-11.2775
▁크라우	-11.2775
▁납치범들	-11.2776
▁품질	-11.2777
▁중앙정보	-11.2777
▁탔다	-11.2777
▁패널	-11.2777
▁뒤따	-11.2778
▁계곡	-11.2778
▁블록	-11.2779
▁환경보호	-11.278
▁태양열	-11.278
▁같았다	-11.2781
▁대피령	-11.2783
▁면밀	-11.2783
▁총알	-11.2783
▁적대적	-11.2794
roll	-11.28
책임자	-11.2824
▁산악지역	-11.2826
▁운하	-11.2861
대변인	-11.2875
▁일방적	-11.3032
▁동부지역	-11.3046
▁일으켰	-11.3048
▁걸려있	-11.3074
흙	-11.3129
▁economic	-11.3131
▁market	-11.3131
▁united	-11.3131
▁구스마오	-11.3131
▁놀랐다	-11.3131
▁만장일치	-11.3131
▁모하마드	-11.3131
▁벨몬트	-11.3131
▁사형집행	-11.3131
▁자메이카	-11.3131
▁클리블랜드	-11.3131
▁탈라바니	-11.3131
▁퍼트레이어스	-11.3131
▁피추시킨	-11.3131
팍	-11.3131
▁issue	-11.3131
▁뉴멕시코	-11.3131
▁승용차	-11.3131
▁애틀란타	-11.3131
▁월드시리즈	-11.3131
▁제너럴	-11.3131
▁캠퍼스	-11.3131
▁캥거루	-11.3131
▁터미널	-11.3131
뻔	-11.3131
▁bmw	-11.3131
▁나타낸	-11.3131
▁크누트	-11.3131
▁agree	-11.3131
▁검찰총장	-11.3131
▁생중계	-11.3131
▁수개월	-11.3131
▁김계관	-11.3131
▁세실리아	-11.3131
▁전염병	-11.3131
▁구조조정	-11.3131
▁북동쪽	-11.3132
▁깃발	-11.3132
▁페리노	-11.3132
▁냉동	-11.3132
▁비영리	-11.3132
▁앗아	-11.3132
▁빈민가	-11.3132
▁북서쪽	-11.3132
▁러셀	-11.3132
▁염두	-11.3132
▁뜨거	-11.3132
▁사마라	-11.3132
▁유니버	-11.3132
▁미망인	-11.3132
▁월마트	-11.3132
▁노왁	-11.3133
▁흐르	-11.3134
▁제라드	-11.3134
▁down	-11.3134
▁외교정책	-11.3135
▁무엇인지	-11.3135
▁펠리	-11.3136
▁국영방송	-11.3136
▁공략	-11.3136
▁메뉴	-11.3137
▁face	-11.3138
▁chin	-11.3144
폭탄테러	-11.3194
▁따뜻하	-11.3219
사이드	-11.3312
▁만들었	-11.3429
▁블로그	-11.3474
멍	-11.3498
옐	-11.3502
▁chief	-11.3502
▁consumer	-11.3502
▁general	-11.3502
▁넘어섰다	-11.3502
▁댈러스	-11.3502
갓	-11.3502
궈	-11.3502
듬	-11.3502
볍	-11.3502
▁peace	-11.3502
▁브로드웨이	-11.3502
▁비평가들	-11.3502
▁빨간색	-11.3502
▁오피니언	-11.3502
▁웨스트버지니아	-11.3502
▁초등학교	-11.3502
깜	-11.3502
띠	-11.3502
퉁	-11.3502
푼	-11.3502
▁무책임	-11.3502
▁올바른	-11.3502
▁에탄올	-11.3502
▁여동생	-11.3502
▁저작권	-11.3502
▁앙겔	-11.3502
▁최우수	-11.3502
▁따돌리	-11.3502
▁겁니다	-11.3502
▁call	-11.3502
▁이벤트	-11.3502
▁financ	-11.3502
▁change	-11.3502
▁부회장	-11.3502
▁하반기	-11.3502
▁under	-11.3502
▁이른바	-11.3502
▁도메인	-11.3502
▁셔츠	-11.3502
▁습관	-11.3503
▁담겨있다	-11.3503
▁디스커버리호	-11.3504
트로터	-11.3504
▁하리리	-11.3504
▁늘어났다	-11.3504
▁낙찰	-11.3504
▁어휘	-11.3505
▁압승	-11.3506
▁제재조치	-11.3506
▁후계자	-11.3509
▁생물학자	-11.3536
▁agenc	-11.3539
꾸	-11.3567
뼈	-11.3578
넘	-11.358
▁make	-11.3585
▁중단시키	-11.3623
▁esta	-11.3715
into	-11.376
▁비극적	-11.3777
▁치명적	-11.3834
▁살해하겠다	-11.3872
쁜	-11.388
▁baghdad	-11.3886
▁health	-11.3886
▁pakistan	-11.3886
▁white	-11.3886
▁과테말라	-11.3886
▁국가보안법	-11.3886
▁닌텐도	-11.3886
▁리얼리티	-11.3886
▁마호메트	-11.3886
▁베테랑	-11.3886
▁보건복지부	-11.3886
▁싱가폴	-11.3886
▁엔터테인먼트	-11.3886
▁의료보험	-11.3886
▁조선중앙통신	-11.3886
▁집행유예	-11.3886
▁추수감사절	-11.3886
겹	-11.3886
낫	-11.3886
뇨	-11.3886
멧	-11.3886
무장혁명군	-11.3886
벡	-11.3886
탬	-11.3886
▁bbk	-11.3886
▁단백질	-11.3886
▁세번째	-11.3886
▁알렉산드	-11.3886
▁호주오픈	-11.3886
▁ufo	-11.3886
▁두개골	-11.3886
▁솔로몬	-11.3886
▁안타까	-11.3886
▁원내대표	-11.3886
▁조코비치	-11.3886
▁비공개	-11.3886
▁정동영	-11.3886
▁토마토	-11.3886
▁열렬한	-11.3886
▁퍼레이드	-11.3886
▁당분간	-11.3886
▁뉴욕증시	-11.3886
▁의구심	-11.3886
▁제네바	-11.3887
▁콜레라	-11.3887
▁신용위기	-11.3887
▁좌익	-11.3887
▁수족관	-11.3887
▁링컨	-11.3887
▁종업원	-11.3887
▁태어나	-11.3887
▁잡혀있	-11.3887
ship	-11.3887
▁검출	-11.3887
▁유태인	-11.3887
▁규명	-11.3888
▁낙관적	-11.3888
▁검진	-11.3888
▁대지진	-11.3888
▁zan	-11.389
▁결렬	-11.389
▁티켓	-11.389
▁노리에가	-11.389
▁free	-11.3892
▁참패	-11.3892
▁사진기자	-11.3898
덮	-11.3979
밀리에	-11.4023
▁america	-11.4259
롯	-11.4279
▁report	-11.4286
▁갤럭시	-11.4286
▁곤돌라	-11.4286
▁대중교통	-11.4286
▁대통합민주신당	-11.4286
▁라왈핀디	-11.4286
▁로맨틱	-11.4286
▁소수민족	-11.4286
▁아웅산수지	-11.4286
▁얀코비치	-11.4286
▁엔데버호	-11.4286
▁이데올로기	-11.4286
▁짝짓기	-11.4286
▁카톨릭	-11.4286
▁타블로이드	-11.4286
▁페르난도	-11.4286
▁폴라로이드	-11.4286
딱	-11.4286
솜	-11.4286
찔	-11.4286
펫	-11.4286
▁동남아시아	-11.4286
▁페널티킥	-11.4286
▁평론가들	-11.4286
룽	-11.4286
▁농작물	-11.4286
▁동점골	-11.4286
▁루마니아	-11.4286
▁백화점	-11.4286
▁원정경기	-11.4286
▁카라카스	-11.4286
▁카리스마	-11.4286
▁터무니	-11.4286
▁로페즈	-11.4286
▁마닐라	-11.4286
▁내비쳤다	-11.4286
▁보스니아	-11.4286
▁wild	-11.4286
▁유망주	-11.4286
▁자이툰	-11.4286
▁냉각	-11.4287
▁테이블	-11.4287
▁ftse	-11.4287
▁good	-11.4287
▁뮤직	-11.4287
▁that	-11.4287
▁숨지게	-11.4287
▁범람	-11.4287
▁살모넬라균	-11.4287
▁가자시티	-11.4288
▁소아과	-11.4288
▁brit	-11.4288
▁부정선거	-11.4288
▁결승골	-11.4289
▁나중에	-11.4289
▁franc	-11.429
▁경제성장률	-11.4295
▁cur	-11.4362
ful	-11.4389
핵	-11.4394
즐	-11.4395
잘	-11.4396
콕	-11.4701
앗	-11.4702
퀘	-11.4703
궐	-11.4703
뭉	-11.4703
쳇	-11.4703
츨	-11.4703
캣	-11.4703
켐	-11.4703
콥	-11.4703
쿤	-11.4703
튠	-11.4703
잠	-11.4831
딸	-11.4831
획	-11.5124
옌	-11.5138
쥬	-11.5138
쭉	-11.5138
츄	-11.5138
휘	-11.5271
팬	-11.5284
갱	-11.5592
윙	-11.5592
덱	-11.5592
둠	-11.5592
밭	-11.5592
봅	-11.5592
촨	-11.5592
딕	-11.5752
므	-11.5849
끔	-11.6056
욱	-11.6058
뷔	-11.6065
깁	-11.6068
툰	-11.6069
앵	-11.6069
긍	-11.6069
굽	-11.6069
덟	-11.6069
컷	-11.6533
룡	-11.6564
맙	-11.6569
낀	-11.6569
뜯	-11.6569
삽	-11.6569
쩔	-11.6569
앞	-11.6778
앨	-11.6787
잇	-11.6787
늄	-11.7095
늬	-11.7095
럿	-11.7095
빔	-11.7095
폼	-11.7095
벵	-11.7095
뇌	-11.7336
뒤	-11.7344
즌	-11.7631
벳	-11.765
캇	-11.765
흠	-11.765
따	-11.7925
뚝	-11.8239
꿨	-11.8239
늑	-11.8239
띤	-11.8239
쉘	-11.8239
텀	-11.8239
팻	-11.8239
퐁	-11.8239
샨	-11.8239
헬	-11.8555
섯	-11.8855
봇	-11.8856
옵	-11.8864
팡	-11.8864
헝	-11.8864
훌	-11.8864
뎌	-11.8864
랏	-11.8864
룻	-11.8864
셴	-11.8864
쑤	-11.8864
윅	-11.8864
셸	-11.9514
솟	-11.9528
뉘	-11.953
햇	-11.953
엉	-11.953
큰	-11.9938
껴	-12.0244
륭	-12.0245
멕	-12.0245
듀	-12.0706
홈	-12.0706
낙	-12.0706
빅	-12.0706
듭	-12.101
퀸	-12.1538
쓸	-12.1538
벗	-12.1539
떠	-12.154
끝	-12.154
섹	-12.1846
횡	-12.1847
숨	-12.2448
묻	-12.2449
콧	-12.2752
뭇	-12.2756
옷	-12.3447
녹	-12.3448
벼	-12.3744
왁	-12.3753
훼	-12.3756
깨	-12.4557
밥	-12.4559
겸	-12.4559
뢰	-12.485
탠	-12.4864
냄	-12.4867
깅	-12.4867
펭	-12.4867
뛰	-12.5809
윌	-12.581
웹	-12.581
즉	-12.5811
곧	-12.5811
놨	-12.6042
휠	-12.6117
깊	-12.7235
갖	-12.7239
또	-12.724
댈	-12.7546
콴	-12.7546
찮	-12.7546
쌀	-12.8904
묵	-12.8905
낄	-12.9212
촛	-12.9213
탤	-12.9213
쓴	-13.0905
맛	-13.0905
멀	-13.0905
밑	-13.0905
꿀	-13.1204
맵	-13.1213
귄	-13.1213
덧	-13.1213
숲	-13.3404
맡	-13.3406
큼	-13.3694
꿔	-13.3704
눠	-13.3706
숫	-13.3711
흉	-13.674
뜻	-13.674
왜	-13.6741
룹	-13.7
뻐	-13.704
끗	-13.7045
몇	-14.174
옆	-14.1742
빚	-14.1743
맺	-14.1743
첫	-14.1744
떤	-14.2043
힉	-14.2045
볕	-14.2046
넓	-15.176
숀	-15.1761
빼	-15.1761
봄	-15.1761
킷	-15.1854
챌	-15.1855
얇	-15.1856
씀	-15.1857
뀔	-15.1858
꽉	-15.1859
꽂	-15.186
콸	-15.1861
뭐	-15.1862
댕	-15.1863
꾀	-15.1864
얹	-15.1865
쐈	-15.1866
깐	-15.1867
긱	-15.1868
뻗	-15.1869
뱃	-15.187
낚	-15.1871
꼼	-15.1872
잦	-15.1873
씻	-15.1874
숍	-15.1875
샴	-15.1876
맑	-15.1877
렷	-15.1878
핫	-15.1879
핍	-15.188
엎	-15.1881
뭔	-15.1882
몫	-15.1883
짖	-15.1884
샀	-15.1885
곁	-15.1886
짙	-15.1887
쏜	-15.1888
낡	-15.1889
컸	-15.189
캡	-15.1891
젭	-15.1892
싣	-15.1893
닮	-15.1894
젖	-15.1895
릅	-15.1896
탓	-15.1897
쁨	-15.1898
캥	-15.1899
꽤	-15.19
굶	-15.1901
횟	-15.1902
팰	-15.1903
췌	-15.1904
웍	-15.1905
뮬	-15.1906
릇	-15.1907
틈	-15.1908
댓	-15.1909
댐	-15.191
앰	-15.1911
붓	-15.1912
펌	-15.1913
챙	-15.1914
닿	-15.1915
뤼	-15.1916
흩	-15.1917
뿔	-15.1918
뮌	-15.1919
튀	-15.192
괜	-15.1921
꼽	-15.1922
굳	-15.1923
녔	-15.1924
굉	-15.1925
옳	-15.1926
곱	-15.1927
랬	-15.1928
픔	-15.1929
밸	-15.193
닙	-15.1931
띄	-15.1932
넹	-15.1933
낌	-15.1934
밟	-15.1935
윔	-15.1936
눴	-15.1937
싫	-15.1938
괄	-15.1939
팝	-15.194
옛	-15.1941
꼈	-15.1942
썼	-15.1943
핸	-15.1944
딪	-15.1945
잊	-15.1946
멤	-15.1947
깝	-15.1948
흰	-15.1949
벅	-15.195
갇	-15.1951
좁	-15.1952
묶	-15.1953
췄	-15.1954
뱅	-15.1955
꼭	-15.1956
닫	-15.1957
왼	-15.1958
뀌	-15.1959
렴	-15.196
깔	-15.1961
궤	-15.1962
탱	-15.1963
읽	-15.1964
뱀	-15.1965
쫓	-15.1966
짧	-15.1967
쏟	-15.1968
쌓	-15.1969
뭄	-15.197
똑	-15.1971
슴	-15.1972
뒷	-15.1973
걷	-15.1974
릎	-15.1975
뽑	-15.1976
붉	-15.1977
뿌	-15.1978
얘	-15.1979
앓	-15.198
콰	-15.1981
꺾	-15.1982
멋	-15.1983
!	-15.1984
꿈	-15.1985
곽	-15.1986
낳	-15.1987
휩	-15.1988
돕	-15.1989
녁	-15.199
듣	-15.1991
됩	-15.1992
끊	-15.1993
좀	-15.1994
갤	-15.1995
춰	-15.1996
삶	-15.1997
톰	-15.1998
젝	-15.1999
늦	-15.2
슷	-15.2001
땅	-15.2002
쿄	-15.2003
잭	-15.2004
앉	-15.2005
렵	-15.2006
옮	-15.2007
젊	-15.2008
흡	-15.2009
챔	-15.201
촬	-15.2011
흑	-15.2012
샌	-15.2013
찍	-15.2014
렀	-15.2015
떻	-15.2016
겪	-15.2017
믿	-15.2018
펼	-15.2019
섰	-15.202
먹	-15.2021
낮	-15.2022
렇	-15.2023
잃	-15.2024
캠	-15.2025
싶	-15.2026
랐	-15.2027
끌	-15.2028
?	-15.2029
몸	-15.203
켰	-15.2031
밖	-15.2032
얻	-15.2033
좋	-15.2034
쇄	-15.2035
떨	-15.2036
찾	-15.2037
높	-15.2038
맞	-15.2039
혐	-15.204
많	-15.2041
협	-15.2042
확	-15.2043
밝	-15.2044
,	-15.2045
.	-15.2046
걱	-15.2046
